{
  "version": "1.0",
  "truncation": null,
  "padding": null,
  "added_tokens": [
    {
      "id": 0,
      "content": "[UNK]",
      "single_word": false,
      "lstrip": false,
      "rstrip": false,
      "normalized": false,
      "special": true
    }
  ],
  "normalizer": {
    "type": "Sequence",
    "normalizers": []
  },
  "pre_tokenizer": {
    "type": "ByteLevel",
    "add_prefix_space": false,
    "trim_offsets": true,
    "use_regex": true
  },
  "post_processor": {
    "type": "ByteLevel",
    "add_prefix_space": true,
    "trim_offsets": false,
    "use_regex": true
  },
  "decoder": null,
  "model": {
    "type": "BPE",
    "dropout": null,
    "unk_token": "[UNK]",
    "continuing_subword_prefix": null,
    "end_of_word_suffix": null,
    "fuse_unk": false,
    "byte_fallback": false,
    "ignore_merges": false,
    "vocab": {
      "[UNK]": 0,
      "!": 1,
      "\"": 2,
      "#": 3,
      "$": 4,
      "%": 5,
      "&": 6,
      "'": 7,
      "(": 8,
      ")": 9,
      "*": 10,
      "+": 11,
      ",": 12,
      "-": 13,
      ".": 14,
      "/": 15,
      "0": 16,
      "1": 17,
      "2": 18,
      "3": 19,
      "4": 20,
      "5": 21,
      "6": 22,
      "7": 23,
      "8": 24,
      "9": 25,
      ":": 26,
      ";": 27,
      "<": 28,
      "=": 29,
      ">": 30,
      "?": 31,
      "@": 32,
      "A": 33,
      "B": 34,
      "C": 35,
      "D": 36,
      "E": 37,
      "F": 38,
      "G": 39,
      "H": 40,
      "I": 41,
      "J": 42,
      "K": 43,
      "L": 44,
      "M": 45,
      "N": 46,
      "O": 47,
      "P": 48,
      "Q": 49,
      "R": 50,
      "S": 51,
      "T": 52,
      "U": 53,
      "V": 54,
      "W": 55,
      "X": 56,
      "Y": 57,
      "Z": 58,
      "[": 59,
      "\\": 60,
      "]": 61,
      "^": 62,
      "_": 63,
      "`": 64,
      "a": 65,
      "b": 66,
      "c": 67,
      "d": 68,
      "e": 69,
      "f": 70,
      "g": 71,
      "h": 72,
      "i": 73,
      "j": 74,
      "k": 75,
      "l": 76,
      "m": 77,
      "n": 78,
      "o": 79,
      "p": 80,
      "q": 81,
      "r": 82,
      "s": 83,
      "t": 84,
      "u": 85,
      "v": 86,
      "w": 87,
      "x": 88,
      "y": 89,
      "z": 90,
      "{": 91,
      "|": 92,
      "}": 93,
      "~": 94,
      "¡": 95,
      "¢": 96,
      "£": 97,
      "¤": 98,
      "¥": 99,
      "¦": 100,
      "§": 101,
      "¨": 102,
      "©": 103,
      "ª": 104,
      "«": 105,
      "¬": 106,
      "®": 107,
      "¯": 108,
      "°": 109,
      "±": 110,
      "²": 111,
      "³": 112,
      "´": 113,
      "µ": 114,
      "¶": 115,
      "·": 116,
      "¸": 117,
      "¹": 118,
      "º": 119,
      "»": 120,
      "¼": 121,
      "½": 122,
      "¾": 123,
      "¿": 124,
      "Â": 125,
      "Ã": 126,
      "Ä": 127,
      "Å": 128,
      "Æ": 129,
      "Ç": 130,
      "È": 131,
      "É": 132,
      "Ê": 133,
      "Ë": 134,
      "Ì": 135,
      "Î": 136,
      "Ï": 137,
      "Ð": 138,
      "Ñ": 139,
      "×": 140,
      "Ø": 141,
      "Ù": 142,
      "á": 143,
      "â": 144,
      "ã": 145,
      "ä": 146,
      "å": 147,
      "æ": 148,
      "ç": 149,
      "è": 150,
      "é": 151,
      "ê": 152,
      "ë": 153,
      "ì": 154,
      "í": 155,
      "î": 156,
      "ï": 157,
      "ð": 158,
      "ĉ": 159,
      "Ċ": 160,
      "č": 161,
      "Ġ": 162,
      "Ģ": 163,
      "ģ": 164,
      "Ĥ": 165,
      "ĥ": 166,
      "Ħ": 167,
      "ħ": 168,
      "Ĩ": 169,
      "ĩ": 170,
      "Ī": 171,
      "ī": 172,
      "Ĭ": 173,
      "ĭ": 174,
      "Į": 175,
      "į": 176,
      "İ": 177,
      "ı": 178,
      "Ĳ": 179,
      "ĳ": 180,
      "Ĵ": 181,
      "ĵ": 182,
      "Ķ": 183,
      "ķ": 184,
      "ĸ": 185,
      "Ĺ": 186,
      "ĺ": 187,
      "Ļ": 188,
      "ļ": 189,
      "Ľ": 190,
      "ľ": 191,
      "Ŀ": 192,
      "ŀ": 193,
      "Ł": 194,
      "ł": 195,
      "Ń": 196,
      "Ġt": 197,
      "Ġa": 198,
      "he": 199,
      "in": 200,
      "re": 201,
      "on": 202,
      "Ġthe": 203,
      "at": 204,
      "er": 205,
      "čĊ": 206,
      "Ġs": 207,
      "Ġo": 208,
      "en": 209,
      "Ġc": 210,
      "is": 211,
      "es": 212,
      "it": 213,
      "Ġw": 214,
      "or": 215,
      "an": 216,
      "Ġp": 217,
      "al": 218,
      "Ġf": 219,
      "ed": 220,
      "Ġb": 221,
      "Ġan": 222,
      "Ġof": 223,
      "ion": 224,
      "ing": 225,
      "ar": 226,
      "Ġm": 227,
      "ou": 228,
      "Ġin": 229,
      "ic": 230,
      "Ġd": 231,
      "Ġto": 232,
      "le": 233,
      "Ġand": 234,
      "ro": 235,
      "Ġth": 236,
      "as": 237,
      "ct": 238,
      "ent": 239,
      "Ġe": 240,
      "Ġh": 241,
      "Ġre": 242,
      "Ġn": 243,
      "om": 244,
      "Ġis": 245,
      "ve": 246,
      "st": 247,
      "et": 248,
      "Ġl": 249,
      "il": 250,
      "ly": 251,
      "ol": 252,
      "im": 253,
      "ation": 254,
      "ot": 255,
      "ut": 256,
      "ĠT": 257,
      "Ġg": 258,
      "ra": 259,
      "Ġbe": 260,
      "se": 261,
      "ĠI": 262,
      "ig": 263,
      "ce": 264,
      "ow": 265,
      "Ġfor": 266,
      "Ġu": 267,
      "id": 268,
      "Ġthat": 269,
      "Ġ(": 270,
      "ĠS": 271,
      "Ġon": 272,
      "âĢ": 273,
      "ĠA": 274,
      "ch": 275,
      "Ġy": 276,
      "ver": 277,
      "ur": 278,
      "ul": 279,
      "Ġst": 280,
      "ĠC": 281,
      "am": 282,
      "el": 283,
      "Ġ1": 284,
      "if": 285,
      "ith": 286,
      "Ġas": 287,
      "qu": 288,
      "Ġpro": 289,
      "ay": 290,
      "ir": 291,
      "Ġare": 292,
      "Ġcon": 293,
      "od": 294,
      "Ġit": 295,
      "Ġal": 296,
      "Ġwith": 297,
      "Ġyou": 298,
      "um": 299,
      "ter": 300,
      "ĠM": 301,
      "ad": 302,
      "her": 303,
      "ĠP": 304,
      "Ġwh": 305,
      "est": 306,
      "Ġor": 307,
      "ate": 308,
      "ge": 309,
      "Ġ2": 310,
      "ab": 311,
      "ĠThe": 312,
      "Ġex": 313,
      "ist": 314,
      "Ġ$": 315,
      "nd": 316,
      "ri": 317,
      "pe": 318,
      "ers": 319,
      "Ġcom": 320,
      "Ġv": 321,
      "Ġde": 322,
      "Ġ\\": 323,
      "Ġwe": 324,
      "ure": 325,
      "ity": 326,
      "os": 327,
      "igh": 328,
      "ore": 329,
      "Ġat": 330,
      "ĠB": 331,
      "ld": 332,
      "em": 333,
      "th": 334,
      "and": 335,
      "op": 336,
      "ment": 337,
      "Ġby": 338,
      "Ġsu": 339,
      "ill": 340,
      "ac": 341,
      "ive": 342,
      "ant": 343,
      "rom": 344,
      "Ġse": 345,
      "ave": 346,
      "ĠR": 347,
      "us": 348,
      "ĠH": 349,
      "Ġr": 350,
      "ction": 351,
      "ess": 352,
      "ke": 353,
      "ĠW": 354,
      "00": 355,
      "ies": 356,
      "nt": 357,
      "ĠF": 358,
      "Ġhe": 359,
      "pp": 360,
      "Ġcan": 361,
      "ain": 362,
      "ĠD": 363,
      "ĠE": 364,
      "Ġthis": 365,
      "Ġnot": 366,
      "ĠĠ": 367,
      "res": 368,
      "un": 369,
      "iv": 370,
      "oc": 371,
      "art": 372,
      "ĠN": 373,
      "ight": 374,
      "Ġfrom": 375,
      "Ġne": 376,
      "ud": 377,
      "Ġhave": 378,
      "ical": 379,
      "ĠL": 380,
      "Ġch": 381,
      "ould": 382,
      "ial": 383,
      "ort": 384,
      "pl": 385,
      "fe": 386,
      "te": 387,
      "ine": 388,
      "Ġus": 389,
      "per": 390,
      "Ġsh": 391,
      "pt": 392,
      "end": 393,
      "ich": 394,
      "ag": 395,
      "og": 396,
      "ĠG": 397,
      "all": 398,
      "Ġle": 399,
      "ated": 400,
      "int": 401,
      "ost": 402,
      "ĠO": 403,
      "Ġwas": 404,
      "ions": 405,
      "ome": 406,
      "Ġab": 407,
      "ple": 408,
      "ther": 409,
      "red": 410,
      "Ġqu": 411,
      "iz": 412,
      "rou": 413,
      "ust": 414,
      "ib": 415,
      "The": 416,
      "'s": 417,
      "ans": 418,
      "our": 419,
      "Ġres": 420,
      "out": 421,
      "Ġ=": 422,
      "ĠâĢ": 423,
      "Ġdo": 424,
      "Ġwhe": 425,
      "Ġ\"": 426,
      "Ġwhich": 427,
      "Ġ3": 428,
      "âĢĻ": 429,
      "ult": 430,
      "Ġim": 431,
      "..": 432,
      "ide": 433,
      "gh": 434,
      "ard": 435,
      "act": 436,
      ").": 437,
      "ations": 438,
      "low": 439,
      "Ġme": 440,
      "Ġk": 441,
      "age": 442,
      "##": 443,
      "orm": 444,
      "du": 445,
      "Ġwor": 446,
      "ĠJ": 447,
      "Ġ-": 448,
      "ĠU": 449,
      "ew": 450,
      "ell": 451,
      "ath": 452,
      "ast": 453,
      "ĠIn": 454,
      "ap": 455,
      "Ġad": 456,
      "Ġwill": 457,
      "Ġpl": 458,
      "Ġbut": 459,
      "able": 460,
      "ue": 461,
      "ase": 462,
      "Âł": 463,
      "Ġen": 464,
      "ous": 465,
      "Ġcont": 466,
      "ally": 467,
      "ĠTh": 468,
      "ach": 469,
      "ber": 470,
      "Ġcl": 471,
      "ak": 472,
      "ary": 473,
      "Ġmore": 474,
      "Ġpr": 475,
      "Ġhas": 476,
      "cl": 477,
      "Ġone": 478,
      "so": 479,
      "Ġall": 480,
      "ite": 481,
      "ry": 482,
      "ong": 483,
      "ind": 484,
      "cc": 485,
      "ime": 486,
      "ents": 487,
      "are": 488,
      "01": 489,
      "Ġpart": 490,
      "Ġyour": 491,
      "ks": 492,
      "ep": 493,
      "ign": 494,
      "Ġother": 495,
      "Ġcomp": 496,
      "Ġdis": 497,
      "ph": 498,
      "ance": 499,
      "oo": 500,
      "ace": 501,
      "Ġun": 502,
      "ater": 503,
      "Ġint": 504,
      "Ġif": 505,
      "Ġout": 506,
      "Ġthey": 507,
      "Ġso": 508,
      "ood": 509,
      "ame": 510,
      "ens": 511,
      "ia": 512,
      "ang": 513,
      "ence": 514,
      "ass": 515,
      "xt": 516,
      "Ġtheir": 517,
      "vel": 518,
      "ect": 519,
      "__": 520,
      "av": 521,
      "ru": 522,
      "Ġj": 523,
      "Ġper": 524,
      "ip": 525,
      "fere": 526,
      "ft": 527,
      "ack": 528,
      "ition": 529,
      "ress": 530,
      "$$": 531,
      "}{": 532,
      "),": 533,
      "Ġsome": 534,
      "Ġsc": 535,
      "Ġspe": 536,
      "ub": 537,
      "ric": 538,
      "Ġalso": 539,
      "Ġsp": 540,
      "ear": 541,
      "Ġman": 542,
      "Ġev": 543,
      "ĠĠĠĠ": 544,
      "Ġthere": 545,
      "ound": 546,
      "ake": 547,
      "--": 548,
      "ors": 549,
      "very": 550,
      "ond": 551,
      "ike": 552,
      "Ġquest": 553,
      "Ġ0": 554,
      "ose": 555,
      "form": 556,
      "Ġabout": 557,
      "ire": 558,
      "_{": 559,
      "Ġ19": 560,
      "Ġtr": 561,
      "ile": 562,
      "ice": 563,
      "Ġsy": 564,
      "erm": 565,
      "Ġapp": 566,
      "port": 567,
      "rac": 568,
      "Ġar": 569,
      "Ġpre": 570,
      "Ġmod": 571,
      "au": 572,
      "Ġwould": 573,
      "Ġthan": 574,
      "Ġdif": 575,
      "Ġup": 576,
      "ff": 577,
      "ory": 578,
      "ĠSt": 579,
      "Ġte": 580,
      "one": 581,
      "ates": 582,
      "ces": 583,
      "ord": 584,
      "now": 585,
      "ution": 586,
      "ree": 587,
      "Ġtw": 588,
      "Ġprob": 589,
      "Ġpo": 590,
      "Ġuse": 591,
      "Ġwere": 592,
      "Ġ4": 593,
      "ics": 594,
      "lect": 595,
      "ys": 596,
      "Ġbet": 597,
      "Ġgen": 598,
      "ĠK": 599,
      "ail": 600,
      "we": 601,
      "^{": 602,
      "ĠV": 603,
      "Ġstud": 604,
      "ild": 605,
      "Ġnum": 606,
      "ian": 607,
      "Ġwhen": 608,
      "Ġany": 609,
      "ĠThis": 610,
      "Ġcomm": 611,
      "Ġmay": 612,
      "ount": 613,
      "Ġtwo": 614,
      "Ġtime": 615,
      "Ġrel": 616,
      "Ġover": 617,
      "ram": 618,
      "ari": 619,
      "ific": 620,
      "ative": 621,
      "irst": 622,
      "ie": 623,
      "Ġform": 624,
      "âĢ¢": 625,
      "ll": 626,
      "ons": 627,
      "âĢĿ": 628,
      "math": 629,
      "Ġag": 630,
      "unction": 631,
      "erv": 632,
      "ough": 633,
      "ject": 634,
      "rib": 635,
      "old": 636,
      "Ġinter": 637,
      "Ġrec": 638,
      "Ġ5": 639,
      "ĠIt": 640,
      "ĠY": 641,
      "Ġlike": 642,
      "'t": 643,
      "Ġhow": 644,
      "Ġco": 645,
      "ating": 646,
      "ish": 647,
      "nder": 648,
      "vers": 649,
      "Ġset": 650,
      "Ġthese": 651,
      "Ġwhat": 652,
      "ook": 653,
      "Ġob": 654,
      "Ġind": 655,
      "Ġneed": 656,
      "Ġthen": 657,
      "Ġbec": 658,
      "ular": 659,
      "Ġknow": 660,
      "Ġbeen": 661,
      "Ġno": 662,
      "ual": 663,
      "ient": 664,
      "lic": 665,
      "les": 666,
      "ink": 667,
      "ature": 668,
      "ays": 669,
      "Ġinto": 670,
      "Ġsuch": 671,
      "Ġequ": 672,
      "Ġonly": 673,
      "Ġdiffere": 674,
      "Ġdes": 675,
      "eth": 676,
      "Ġwork": 677,
      "}$": 678,
      "Ġcol": 679,
      "row": 680,
      "ings": 681,
      "cre": 682,
      "olog": 683,
      "clud": 684,
      "ne": 685,
      "Ġ200": 686,
      "rad": 687,
      "Ġthem": 688,
      "stem": 689,
      "lem": 690,
      "cess": 691,
      "Ġcons": 692,
      "ove": 693,
      "Ġgo": 694,
      "ĠCh": 695,
      "Ġam": 696,
      "Ġused": 697,
      "vi": 698,
      "Ġfirst": 699,
      "Ġ&": 700,
      "...": 701,
      "fect": 702,
      "Ġwho": 703,
      "Ġph": 704,
      "ange": 705,
      "Ġspec": 706,
      "Ġfunction": 707,
      "Ġadd": 708,
      "ility": 709,
      "Ġsub": 710,
      "oss": 711,
      "ause": 712,
      "frac": 713,
      "rough": 714,
      "Ġ201": 715,
      "Ġits": 716,
      "Ġreg": 717,
      "Ġpe": 718,
      "Ġshould": 719,
      "Ġtrans": 720,
      "Ġsim": 721,
      "Ġro": 722,
      "Ġunder": 723,
      "Ġgener": 724,
      "ample": 725,
      "Ġ$\\": 726,
      "ments": 727,
      "Ġnew": 728,
      "ĠâĢľ": 729,
      "10": 730,
      "ps": 731,
      "Ġact": 732,
      "Ġass": 733,
      "Ġval": 734,
      "ced": 735,
      "Ġget": 736,
      "ween": 737,
      "ract": 738,
      "Ġ*": 739,
      "Ġsol": 740,
      "right": 741,
      "Ġ[": 742,
      "ob": 743,
      "Ġ$$": 744,
      "ata": 745,
      "Ġacc": 746,
      "mer": 747,
      "sw": 748,
      "ise": 749,
      "ities": 750,
      "Ġbetween": 751,
      "oth": 752,
      "Ġhad": 753,
      "ning": 754,
      "hat": 755,
      "ible": 756,
      "ĠUn": 757,
      "Ġyear": 758,
      "rit": 759,
      "Ġwhere": 760,
      "pect": 761,
      "ople": 762,
      "Ġpoint": 763,
      "ĠRe": 764,
      "In": 765,
      "ollow": 766,
      "Ġmost": 767,
      "ov": 768,
      "Ġinclud": 769,
      "ues": 770,
      "Ġquestion": 771,
      "Ġvari": 772,
      "ational": 773,
      "Ġeach": 774,
      "ied": 775,
      "ĠIf": 776,
      "Ġjust": 777,
      "Ġsa": 778,
      "ased": 779,
      "ffect": 780,
      "Ġcould": 781,
      "Ġprodu": 782,
      "Ġprov": 783,
      "als": 784,
      "Ġdet": 785,
      "ert": 786,
      "Ġhis": 787,
      "Ġnumber": 788,
      "Ġmat": 789,
      "iss": 790,
      "Ġhel": 791,
      "own": 792,
      "Ġsystem": 793,
      "Ġbl": 794,
      "reat": 795,
      "Ġ6": 796,
      "Ġ+": 797,
      "hed": 798,
      "hen": 799,
      "Ġdist": 800,
      "Ġx": 801,
      "Ġdifferent": 802,
      "ont": 803,
      "Ġproblem": 804,
      "Ġac": 805,
      "Ġansw": 806,
      "Ġour": 807,
      "uc": 808,
      "Ġdef": 809,
      "Ġsame": 810,
      "Ġpartic": 811,
      "tern": 812,
      "Ġmy": 813,
      "Ġfollow": 814,
      "Ġusing": 815,
      "imes": 816,
      "Ġoff": 817,
      "Ġpeople": 818,
      "ines": 819,
      ".,": 820,
      "Ġfl": 821,
      "ower": 822,
      "Ġsee": 823,
      "rain": 824,
      "Ġcor": 825,
      "Ġresult": 826,
      "Ġsupp": 827,
      "Ġty": 828,
      "com": 829,
      "fter": 830,
      "fore": 831,
      "ren": 832,
      "its": 833,
      "ĠâĢĵ": 834,
      "Ġthrough": 835,
      "vent": 836,
      "ĠWe": 837,
      "formation": 838,
      "round": 839,
      "Ġext": 840,
      "Ġ10": 841,
      "____": 842,
      "the": 843,
      "Ġprint": 844,
      "{\\": 845,
      "Ġsur": 846,
      "Ġmany": 847,
      "Ġed": 848,
      "ick": 849,
      "ize": 850,
      "ten": 851,
      "ever": 852,
      "}\\": 853,
      "Ġsm": 854,
      "hes": 855,
      "resent": 856,
      "Ġdoes": 857,
      "Ġinte": 858,
      "Th": 859,
      "ically": 860,
      "19": 861,
      "Ġwell": 862,
      "velop": 863,
      "uch": 864,
      "eg": 865,
      "Ġinst": 866,
      "ually": 867,
      "sel": 868,
      "hem": 869,
      "Ġgiv": 870,
      "Ġmake": 871,
      "ict": 872,
      "pro": 873,
      "Ġem": 874,
      "Ġmodel": 875,
      "ful": 876,
      "Ġexp": 877,
      "Ġhelp": 878,
      "cept": 879,
      "text": 880,
      "uring": 881,
      "eld": 882,
      "ex": 883,
      "urn": 884,
      "Ġrem": 885,
      "Ġfind": 886,
      "ss": 887,
      "ark": 888,
      "ool": 889,
      "Ġhigh": 890,
      "ting": 891,
      "Ġfe": 892,
      "ĠAn": 893,
      "Ġcall": 894,
      "ax": 895,
      "arch": 896,
      "ix": 897,
      "ruct": 898,
      "Ġvery": 899,
      "tt": 900,
      "ĠFor": 901,
      "ci": 902,
      "ited": 903,
      "aw": 904,
      "Ġdata": 905,
      "nce": 906,
      "alth": 907,
      "Ġlar": 908,
      "ute": 909,
      "ock": 910,
      "ĠPro": 911,
      "cy": 912,
      "Ġcur": 913,
      "Ġdi": 914,
      "20": 915,
      "Ġcomple": 916,
      "Ġdevelop": 917,
      "ident": 918,
      "Ġtest": 919,
      "ĠHe": 920,
      "fer": 921,
      "ator": 922,
      "Ġcre": 923,
      "ield": 924,
      ")$": 925,
      "ec": 926,
      "Ġbu": 927,
      "up": 928,
      "ĠAl": 929,
      "Ġ'": 930,
      "Ġbecause": 931,
      "Ġeven": 932,
      "app": 933,
      "left": 934,
      "ars": 935,
      "ef": 936,
      "erg": 937,
      "ork": 938,
      "Ġrequ": 939,
      "ages": 940,
      "Ġway": 941,
      "land": 942,
      "ality": 943,
      "Ġatt": 944,
      "Ġ7": 945,
      "ases": 946,
      "Ġboth": 947,
      "Ġquestions": 948,
      "rm": 949,
      "ices": 950,
      "pr": 951,
      "Ġinformation": 952,
      "ethod": 953,
      "ts": 954,
      "Ġfact": 955,
      "ural": 956,
      "Ġstr": 957,
      "Ġfound": 958,
      "Ġappro": 959,
      "ily": 960,
      "ined": 961,
      "Ġline": 962,
      "ĠX": 963,
      "Ġprocess": 964,
      "raph": 965,
      "rent": 966,
      "put": 967,
      "Ġ{": 968,
      "ized": 969,
      "ince": 970,
      "get": 971,
      "chn": 972,
      "ĠCom": 973,
      "ale": 974,
      "Ġdec": 975,
      "ability": 976,
      "Ġchar": 977,
      "12": 978,
      "ade": 979,
      "Ġexample": 980,
      "ctions": 981,
      "----": 982,
      "Ġshow": 983,
      "ists": 984,
      "der": 985,
      "Ġpost": 986,
      "Ġanswer": 987,
      "Ġpar": 988,
      "Ġsec": 989,
      "ism": 990,
      "Ġloc": 991,
      "ted": 992,
      "Ġlong": 993,
      "ode": 994,
      "Ġsign": 995,
      "Ġ8": 996,
      "Ġelect": 997,
      "Ġgrou": 998,
      "inter": 999,
      "Ġexper": 1000,
      "Ġincre": 1001,
      "Ġeffect": 1002,
      "Ġdisc": 1003,
      "ron": 1004,
      "Ġthink": 1005,
      "Ġet": 1006,
      "Ġwater": 1007,
      "Ġmuch": 1008,
      "ved": 1009,
      "Ġinf": 1010,
      "Ġafter": 1011,
      "Ġend": 1012,
      "Ġinv": 1013,
      "omet": 1014,
      "cul": 1015,
      "oci": 1016,
      "cent": 1017,
      "gram": 1018,
      "Ġ9": 1019,
      "Ġgood": 1020,
      "read": 1021,
      "ures": 1022,
      "Ġcar": 1023,
      "other": 1024,
      "ck": 1025,
      "Ġimport": 1026,
      "000": 1027,
      "Ġsaid": 1028,
      "Ġevery": 1029,
      "line": 1030,
      "Ġright": 1031,
      "ng": 1032,
      "Ġwant": 1033,
      "ma": 1034,
      "chool": 1035,
      "ral": 1036,
      "ĠHow": 1037,
      "11": 1038,
      "ta": 1039,
      "Ġconst": 1040,
      "ology": 1041,
      "io": 1042,
      "ife": 1043,
      "aterial": 1044,
      "Ġrep": 1045,
      "Ġhere": 1046,
      "ctor": 1047,
      "wn": 1048,
      "Ġchild": 1049,
      "bers": 1050,
      "ivers": 1051,
      "Ġpub": 1052,
      "Ġpers": 1053,
      "meric": 1054,
      "Ġ18": 1055,
      "to": 1056,
      "Ġthose": 1057,
      "Ġposs": 1058,
      "ĠĠĠĠĠĠĠĠ": 1059,
      "This": 1060,
      "ĠQ": 1061,
      "Ġmon": 1062,
      "Ġent": 1063,
      "ull": 1064,
      "âĢĵ": 1065,
      "Ġpol": 1066,
      "Ġrese": 1067,
      "Ġstate": 1068,
      "ather": 1069,
      "ization": 1070,
      "Ġsmall": 1071,
      "//": 1072,
      "Ġke": 1073,
      "Ġdon": 1074,
      "gg": 1075,
      "Ġz": 1076,
      "Ġear": 1077,
      "Ġmeas": 1078,
      "Ġcent": 1079,
      "iqu": 1080,
      "Ġyears": 1081,
      "Ġgiven": 1082,
      "ote": 1083,
      "Ġq": 1084,
      "Ġav": 1085,
      "Ġaut": 1086,
      "ton": 1087,
      "con": 1088,
      "Ġdire": 1089,
      "air": 1090,
      "Ġdep": 1091,
      "tle": 1092,
      "Ġnow": 1093,
      "Ġbeing": 1094,
      "Ġ.": 1095,
      "ray": 1096,
      "Ġpat": 1097,
      "Ġexpl": 1098,
      "eng": 1099,
      "Ġmin": 1100,
      "Ġread": 1101,
      "ants": 1102,
      "cer": 1103,
      "Ġcase": 1104,
      "Ġ:": 1105,
      "aking": 1106,
      "inal": 1107,
      "Ġstudy": 1108,
      "gan": 1109,
      "Ġmed": 1110,
      "ĠAmeric": 1111,
      "arm": 1112,
      "ergy": 1113,
      "Ġ20": 1114,
      "Ġmight": 1115,
      "###": 1116,
      "oy": 1117,
      "Ġi": 1118,
      "Ġris": 1119,
      "Ġlook": 1120,
      "ty": 1121,
      "Ġve": 1122,
      "201": 1123,
      "uss": 1124,
      "ential": 1125,
      "Ġcommun": 1126,
      "Ġstart": 1127,
      "Ġtem": 1128,
      "Ġest": 1129,
      "val": 1130,
      "Ġterm": 1131,
      "Ġresp": 1132,
      "Ġclass": 1133,
      "imate": 1134,
      "Ġmet": 1135,
      "Ġfil": 1136,
      "Ġfollowing": 1137,
      "Ġ}": 1138,
      "sc": 1139,
      "Ġra": 1140,
      "Ġanal": 1141,
      "ward": 1142,
      "ness": 1143,
      "||": 1144,
      "Ġlear": 1145,
      "Ġcal": 1146,
      "Ġmust": 1147,
      "view": 1148,
      "ox": 1149,
      "led": 1150,
      "olution": 1151,
      "Ġtechn": 1152,
      "gen": 1153,
      "Ġback": 1154,
      "Ġtoo": 1155,
      "Ġmethod": 1156,
      "Ġtri": 1157,
      "Ġsl": 1158,
      "ĠNew": 1159,
      "Ġele": 1160,
      "pos": 1161,
      "ides": 1162,
      "ger": 1163,
      "Ġtop": 1164,
      "Ġpos": 1165,
      "Ġproper": 1166,
      "Ġthree": 1167,
      "Ġsupport": 1168,
      "ik": 1169,
      "Ġcond": 1170,
      "Ġtake": 1171,
      "ider": 1172,
      "acter": 1173,
      "lear": 1174,
      "ĠZ": 1175,
      "ĠSe": 1176,
      "Ġlevel": 1177,
      "âĪ": 1178,
      "Ġcount": 1179,
      "Ġnon": 1180,
      "Ġvalue": 1181,
      "rol": 1182,
      "Ġlit": 1183,
      "ier": 1184,
      "Ġmaterial": 1185,
      "Ġgl": 1186,
      "ĠAs": 1187,
      "ann": 1188,
      "Ġbefore": 1189,
      "Ġprogram": 1190,
      "mm": 1191,
      "ĠYou": 1192,
      "Ġpop": 1193,
      "Ġfield": 1194,
      "ane": 1195,
      "ĠBut": 1196,
      "tic": 1197,
      "ivid": 1198,
      "Ġdown": 1199,
      "Ġduring": 1200,
      "Ġdesc": 1201,
      "Ġopt": 1202,
      "Ġret": 1203,
      "over": 1204,
      "Ġmade": 1205,
      "ds": 1206,
      "Ġwhile": 1207,
      "here": 1208,
      "ional": 1209,
      "cial": 1210,
      "itive": 1211,
      ");": 1212,
      "Ġhy": 1213,
      "Ġsecond": 1214,
      "ĠEx": 1215,
      "par": 1216,
      "rest": 1217,
      "ety": 1218,
      "13": 1219,
      "ole": 1220,
      "ulation": 1221,
      "Ġconf": 1222,
      "Ġcontain": 1223,
      "15": 1224,
      "ffic": 1225,
      "Ġmult": 1226,
      "Ġhealth": 1227,
      "agn": 1228,
      "://": 1229,
      "==": 1230,
      "Ġlarge": 1231,
      "Ġ|": 1232,
      "itions": 1233,
      "Ġmain": 1234,
      "ody": 1235,
      "Ġhand": 1236,
      "Ġtyp": 1237,
      "stand": 1238,
      "ins": 1239,
      "lis": 1240,
      "ĠCon": 1241,
      "Ġcalled": 1242,
      "}}": 1243,
      "Ġmem": 1244,
      "Ġimportant": 1245,
      "Ġhum": 1246,
      "ash": 1247,
      "ify": 1248,
      "und": 1249,
      "Ġoper": 1250,
      "of": 1251,
      "Ġreport": 1252,
      "Ġca": 1253,
      "Ġser": 1254,
      "Ġins": 1255,
      "ium": 1256,
      "Ġless": 1257,
      "iron": 1258,
      "Ġvi": 1259,
      "Ġmean": 1260,
      "Ġdid": 1261,
      "Ġap": 1262,
      "Ġstudents": 1263,
      "ĠSo": 1264,
      "Ġfam": 1265,
      "22": 1266,
      "hip": 1267,
      "16": 1268,
      "18": 1269,
      "Ġide": 1270,
      "irc": 1271,
      "$.": 1272,
      "Ġoften": 1273,
      "Ġiss": 1274,
      "Ġstand": 1275,
      "iversity": 1276,
      "ves": 1277,
      "ank": 1278,
      "14": 1279,
      "ven": 1280,
      "Ġocc": 1281,
      "akes": 1282,
      "ilar": 1283,
      "Ġgu": 1284,
      "Ġstill": 1285,
      "Ġworld": 1286,
      "self": 1287,
      "Ġant": 1288,
      "ĠThere": 1289,
      "ples": 1290,
      "200": 1291,
      "hy": 1292,
      "serv": 1293,
      "Ġperson": 1294,
      "Ġreal": 1295,
      "ertain": 1296,
      "Ġeas": 1297,
      "ense": 1298,
      "Ġcell": 1299,
      "Ġop": 1300,
      "Ġcour": 1301,
      "Ġorder": 1302,
      "Ġenergy": 1303,
      "aper": 1304,
      "Ġallow": 1305,
      "Ġspace": 1306,
      "ource": 1307,
      "ript": 1308,
      "Ġcurrent": 1309,
      "mit": 1310,
      "face": 1311,
      "Ġlead": 1312,
      "Ġown": 1313,
      "Ġche": 1314,
      "ross": 1315,
      "ters": 1316,
      "Ġagain": 1317,
      "mathb": 1318,
      "ired": 1319,
      "Ġdeterm": 1320,
      "Ġschool": 1321,
      "Ġsit": 1322,
      "Ġshe": 1323,
      "Ġstruct": 1324,
      "ably": 1325,
      "Ġrisk": 1326,
      "Ġthough": 1327,
      "Ġbeh": 1328,
      "Ġdesign": 1329,
      "Ġgroup": 1330,
      "ĠAnd": 1331,
      "ivity": 1332,
      "Ġask": 1333,
      "perature": 1334,
      "Ġaround": 1335,
      "oint": 1336,
      "ĠAr": 1337,
      "**": 1338,
      "(\\": 1339,
      "Ġpower": 1340,
      "Ġbr": 1341,
      "Ġlist": 1342,
      "Ġrad": 1343,
      "Ġredu": 1344,
      "ĠRes": 1345,
      "iod": 1346,
      "ware": 1347,
      "Ġsite": 1348,
      "Ġwithout": 1349,
      "25": 1350,
      "Ġserv": 1351,
      "etic": 1352,
      "ots": 1353,
      "ified": 1354,
      "Ġgeneral": 1355,
      "Ġpresent": 1356,
      "angu": 1357,
      "Ġdistrib": 1358,
      "ope": 1359,
      "If": 1360,
      "ww": 1361,
      "mb": 1362,
      "ument": 1363,
      "set": 1364,
      ".\"": 1365,
      "for": 1366,
      "Ġcap": 1367,
      "ĠWhat": 1368,
      "ared": 1369,
      "ives": 1370,
      "Ġbas": 1371,
      "Ġphys": 1372,
      "Ġpossible": 1373,
      "Ġident": 1374,
      "We": 1375,
      "Ġtry": 1376,
      "amet": 1377,
      "Ġprinter": 1378,
      "Ġlife": 1379,
      "ason": 1380,
      "Ġcorre": 1381,
      "ency": 1382,
      "ĠPh": 1383,
      "rans": 1384,
      "Ġlim": 1385,
      "ner": 1386,
      "Ġsince": 1387,
      "Ġcomput": 1388,
      "$,": 1389,
      "me": 1390,
      "ug": 1391,
      "Ġbased": 1392,
      "ĠDe": 1393,
      "Ġmeasure": 1394,
      "Ġ,": 1395,
      "Ġsay": 1396,
      "17": 1397,
      "âĢī": 1398,
      "Ġrun": 1399,
      "be": 1400,
      "viron": 1401,
      "Ġmot": 1402,
      "Ġcontin": 1403,
      "Ġlib": 1404,
      "Ġvol": 1405,
      "Ġchange": 1406,
      "Ġtext": 1407,
      "Ġcommon": 1408,
      "Ġresults": 1409,
      "Ġbel": 1410,
      "ĠThey": 1411,
      "tain": 1412,
      "Ġabove": 1413,
      "Ġer": 1414,
      "Ġvis": 1415,
      "arent": 1416,
      "Ġfew": 1417,
      "Ġday": 1418,
      "Ġimp": 1419,
      "Ġmeans": 1420,
      "Ġ12": 1421,
      "Ġknown": 1422,
      "day": 1423,
      "oms": 1424,
      "yn": 1425,
      "Ġinc": 1426,
      "ĠIs": 1427,
      "br": 1428,
      "ience": 1429,
      "oid": 1430,
      "Ġanother": 1431,
      "Ġunderstand": 1432,
      "Ġref": 1433,
      "Ġobject": 1434,
      "Ġ15": 1435,
      "Ġseem": 1436,
      "ither": 1437,
      "ailable": 1438,
      "ead": 1439,
      "els": 1440,
      "Ġfin": 1441,
      "Ġparticular": 1442,
      "ateg": 1443,
      "orn": 1444,
      "Ġher": 1445,
      "Ġtemperature": 1446,
      "Ġadv": 1447,
      "Ġorig": 1448,
      "Ġimm": 1449,
      "Ġfood": 1450,
      "aving": 1451,
      "Ġtra": 1452,
      "Ġtype": 1453,
      "ression": 1454,
      "utions": 1455,
      "any": 1456,
      "Ġ199": 1457,
      "Ġ>": 1458,
      "Ġhist": 1459,
      "Ġinterest": 1460,
      "Ġlight": 1461,
      "rix": 1462,
      "ĠInd": 1463,
      "30": 1464,
      "atic": 1465,
      "________": 1466,
      "=\\": 1467,
      "atural": 1468,
      "ets": 1469,
      "Ġbetter": 1470,
      "Ġsolution": 1471,
      "Ġlet": 1472,
      "Ġpress": 1473,
      "ometh": 1474,
      "ble": 1475,
      "less": 1476,
      "Ġsing": 1477,
      "Ġbuild": 1478,
      "ious": 1479,
      "omething": 1480,
      "âĢĶ": 1481,
      "ference": 1482,
      "Ġ<": 1483,
      "Ġchang": 1484,
      "aj": 1485,
      "vious": 1486,
      "}^{": 1487,
      "ĠÂ": 1488,
      "Ġresearch": 1489,
      "Ġobserv": 1490,
      "reen": 1491,
      "Ġpublic": 1492,
      "vironment": 1493,
      "Ġcalcul": 1494,
      "Ġlow": 1495,
      "ggest": 1496,
      "ĠHowever": 1497,
      "oh": 1498,
      "Ġpot": 1499,
      "Ġarea": 1500,
      "ĠLe": 1501,
      "ital": 1502,
      "Ġleast": 1503,
      "ength": 1504,
      "not": 1505,
      "Ġappe": 1506,
      "ividual": 1507,
      "Ġgrow": 1508,
      "Ġplace": 1509,
      "Ġsk": 1510,
      "osed": 1511,
      "aces": 1512,
      "Ġsimilar": 1513,
      "Ġgreat": 1514,
      "ĠAd": 1515,
      "ah": 1516,
      "ĠUniversity": 1517,
      "ration": 1518,
      "Ġlangu": 1519,
      "nal": 1520,
      "ĠâĢĶ": 1521,
      "lease": 1522,
      "ament": 1523,
      "plic": 1524,
      "It": 1525,
      "Ġel": 1526,
      "Ġdirect": 1527,
      "Ġfre": 1528,
      "Ġrate": 1529,
      "Ġsever": 1530,
      "ĠčĊ": 1531,
      "ording": 1532,
      "fra": 1533,
      "ources": 1534,
      "yle": 1535,
      "Ġsomething": 1536,
      "Ġwithin": 1537,
      "Ġchildren": 1538,
      "ĠOn": 1539,
      "ission": 1540,
      ",\"": 1541,
      "hor": 1542,
      "alk": 1543,
      "az": 1544,
      "Ġwrit": 1545,
      "way": 1546,
      "Ġcomb": 1547,
      "Ġincluding": 1548,
      "ograph": 1549,
      "AT": 1550,
      "Ġinteg": 1551,
      "ision": 1552,
      "Ġprote": 1553,
      "play": 1554,
      "aps": 1555,
      "ccess": 1556,
      "24": 1557,
      "lish": 1558,
      "Ġnumbers": 1559,
      "Ġstandard": 1560,
      "mon": 1561,
      "Ġaddition": 1562,
      "Ġmulti": 1563,
      "Ġsuggest": 1564,
      "Ġrepresent": 1565,
      "Ġcontrol": 1566,
      "Ġvalues": 1567,
      "Ġprinting": 1568,
      "ĠSc": 1569,
      "align": 1570,
      "ently": 1571,
      "Ġlast": 1572,
      "iment": 1573,
      "Ġconsider": 1574,
      "ior": 1575,
      "oun": 1576,
      "Ġview": 1577,
      "chan": 1578,
      "Ġpract": 1579,
      "Ġhig": 1580,
      "ĠCl": 1581,
      "ĠThese": 1582,
      "Ġcharacter": 1583,
      "ination": 1584,
      "Ġlaw": 1585,
      "verse": 1586,
      "Ġindividual": 1587,
      "50": 1588,
      "Ġ16": 1589,
      "rop": 1590,
      "ooks": 1591,
      "Ġavailable": 1592,
      "Ġcare": 1593,
      "Ġexam": 1594,
      "\".": 1595,
      "bl": 1596,
      "work": 1597,
      "Ġspecific": 1598,
      "ways": 1599,
      "Ġpres": 1600,
      ".âĢĿ": 1601,
      "Ġinclude": 1602,
      "ients": 1603,
      "Ġbelow": 1604,
      "Ġbre": 1605,
      "ysis": 1606,
      "Ġhtt": 1607,
      "Ġdiscuss": 1608,
      "ifold": 1609,
      "ĠEng": 1610,
      "Ġlocal": 1611,
      "ä¸": 1612,
      "Ġperform": 1613,
      "Ġsize": 1614,
      "ĠTe": 1615,
      "Ġwhy": 1616,
      "lu": 1617,
      "Ġpred": 1618,
      "Ġbody": 1619,
      "sh": 1620,
      "Ġproject": 1621,
      "ĠÂł": 1622,
      "Ġmass": 1623,
      "Ġseveral": 1624,
      "hers": 1625,
      "Ġproduct": 1626,
      "ER": 1627,
      "ered": 1628,
      "imal": 1629,
      "Ġhuman": 1630,
      "'m": 1631,
      "Ġbest": 1632,
      "Ġdise": 1633,
      "Ġproblems": 1634,
      "ĠAmerican": 1635,
      "Ġrest": 1636,
      "Ġorgan": 1637,
      "cing": 1638,
      "igure": 1639,
      "Ġ17": 1640,
      "Ġoccur": 1641,
      "urther": 1642,
      "Ġname": 1643,
      "Ġexist": 1644,
      "Ġfile": 1645,
      "Ġsingle": 1646,
      "oad": 1647,
      "ĠTo": 1648,
      "ume": 1649,
      "Ġperiod": 1650,
      "Ġ/": 1651,
      "itor": 1652,
      "Ġexpect": 1653,
      "ries": 1654,
      "Ġplay": 1655,
      "egin": 1656,
      "cal": 1657,
      "Ġdepend": 1658,
      "ĠUnited": 1659,
      "Ġcertain": 1660,
      "ological": 1661,
      "Ġpaper": 1662,
      "Ġdescrib": 1663,
      "lished": 1664,
      "istic": 1665,
      "Ġlittle": 1666,
      "Ġ...": 1667,
      "Ġtrad": 1668,
      "ror": 1669,
      "use": 1670,
      "Ġpur": 1671,
      "Ġprof": 1672,
      "ences": 1673,
      "epend": 1674,
      "Ġtag": 1675,
      "Ġsum": 1676,
      "Ġgra": 1677,
      "min": 1678,
      "Ġnorm": 1679,
      "Ġwr": 1680,
      "ators": 1681,
      "ouse": 1682,
      "rodu": 1683,
      "Ġhapp": 1684,
      "ret": 1685,
      "ern": 1686,
      "Ġfunctions": 1687,
      "man": 1688,
      "05": 1689,
      "Ġdeg": 1690,
      "eral": 1691,
      "Ġthings": 1692,
      "Ġstrong": 1693,
      "ird": 1694,
      "ĠPr": 1695,
      "ats": 1696,
      "Ġnet": 1697,
      "Ġplan": 1698,
      "Ġapplic": 1699,
      "Ġtreat": 1700,
      "Ġpoints": 1701,
      "An": 1702,
      "Ġtimes": 1703,
      "Ġmark": 1704,
      "ively": 1705,
      "begin": 1706,
      "Ġpri": 1707,
      "Ġreally": 1708,
      "Ġpass": 1709,
      "Ġnatural": 1710,
      "omen": 1711,
      "Ġstep": 1712,
      "For": 1713,
      "rt": 1714,
      "arc": 1715,
      "ames": 1716,
      "mathrm": 1717,
      "ving": 1718,
      "43": 1719,
      "Ġwhether": 1720,
      "ering": 1721,
      "ols": 1722,
      "ring": 1723,
      "Ġable": 1724,
      "Ġsure": 1725,
      "Ġcaus": 1726,
      "}$$": 1727,
      "ised": 1728,
      "Ġcode": 1729,
      "Ġimpro": 1730,
      "Ġtheory": 1731,
      "Ġang": 1732,
      "angle": 1733,
      "Ġbelie": 1734,
      "What": 1735,
      "ided": 1736,
      "Ġresist": 1737,
      "40": 1738,
      "Ġair": 1739,
      "mathfra": 1740,
      "mathfrak": 1741,
      "inc": 1742,
      "Ġabs": 1743,
      "Ġeduc": 1744,
      "arrow": 1745,
      "ĠOr": 1746,
      "Ġdiff": 1747,
      "Ġprovide": 1748,
      "Ġsurface": 1749,
      "Ġsignific": 1750,
      "Ġopen": 1751,
      "Ġassoci": 1752,
      "Ġpercent": 1753,
      "Ġbehav": 1754,
      "27": 1755,
      "stit": 1756,
      "ajor": 1757,
      "by": 1758,
      "}(": 1759,
      "Ġrelated": 1760,
      "))": 1761,
      "Ġtrain": 1762,
      "Ġsays": 1763,
      "ocial": 1764,
      "Ġequation": 1765,
      "Ġhead": 1766,
      "outh": 1767,
      "ables": 1768,
      "Ġlay": 1769,
      "Ġrespect": 1770,
      "ged": 1771,
      "Ġfree": 1772,
      "ention": 1773,
      "ately": 1774,
      "ĠSh": 1775,
      "Ġcourse": 1776,
      "Ġremain": 1777,
      "Ġlater": 1778,
      "Ġdistribution": 1779,
      "23": 1780,
      "Ġcomplete": 1781,
      "Ġinvol": 1782,
      "Ġcost": 1783,
      "Ġbo": 1784,
      "ury": 1785,
      "Ġenvironment": 1786,
      "bon": 1787,
      "ges": 1788,
      "Ġhard": 1789,
      "hemat": 1790,
      "dis": 1791,
      "Ġsw": 1792,
      "lection": 1793,
      "Ġgoing": 1794,
      "vention": 1795,
      "$\\": 1796,
      "Ġput": 1797,
      "ĠSp": 1798,
      "ĠThat": 1799,
      ",âĢĿ": 1800,
      "Ġclear": 1801,
      "Ġmatrix": 1802,
      "ym": 1803,
      "Ġcomplex": 1804,
      "\",": 1805,
      "ties": 1806,
      "Ġtrue": 1807,
      "ĠStates": 1808,
      "Ġlearn": 1809,
      "Ġrece": 1810,
      "though": 1811,
      "Ġquant": 1812,
      "Ġparamet": 1813,
      "onse": 1814,
      "Ġdra": 1815,
      "Ġhim": 1816,
      "ĠUS": 1817,
      "--------": 1818,
      "Ġpain": 1819,
      "elta": 1820,
      "ĠWhen": 1821,
      ".)": 1822,
      "gin": 1823,
      "pond": 1824,
      "Ġland": 1825,
      "AR": 1826,
      "Ġlab": 1827,
      "imens": 1828,
      "ler": 1829,
      "Ġlines": 1830,
      "usion": 1831,
      "'ve": 1832,
      "Ġeither": 1833,
      "Ġcheck": 1834,
      "As": 1835,
      "Ġcompon": 1836,
      "Ġmove": 1837,
      "ived": 1838,
      "Ġenough": 1839,
      "Ġrelative": 1840,
      "Ġflow": 1841,
      "ĠWh": 1842,
      "bs": 1843,
      "Ġge": 1844,
      "Ġalways": 1845,
      "rary": 1846,
      "Ġ13": 1847,
      "Ġradi": 1848,
      "ape": 1849,
      "yl": 1850,
      "ĠCent": 1851,
      "Ġdev": 1852,
      "osp": 1853,
      "Ġgover": 1854,
      "26": 1855,
      "ĠEn": 1856,
      "Ġhigher": 1857,
      "ï¼": 1858,
      "Ġgas": 1859,
      "There": 1860,
      "'re": 1861,
      "):": 1862,
      "orem": 1863,
      "Ġ$$\\": 1864,
      "Ġdefin": 1865,
      "rist": 1866,
      "Ġmechan": 1867,
      "Ġeng": 1868,
      "Ġusually": 1869,
      "Ġleft": 1870,
      "Ġcommunity": 1871,
      "Ġpotential": 1872,
      "equ": 1873,
      "ĠâĢĺ": 1874,
      "ling": 1875,
      "ances": 1876,
      "Ġreason": 1877,
      "verage": 1878,
      "ique": 1879,
      "mathbb": 1880,
      "How": 1881,
      "ended": 1882,
      "Ġkeep": 1883,
      "gs": 1884,
      "29": 1885,
      "Ġfour": 1886,
      "Ġgive": 1887,
      "Ġbi": 1888,
      "Ġunt": 1889,
      "usb": 1890,
      "Ġdevelopment": 1891,
      "Ġbro": 1892,
      "####": 1893,
      "Ch": 1894,
      "Ġcirc": 1895,
      "Ġdue": 1896,
      "conom": 1897,
      "Ġreturn": 1898,
      "Ġsystems": 1899,
      "Ġgr": 1900,
      "Ġsequ": 1901,
      "Ġnear": 1902,
      "LA": 1903,
      "orth": 1904,
      "Ġfrequ": 1905,
      "28": 1906,
      "icro": 1907,
      "Ġlog": 1908,
      "pecial": 1909,
      "Ġ--": 1910,
      "fficient": 1911,
      "ero": 1912,
      "Ġrange": 1913,
      "Ġlikely": 1914,
      "ä»": 1915,
      "Ġrather": 1916,
      "Ġworks": 1917,
      "Ġpressure": 1918,
      "vant": 1919,
      "igen": 1920,
      "âĢľ": 1921,
      "ĠQu": 1922,
      "Ġgovern": 1923,
      "St": 1924,
      "wh": 1925,
      "ene": 1926,
      "imum": 1927,
      "Ġnext": 1928,
      "amb": 1929,
      "39": 1930,
      "stract": 1931,
      "Ġanswers": 1932,
      "ĠAt": 1933,
      "Ġbecome": 1934,
      "Ġspecies": 1935,
      "Ġtypes": 1936,
      "Ġopp": 1937,
      "Ġ14": 1938,
      "andom": 1939,
      "ocument": 1940,
      "Ġbound": 1941,
      "Ġdisease": 1942,
      "Ġrecord": 1943,
      ")(": 1944,
      "],": 1945,
      "Ġinit": 1946,
      "ĠMay": 1947,
      "Ġclose": 1948,
      "sp": 1949,
      "Ġlink": 1950,
      "Ġstat": 1951,
      "Ġsoft": 1952,
      "ready": 1953,
      "Ġanalysis": 1954,
      "une": 1955,
      "Ġscient": 1956,
      "cd": 1957,
      "thing": 1958,
      "Ġexplain": 1959,
      "21": 1960,
      "Ġsubject": 1961,
      "Ġturn": 1962,
      "Ġfore": 1963,
      "Ġsimple": 1964,
      "Ġcr": 1965,
      "idence": 1966,
      "Ġterms": 1967,
      "ĠSci": 1968,
      "elf": 1969,
      "Ġneg": 1970,
      "Ġes": 1971,
      "Ġmov": 1972,
      "Ġder": 1973,
      "Ġnecess": 1974,
      "Ġarg": 1975,
      "Ġprobability": 1976,
      "Ġpopulation": 1977,
      "Ġtre": 1978,
      "icult": 1979,
      "Ġlower": 1980,
      "Ġsepar": 1981,
      "04": 1982,
      "Ġver": 1983,
      "ember": 1984,
      "Ġmonth": 1985,
      "nect": 1986,
      "Ġlength": 1987,
      "where": 1988,
      "ĠCol": 1989,
      "Ġsuccess": 1990,
      "Ġspect": 1991,
      "ification": 1992,
      "Ġmajor": 1993,
      "omm": 1994,
      "ilities": 1995,
      "Ġamount": 1996,
      "Ġcells": 1997,
      "Ex": 1998,
      "pha": 1999,
      "Ġhome": 2000,
      "atch": 2001,
      "eta": 2002,
      "Ġ11": 2003,
      "Ġalong": 2004,
      "Ġquality": 2005,
      "Ġparts": 2006,
      "Ġflu": 2007,
      "Ġ#": 2008,
      "35": 2009,
      "ask": 2010,
      "Ġhaving": 2011,
      "raction": 2012,
      "ek": 2013,
      "},": 2014,
      "Ġalready": 2015,
      "Ġcome": 2016,
      "Ġevent": 2017,
      "Ġstructure": 2018,
      "Ġside": 2019,
      "Ġcorrect": 2020,
      "Ġsignificant": 2021,
      "You": 2022,
      "ams": 2023,
      "ours": 2024,
      "Ġqrt": 2025,
      "Ġconditions": 2026,
      "nces": 2027,
      "ule": 2028,
      "ians": 2029,
      "ĠAll": 2030,
      "rict": 2031,
      "Ġfamily": 2032,
      "Ġ)": 2033,
      "Ġfar": 2034,
      "Ġdel": 2035,
      "Ġtoget": 2036,
      "aken": 2037,
      "Ġtogether": 2038,
      "org": 2039,
      "ĠCO": 2040,
      "Ġheat": 2041,
      "duct": 2042,
      "illion": 2043,
      "respond": 2044,
      "ocus": 2045,
      "Ġequal": 2046,
      "Ġmole": 2047,
      "ĠPl": 2048,
      "col": 2049,
      "agement": 2050,
      "Ġcreate": 2051,
      "Ġlearning": 2052,
      "Ġunit": 2053,
      "80": 2054,
      "AC": 2055,
      "aim": 2056,
      "Ġprim": 2057,
      "Ġlinear": 2058,
      "rel": 2059,
      "Ġmach": 2060,
      "Ġgraph": 2061,
      "ires": 2062,
      "ales": 2063,
      "Ġactually": 2064,
      ")=": 2065,
      "To": 2066,
      "Ġbit": 2067,
      "cos": 2068,
      "ãĢ": 2069,
      "ĠSy": 2070,
      "amp": 2071,
      "alf": 2072,
      "obal": 2073,
      "Ġben": 2074,
      "ithm": 2075,
      "Ġearly": 2076,
      "por": 2077,
      "Ġcases": 2078,
      "Ġdri": 2079,
      "asing": 2080,
      "ids": 2081,
      "Ġresponse": 2082,
      "Ġuntil": 2083,
      "alle": 2084,
      "Ġothers": 2085,
      "Ġlanguage": 2086,
      ")\\": 2087,
      "ledge": 2088,
      "Ġindic": 2089,
      "Ġdetail": 2090,
      "inary": 2091,
      "ĠFr": 2092,
      "Ġfeature": 2093,
      "Ġrequire": 2094,
      "ories": 2095,
      "uro": 2096,
      "Ġbed": 2097,
      "ĠCal": 2098,
      "ĠEar": 2099,
      "aves": 2100,
      "ula": 2101,
      "ĠGen": 2102,
      "Ġartic": 2103,
      "60": 2104,
      "Ġdone": 2105,
      "ival": 2106,
      "Ġkind": 2107,
      "Ġspecial": 2108,
      "ns": 2109,
      "Ġvers": 2110,
      "Ġtot": 2111,
      "ards": 2112,
      "Ã©": 2113,
      "iles": 2114,
      "istics": 2115,
      "ST": 2116,
      "Ġsource": 2117,
      "ogn": 2118,
      "action": 2119,
      "Ġsocial": 2120,
      "Ġfurther": 2121,
      "Ġ30": 2122,
      "pi": 2123,
      "Ġparent": 2124,
      "lands": 2125,
      "Ġfull": 2126,
      "Ġobtain": 2127,
      "like": 2128,
      "Ġrandom": 2129,
      "ude": 2130,
      "Ġcondition": 2131,
      "Ġold": 2132,
      "orld": 2133,
      "Ġ25": 2134,
      "Ġnever": 2135,
      "34": 2136,
      "mber": 2137,
      "uation": 2138,
      "lying": 2139,
      "Ġblood": 2140,
      "Ġ\\\\": 2141,
      "Ġshown": 2142,
      "plement": 2143,
      "astic": 2144,
      "Ġvector": 2145,
      "str": 2146,
      "Ġlot": 2147,
      "ĠBe": 2148,
      "ensity": 2149,
      "roll": 2150,
      "ĠRep": 2151,
      "most": 2152,
      "ones": 2153,
      "Ġfac": 2154,
      "Ġmax": 2155,
      "ĠFe": 2156,
      "Ġshort": 2157,
      "Ġincrease": 2158,
      "Ġlibusb": 2159,
      "ï¼Į": 2160,
      "100": 2161,
      "lab": 2162,
      "net": 2163,
      "Ġsat": 2164,
      "Ġreview": 2165,
      "ott": 2166,
      "Ġforce": 2167,
      "Ġaccess": 2168,
      "cise": 2169,
      "Ġill": 2170,
      "iting": 2171,
      "Ġloss": 2172,
      "Ġmagn": 2173,
      "Ġhowever": 2174,
      "Ġgroups": 2175,
      "Ġhistory": 2176,
      "ault": 2177,
      "Ġstates": 2178,
      "Ġidea": 2179,
      "wise": 2180,
      "edi": 2181,
      "Ġmar": 2182,
      "aring": 2183,
      "Ġworking": 2184,
      "Ġaddress": 2185,
      "Ġauthor": 2186,
      "Ġdifficult": 2187,
      "Ġdays": 2188,
      "Ġ100": 2189,
      "Ġcannot": 2190,
      "Ġvarious": 2191,
      "sup": 2192,
      "Ġprevious": 2193,
      "Ġconstant": 2194,
      "'ll": 2195,
      "dd": 2196,
      "Ġsqu": 2197,
      "Ġbase": 2198,
      "ublic": 2199,
      "bstract": 2200,
      "Ġhold": 2201,
      "Ġenc": 2202,
      "Ġproperties": 2203,
      "Ġestim": 2204,
      "Ġassociated": 2205,
      "de": 2206,
      "Ġareas": 2207,
      "Ġacross": 2208,
      "AN": 2209,
      "Ġapproach": 2210,
      "Ġagainst": 2211,
      "Ġpredict": 2212,
      "99": 2213,
      "Ġmaking": 2214,
      "Ġaccount": 2215,
      "ometimes": 2216,
      "Ġissues": 2217,
      "Man": 2218,
      "ournal": 2219,
      "atory": 2220,
      "Ġsample": 2221,
      "place": 2222,
      "Ġintrodu": 2223,
      "Ġpositive": 2224,
      "style": 2225,
      "change": 2226,
      "Ġdoesn": 2227,
      "Ġbir": 2228,
      "Ġimage": 2229,
      "He": 2230,
      "Ġcrit": 2231,
      "isc": 2232,
      "Ġpack": 2233,
      "Ġmakes": 2234,
      "âĪĴ": 2235,
      "pri": 2236,
      "olic": 2237,
      "Ġcorrespond": 2238,
      "ison": 2239,
      "Ġitself": 2240,
      "ĠLet": 2241,
      "^{-": 2242,
      "ĠComm": 2243,
      "Ġetc": 2244,
      "Ġage": 2245,
      "ina": 2246,
      "Ġneeds": 2247,
      "Ġphot": 2248,
      "Ġerror": 2249,
      "atter": 2250,
      "Ġcause": 2251,
      "aster": 2252,
      "Al": 2253,
      "ctors": 2254,
      "Ġrelations": 2255,
      "Ġaccept": 2256,
      "sy": 2257,
      "uture": 2258,
      "da": 2259,
      "anced": 2260,
      "Ġbegin": 2261,
      "Ġamong": 2262,
      "Ġ2012": 2263,
      "Ġelements": 2264,
      "Pro": 2265,
      "bed": 2266,
      "ĠÎ": 2267,
      "Ġfocus": 2268,
      "Ġcontinu": 2269,
      "mmet": 2270,
      "Ġwar": 2271,
      "ands": 2272,
      "Ġcult": 2273,
      "Ġexact": 2274,
      "Ġdefined": 2275,
      "ption": 2276,
      "iness": 2277,
      "Ġbook": 2278,
      "Ġconcer": 2279,
      "Ġappl": 2280,
      "Ġfeel": 2281,
      "allel": 2282,
      "Ġaverage": 2283,
      "ends": 2284,
      "Ġmodels": 2285,
      "Ġeconom": 2286,
      "otes": 2287,
      "Ġleg": 2288,
      "ometry": 2289,
      "Ġseems": 2290,
      "irm": 2291,
      "Ġselect": 2292,
      "ĠNe": 2293,
      "ored": 2294,
      "Ġprobably": 2295,
      "Ġcarbon": 2296,
      "Ġgre": 2297,
      "Ġdem": 2298,
      "Ġcop": 2299,
      "Ġthing": 2300,
      "ĠOct": 2301,
      "Ġstudies": 2302,
      "Ġinflu": 2303,
      "Ġseries": 2304,
      "ĠÂłĠÂł": 2305,
      "Ġfail": 2306,
      "Ġshows": 2307,
      "anc": 2308,
      "ober": 2309,
      "Ġseen": 2310,
      "Ġchanges": 2311,
      "Ġtotal": 2312,
      "Ġsense": 2313,
      "Ġmatter": 2314,
      "33": 2315,
      "45": 2316,
      "So": 2317,
      "Ġaccording": 2318,
      "Ġkey": 2319,
      "Ġissue": 2320,
      "Ġsites": 2321,
      "Ġdom": 2322,
      "ĠCont": 2323,
      "Ġexperiment": 2324,
      "Ġsens": 2325,
      "Ġbond": 2326,
      "Ġcho": 2327,
      "Ġassum": 2328,
      "bra": 2329,
      "Ġaffect": 2330,
      "Ġinput": 2331,
      "ĠMar": 2332,
      "ĠOne": 2333,
      "Ġrot": 2334,
      "}=": 2335,
      "let": 2336,
      "ills": 2337,
      "Ġparticip": 2338,
      "Ġbig": 2339,
      "ĠMed": 2340,
      "Ġoutput": 2341,
      "*}": 2342,
      "bar": 2343,
      "Ġrecomm": 2344,
      "Ġmultiple": 2345,
      "Ġnormal": 2346,
      "IN": 2347,
      "Ġwind": 2348,
      "empt": 2349,
      "Ġimplement": 2350,
      "Ġmaterials": 2351,
      "ĠPhys": 2352,
      "Ġconcept": 2353,
      "ĠThen": 2354,
      "Ġrequired": 2355,
      "Ġoriginal": 2356,
      "Ġcancer": 2357,
      "oose": 2358,
      "Ġprevent": 2359,
      "Ġestab": 2360,
      "Ġways": 2361,
      "Ġnuc": 2362,
      "Ġprom": 2363,
      "Ġmethods": 2364,
      "77": 2365,
      "orph": 2366,
      "Ġpath": 2367,
      "iving": 2368,
      "Ġdifference": 2369,
      "Ġactiv": 2370,
      "Ġgovernment": 2371,
      "Ġpage": 2372,
      "Ġrele": 2373,
      "phi": 2374,
      "Ġelectron": 2375,
      "Ġfuture": 2376,
      "AS": 2377,
      "ply": 2378,
      "erator": 2379,
      "ibility": 2380,
      "Ġhttp": 2381,
      "bit": 2382,
      "}}{": 2383,
      "Ġwave": 2384,
      "Ġsam": 2385,
      "lex": 2386,
      "idered": 2387,
      "ependent": 2388,
      "dro": 2389,
      "li": 2390,
      "Ġconnect": 2391,
      "ĠNational": 2392,
      "Ġuser": 2393,
      "urope": 2394,
      "reg": 2395,
      "sequ": 2396,
      "Ġweight": 2397,
      "Ġwords": 2398,
      "Ġplant": 2399,
      "idd": 2400,
      "Ġchem": 2401,
      "ok": 2402,
      "Ġyet": 2403,
      "ores": 2404,
      "artment": 2405,
      "ortun": 2406,
      "ĠGu": 2407,
      "çļ": 2408,
      "Ġdou": 2409,
      "oles": 2410,
      "çļĦ": 2411,
      "CO": 2412,
      "test": 2413,
      "åĨ": 2414,
      "ery": 2415,
      "Ġrespons": 2416,
      "Ġvac": 2417,
      "Ġusers": 2418,
      "Ġposition": 2419,
      "pecially": 2420,
      "uel": 2421,
      "Ġcat": 2422,
      "Ġdig": 2423,
      "ĠGe": 2424,
      "Ġtransfer": 2425,
      "itation": 2426,
      "ounds": 2427,
      "Ġregion": 2428,
      "Ġproduce": 2429,
      "49": 2430,
      "Ġfit": 2431,
      "earch": 2432,
      "ĠState": 2433,
      "ä»£": 2434,
      "light": 2435,
      "ĠJan": 2436,
      "Ġ2008": 2437,
      "apt": 2438,
      "based": 2439,
      "anks": 2440,
      "ĠMat": 2441,
      "Ġart": 2442,
      "Ġneeded": 2443,
      "Ġimprove": 2444,
      "Ġbenef": 2445,
      "Ġmess": 2446,
      "Ġgot": 2447,
      "Ġconsidered": 2448,
      "ixed": 2449,
      "Ġtraining": 2450,
      "trans": 2451,
      "}_{": 2452,
      "ining": 2453,
      "ley": 2454,
      "Ġpropos": 2455,
      "Ġox": 2456,
      "ication": 2457,
      "ush": 2458,
      "ploy": 2459,
      "Ġpatients": 2460,
      "Ġelement": 2461,
      "upp": 2462,
      "Ġtell": 2463,
      "Ġcy": 2464,
      "utes": 2465,
      "Ġsuper": 2466,
      "Ġ2009": 2467,
      "ĠChrist": 2468,
      "Ġtaken": 2469,
      "Ġfram": 2470,
      "ĠSE": 2471,
      "Ġconver": 2472,
      "Ġpoly": 2473,
      "Ġknowledge": 2474,
      "Ġeffects": 2475,
      "playstyle": 2476,
      "Ġpast": 2477,
      "opic": 2478,
      "Ġinstead": 2479,
      "Ġmembers": 2480,
      "name": 2481,
      "Ġclaim": 2482,
      "ĠStud": 2483,
      "www": 2484,
      "ĠMod": 2485,
      "ĠEurope": 2486,
      "mathcal": 2487,
      "af": 2488,
      "Ġsearch": 2489,
      "Ġrelation": 2490,
      "Ġinitial": 2491,
      "65": 2492,
      "oot": 2493,
      "side": 2494,
      "Ġdiv": 2495,
      "ĠCan": 2496,
      "ĠBy": 2497,
      "orts": 2498,
      "ambda": 2499,
      "cdot": 2500,
      "lt": 2501,
      "Ġspeed": 2502,
      "Ġwhole": 2503,
      "Ġextr": 2504,
      "ociety": 2505,
      "Ġcontains": 2506,
      "75": 2507,
      "AM": 2508,
      "py": 2509,
      "Ġmap": 2510,
      "ĠMe": 2511,
      "Ġapprox": 2512,
      "Ġfund": 2513,
      "ordin": 2514,
      "Ġzero": 2515,
      "bi": 2516,
      "gor": 2517,
      "Ġself": 2518,
      "Ġmen": 2519,
      "olute": 2520,
      "Ġequations": 2521,
      "Ġlevels": 2522,
      "SE": 2523,
      "ream": 2524,
      "alpha": 2525,
      "()": 2526,
      "log": 2527,
      "ĠSome": 2528,
      "uck": 2529,
      "ipp": 2530,
      "array": 2531,
      "ĠII": 2532,
      "Ġquite": 2533,
      "Ġvir": 2534,
      "Ġuseful": 2535,
      "Ġsection": 2536,
      "Ġeval": 2537,
      "Ġcreated": 2538,
      "ĠEarth": 2539,
      "part": 2540,
      "Ġparticles": 2541,
      "Ġtreatment": 2542,
      "ae": 2543,
      "Ġtalk": 2544,
      "Ġaway": 2545,
      "inci": 2546,
      "ulations": 2547,
      "Ġnetwork": 2548,
      "ĠApr": 2549,
      "ĠWorld": 2550,
      "rightarrow": 2551,
      "ON": 2552,
      "Ġmom": 2553,
      "Ġalmost": 2554,
      "ĠIntern": 2555,
      "Ġregular": 2556,
      "Ġsimply": 2557,
      "ĠAss": 2558,
      "Ġdetermine": 2559,
      "Manifold": 2560,
      "When": 2561,
      "back": 2562,
      "Ġdru": 2563,
      "âĢ¦": 2564,
      "ĠGerm": 2565,
      "Ġcontrib": 2566,
      "Ġelectr": 2567,
      "Ġavoid": 2568,
      "cript": 2569,
      "ser": 2570,
      "Ġpair": 2571,
      "Ġhot": 2572,
      "see": 2573,
      "ĠApp": 2574,
      "Ġmicro": 2575,
      "Ġhalf": 2576,
      "Ġservices": 2577,
      "Ġphysical": 2578,
      "cies": 2579,
      "itude": 2580,
      "Ġwomen": 2581,
      "Ġfem": 2582,
      "Ġphase": 2583,
      "selves": 2584,
      "Ġinvest": 2585,
      "Ġimpact": 2586,
      "Ġdoing": 2587,
      "ruction": 2588,
      "Ġrecogn": 2589,
      "Ġ2010": 2590,
      "Ġpolic": 2591,
      "Ġmotion": 2592,
      "].": 2593,
      "hood": 2594,
      "sing": 2595,
      "Ġdocument": 2596,
      "Ġparallel": 2597,
      "Ġresearc": 2598,
      "Ġresistance": 2599,
      "bo": 2600,
      "ising": 2601,
      "Ġred": 2602,
      "ĠDep": 2603,
      "Ġ50": 2604,
      "38": 2605,
      "time": 2606,
      "aker": 2607,
      "Ġadded": 2608,
      "Se": 2609,
      "Ġann": 2610,
      "Ġmathemat": 2611,
      "Ġwrite": 2612,
      "Ġsoftware": 2613,
      "lation": 2614,
      "Ġess": 2615,
      "eration": 2616,
      "anes": 2617,
      "Ġden": 2618,
      "Ġhours": 2619,
      "gebra": 2620,
      "rie": 2621,
      "ĠDo": 2622,
      "Ġregard": 2623,
      "****": 2624,
      "Re": 2625,
      "ules": 2626,
      "Ġyoung": 2627,
      "Ġproduction": 2628,
      "08": 2629,
      "</": 2630,
      "aries": 2631,
      "amma": 2632,
      "ideo": 2633,
      "Ġevents": 2634,
      "Ġobserved": 2635,
      "pose": 2636,
      "itch": 2637,
      "orks": 2638,
      "ilt": 2639,
      "book": 2640,
      "mod": 2641,
      "times": 2642,
      "Ġax": 2643,
      "inks": 2644,
      "omes": 2645,
      "itional": 2646,
      "Ġprovides": 2647,
      "Ġprovided": 2648,
      "rated": 2649,
      "ops": 2650,
      "pper": 2651,
      "Ġjob": 2652,
      "Ġglobal": 2653,
      "Ġcomputer": 2654,
      "Com": 2655,
      "arget": 2656,
      "Ġcomment": 2657,
      "print": 2658,
      "Ġthought": 2659,
      "gorithm": 2660,
      "Ġcut": 2661,
      "ites": 2662,
      "ĠInt": 2663,
      "Ġ198": 2664,
      "ography": 2665,
      "Ġlayer": 2666,
      "Ġespecially": 2667,
      "åĨĻ": 2668,
      "AL": 2669,
      "åŃ": 2670,
      "Ġ{\\": 2671,
      "ref": 2672,
      "ĠDes": 2673,
      "ĠHealth": 2674,
      "Ġexperience": 2675,
      "''": 2676,
      "36": 2677,
      "rig": 2678,
      "Ġeff": 2679,
      "Ġago": 2680,
      "Ġappear": 2681,
      "37": 2682,
      "Ġonce": 2683,
      "Ġaltern": 2684,
      "Ġentire": 2685,
      "ĠMan": 2686,
      "ĠPart": 2687,
      "ĠScience": 2688,
      "47": 2689,
      "Ġincludes": 2690,
      "09": 2691,
      "Ġresources": 2692,
      "Ġclimate": 2693,
      "Ġdistance": 2694,
      "fact": 2695,
      "arily": 2696,
      "Ġtoday": 2697,
      "Ġsets": 2698,
      "Ġelse": 2699,
      "Ġnegative": 2700,
      "Ġdest": 2701,
      "uments": 2702,
      "aches": 2703,
      "Ġuses": 2704,
      "Ġdetect": 2705,
      "Ġaction": 2706,
      "Ġmm": 2707,
      "rack": 2708,
      "Ġstrateg": 2709,
      "ynam": 2710,
      "ĠEnglish": 2711,
      "displaystyle": 2712,
      "åŃ¦": 2713,
      "Ġtoward": 2714,
      "Ġ$(": 2715,
      "ĠWith": 2716,
      "Ġformula": 2717,
      "Ġcentury": 2718,
      "Ġlooking": 2719,
      "Ġnecessary": 2720,
      "hesis": 2721,
      "Ġdeveloped": 2722,
      "Ġorigin": 2723,
      "Ġhappen": 2724,
      "55": 2725,
      "On": 2726,
      "ches": 2727,
      "Ġwide": 2728,
      "ĠCar": 2729,
      "ĠNo": 2730,
      "roup": 2731,
      "_{\\": 2732,
      "mathbf": 2733,
      "ES": 2734,
      "Ġdirectly": 2735,
      "48": 2736,
      "iven": 2737,
      "Ġcolor": 2738,
      "Ġappropri": 2739,
      "Ġantib": 2740,
      "ino": 2741,
      "Ġpie": 2742,
      "Ġeth": 2743,
      "ĠSch": 2744,
      "ĠPre": 2745,
      "ĠBrit": 2746,
      "ĠĠĠ": 2747,
      "Ġarticle": 2748,
      ")^": 2749,
      "rate": 2750,
      "}$,": 2751,
      "aut": 2752,
      "sl": 2753,
      "ÃĹ": 2754,
      "Ġfall": 2755,
      "theta": 2756,
      "Ġprofess": 2757,
      "Ġweek": 2758,
      "Ġconsist": 2759,
      "Ġactivity": 2760,
      "Ġpattern": 2761,
      "Ġfamil": 2762,
      "ging": 2763,
      "Ġ21": 2764,
      "}$.": 2765,
      "Ġpublished": 2766,
      "Ġtopic": 2767,
      "Ġtrying": 2768,
      "Ġeducation": 2769,
      "Ġtheorem": 2770,
      "uted": 2771,
      "ĠAug": 2772,
      "fty": 2773,
      "Ġcolle": 2774,
      "Ġlimit": 2775,
      "reme": 2776,
      "Ġbus": 2777,
      "Ġdat": 2778,
      "lean": 2779,
      "idge": 2780,
      "ĠST": 2781,
      "ĠRet": 2782,
      "Ġcontact": 2783,
      "Ġgetting": 2784,
      "Ġlarger": 2785,
      "lo": 2786,
      "ze": 2787,
      "Ġâ": 2788,
      "onal": 2789,
      "Ġsometimes": 2790,
      "Ġground": 2791,
      "Ġste": 2792,
      "Ġmeet": 2793,
      "Ġcontent": 2794,
      "Ġcountries": 2795,
      "oney": 2796,
      "Ġexpress": 2797,
      "ED": 2798,
      "ii": 2799,
      "icial": 2800,
      "Ġstars": 2801,
      "Ġ2011": 2802,
      "Ġblack": 2803,
      "Ġsem": 2804,
      "Ġbrain": 2805,
      "oura": 2806,
      "ĠAf": 2807,
      "ĠCo": 2808,
      "Ġheart": 2809,
      "Ġscience": 2810,
      "Ġmanagement": 2811,
      "Ġcountry": 2812,
      "Ġmoment": 2813,
      "->": 2814,
      "Ġnature": 2815,
      "chie": 2816,
      "Ġalgorithm": 2817,
      "Ġeasy": 2818,
      "________________": 2819,
      "66": 2820,
      "ken": 2821,
      "ĠJoh": 2822,
      "ĠĠĠĠĠĠĠĠĠĠĠĠĠĠĠĠ": 2823,
      "ĠCenter": 2824,
      "OR": 2825,
      "infty": 2826,
      "otic": 2827,
      "Ġ40": 2828,
      "Ġinterp": 2829,
      "Ġmachine": 2830,
      "SB": 2831,
      "lambda": 2832,
      "zz": 2833,
      "enn": 2834,
      "ĠWar": 2835,
      "htt": 2836,
      "lor": 2837,
      "ners": 2838,
      "Ġquick": 2839,
      "Ġgenerally": 2840,
      "Ġgives": 2841,
      "Ġprotect": 2842,
      "Ġpractice": 2843,
      "Ġcomponents": 2844,
      "Ġfrequency": 2845,
      "%%": 2846,
      "Cl": 2847,
      "Ġ24": 2848,
      "Ġfollows": 2849,
      "Ġfactor": 2850,
      "Ġreduce": 2851,
      "Ġdescribed": 2852,
      "Ġbehavior": 2853,
      "Ġreference": 2854,
      "Ġonline": 2855,
      "aced": 2856,
      "$$\\": 2857,
      "}{\\": 2858,
      "Ġeffective": 2859,
      "Ġautom": 2860,
      "90": 2861,
      "Is": 2862,
      "ĠInstit": 2863,
      "Ġsubst": 2864,
      "Ġvariable": 2865,
      "Ġengine": 2866,
      "Ġversion": 2867,
      "-\\": 2868,
      "^{\\": 2869,
      "Ġ2013": 2870,
      "32": 2871,
      "ilon": 2872,
      "ried": 2873,
      "Ġcomes": 2874,
      "Ġcolum": 2875,
      "Ġearth": 2876,
      "Ġtakes": 2877,
      "Ġcross": 2878,
      "Ġrefer": 2879,
      "Ġextens": 2880,
      "Ġhydro": 2881,
      "78": 2882,
      "df": 2883,
      "mission": 2884,
      "Ġfive": 2885,
      "urrent": 2886,
      "term": 2887,
      "Ġsym": 2888,
      "Ġsolutions": 2889,
      "Ġanaly": 2890,
      "Ġunderstanding": 2891,
      "Ġbroad": 2892,
      "68": 2893,
      "haps": 2894,
      "yp": 2895,
      "Ġpay": 2896,
      "Ġthus": 2897,
      "Ġisn": 2898,
      "Ġadj": 2899,
      "ecause": 2900,
      "EN": 2901,
      "lim": 2902,
      "point": 2903,
      "Ġdr": 2904,
      "idth": 2905,
      "Ġupon": 2906,
      "70": 2907,
      "def": 2908,
      "iver": 2909,
      "Ġindust": 2910,
      "fully": 2911,
      "Ġdiag": 2912,
      "Te": 2913,
      "Ġatom": 2914,
      "Ġrat": 2915,
      "Ġrecent": 2916,
      "Ġcapac": 2917,
      "hold": 2918,
      "Ġvel": 2919,
      "Ġmiss": 2920,
      "ceed": 2921,
      "Ġdecl": 2922,
      "Ġwritten": 2923,
      "blem": 2924,
      "igma": 2925,
      "ĠSchool": 2926,
      "Ġ23": 2927,
      "ending": 2928,
      "Ġword": 2929,
      "Ġunc": 2930,
      "Ġliter": 2931,
      "Ġbad": 2932,
      "Ġmillion": 2933,
      "ctx": 2934,
      "ĠMath": 2935,
      "Ġsomeone": 2936,
      "Ġscale": 2937,
      "Ġresearchers": 2938,
      "98": 2939,
      "Qu": 2940,
      "do": 2941,
      "hib": 2942,
      "inite": 2943,
      "Ġpict": 2944,
      "Ġsequence": 2945,
      "Ġbox": 2946,
      "Ġmention": 2947,
      "ows": 2948,
      "Ġur": 2949,
      "iding": 2950,
      "ĠSte": 2951,
      "ĠPar": 2952,
      "Ġfilament": 2953,
      "Ġservice": 2954,
      "come": 2955,
      "ho": 2956,
      "ura": 2957,
      "Ġplease": 2958,
      "Ġanc": 2959,
      "Ġinfe": 2960,
      "ilit": 2961,
      "Ġ22": 2962,
      "Ġnote": 2963,
      "izes": 2964,
      "Ġrole": 2965,
      "Ġbuilding": 2966,
      "64": 2967,
      "Ġoil": 2968,
      "ump": 2969,
      "ĠEd": 2970,
      "izing": 2971,
      ",\\": 2972,
      "Ġachie": 2973,
      "ĠPe": 2974,
      "ferences": 2975,
      "Ġcool": 2976,
      "====": 2977,
      "Ġmonths": 2978,
      "mmetric": 2979,
      "Ġtool": 2980,
      "Ġdeal": 2981,
      "Ġprime": 2982,
      "bre": 2983,
      "pid": 2984,
      "Ġcame": 2985,
      "Ġfr": 2986,
      "Ġgrad": 2987,
      "Ġadditional": 2988,
      "atives": 2989,
      "urch": 2990,
      "Ġsett": 2991,
      "Ġassess": 2992,
      "Ġattempt": 2993,
      "Ġincreasing": 2994,
      "ev": 2995,
      "Ġtable": 2996,
      "Ġla": 2997,
      "ĠIm": 2998,
      "Ġequival": 2999,
      "Ġabsolute": 3000,
      "ground": 3001,
      "alog": 3002,
      "oll": 3003,
      "urs": 3004,
      "oph": 3005,
      "ously": 3006,
      "Ġthemselves": 3007,
      "Ġbasis": 3008,
      "Ġcard": 3009,
      "Ġelectric": 3010,
      "Ġdescript": 3011,
      "::": 3012,
      "itle": 3013,
      "Ġport": 3014,
      "iforn": 3015,
      "Ġvia": 3016,
      "Ġchall": 3017,
      "Ġcollect": 3018,
      "Ġlonger": 3019,
      "Ġpolit": 3020,
      "Ġgreater": 3021,
      "NA": 3022,
      "ington": 3023,
      "Ġconduct": 3024,
      "Ġfactors": 3025,
      "aff": 3026,
      "bor": 3027,
      "co": 3028,
      "raft": 3029,
      "Ġdeath": 3030,
      "ĠHist": 3031,
      "Ġincreased": 3032,
      "Ġtechnology": 3033,
      "ifornia": 3034,
      "go": 3035,
      "unt": 3036,
      "rees": 3037,
      "Ġcou": 3038,
      "Ġfire": 3039,
      "Ġnational": 3040,
      "ĠSince": 3041,
      "Ġunique": 3042,
      "Ġinstance": 3043,
      "Ġslow": 3044,
      "Ġlo": 3045,
      "aged": 3046,
      "cret": 3047,
      "ĠAmerica": 3048,
      "ĠÂ·": 3049,
      "Ġquantum": 3050,
      "ä»£åĨĻ": 3051,
      "Let": 3052,
      "eed": 3053,
      "uff": 3054,
      "Ġfinal": 3055,
      "ĠSouth": 3056,
      "osing": 3057,
      "Ġfeed": 3058,
      "Ġsquare": 3059,
      "gest": 3060,
      "Ġemer": 3061,
      "Ġsymb": 3062,
      "Ġteam": 3063,
      "Ġforms": 3064,
      "imately": 3065,
      "tical": 3066,
      "Ġut": 3067,
      "Ġanim": 3068,
      "Ġdensity": 3069,
      "ĠYork": 3070,
      "ĠResearch": 3071,
      "ĠDepartment": 3072,
      "cont": 3073,
      "iff": 3074,
      "Ġresolution": 3075,
      "ĠJournal": 3076,
      "Ġstudent": 3077,
      "Ġactual": 3078,
      "Ġanti": 3079,
      "Ġhttps": 3080,
      "Ġexpected": 3081,
      "Ġexactly": 3082,
      "ĠAfric": 3083,
      "gress": 3084,
      "Ġtherm": 3085,
      "Ġwall": 3086,
      "Ġpp": 3087,
      "ĠSim": 3088,
      "Ġcenter": 3089,
      "Ġschools": 3090,
      "Ġappropriate": 3091,
      "RE": 3092,
      "son": 3093,
      "ufact": 3094,
      "leg": 3095,
      "Ġload": 3096,
      "adem": 3097,
      "Ġdecre": 3098,
      "Ġatoms": 3099,
      "ĠBl": 3100,
      "Ġ2007": 3101,
      "ega": 3102,
      "appa": 3103,
      "Ġhyp": 3104,
      "Ġpriv": 3105,
      ")$$": 3106,
      "off": 3107,
      "att": 3108,
      "Ġcateg": 3109,
      "edia": 3110,
      "Ġhouse": 3111,
      "ĠCor": 3112,
      "osite": 3113,
      "Ġheav": 3114,
      "Ġevidence": 3115,
      "Ġtherefore": 3116,
      "Ġreading": 3117,
      "which": 3118,
      "æľ": 3119,
      "Ġtarget": 3120,
      "Ġsix": 3121,
      "urb": 3122,
      "Ġdemon": 3123,
      "ovember": 3124,
      "Ġinstall": 3125,
      "Ġmedical": 3126,
      "Ġprograms": 3127,
      "Ġhistor": 3128,
      "Ġparameters": 3129,
      "Ġapplied": 3130,
      "Ġactivities": 3131,
      "Ġveloc": 3132,
      "flow": 3133,
      "la": 3134,
      "Ġcry": 3135,
      "ĠAct": 3136,
      "ift": 3137,
      "ured": 3138,
      "ky": 3139,
      "Ġsal": 3140,
      "ister": 3141,
      "Ġfarm": 3142,
      "Ġmus": 3143,
      "ĠPer": 3144,
      "Ġvariables": 3145,
      "Ġslight": 3146,
      "Ġeasily": 3147,
      "Ġobjects": 3148,
      "Ġapplication": 3149,
      "Ġ27": 3150,
      "ached": 3151,
      "Ġasked": 3152,
      "Ġrelationship": 3153,
      "CD": 3154,
      "Now": 3155,
      "Ġfri": 3156,
      "Ġwhite": 3157,
      "Ġprec": 3158,
      "Ġsmo": 3159,
      "Ġprocesses": 3160,
      "ĠQuest": 3161,
      "ottom": 3162,
      "rieved": 3163,
      "hing": 3164,
      "kappa": 3165,
      "mu": 3166,
      "Ġmath": 3167,
      "Ġdimens": 3168,
      "Ġgreen": 3169,
      "Ġwhose": 3170,
      "Ġens": 3171,
      "Ġactive": 3172,
      "Ġproduced": 3173,
      "Ġfinite": 3174,
      "Ġinteresting": 3175,
      "Ġdefinition": 3176,
      "Ġcorresponding": 3177,
      "95": 3178,
      "cular": 3179,
      "ned": 3180,
      "Ġlive": 3181,
      "Ġsex": 3182,
      "Ġclosed": 3183,
      "Ġprinci": 3184,
      "Ġessential": 3185,
      "Ġsympt": 3186,
      "ID": 3187,
      "know": 3188,
      "ms": 3189,
      "uary": 3190,
      "well": 3191,
      "Ġsources": 3192,
      "Ġdefault": 3193,
      "mar": 3194,
      "Ġce": 3195,
      "ĠAg": 3196,
      "Ġexcept": 3197,
      "Ġproperty": 3198,
      "Ġreported": 3199,
      "ĠCalifornia": 3200,
      "',": 3201,
      "AD": 3202,
      "bur": 3203,
      "non": 3204,
      "Â°": 3205,
      "imer": 3206,
      "ĠAcc": 3207,
      "Ġ28": 3208,
      "order": 3209,
      "ĠReg": 3210,
      "Ġrequest": 3211,
      "Ġinside": 3212,
      "Ġtaking": 3213,
      "Ġsil": 3214,
      "Ġmind": 3215,
      "Ġthird": 3216,
      "seud": 3217,
      "ĠCons": 3218,
      "Ġproced": 3219,
      "Ġalthough": 3220,
      "aging": 3221,
      "Ġformat": 3222,
      "Ġmedia": 3223,
      "hand": 3224,
      "rast": 3225,
      "wo": 3226,
      "ste": 3227,
      "Ġshare": 3228,
      "Ġcoordin": 3229,
      "Ġblock": 3230,
      "rench": 3231,
      "Ġmaintain": 3232,
      "Ġdegree": 3233,
      "Ġapplications": 3234,
      "ished": 3235,
      "Ġexer": 3236,
      "Ġremov": 3237,
      "Ġtook": 3238,
      "Ġ@": 3239,
      "ung": 3240,
      "ĠJu": 3241,
      "Ġindependent": 3242,
      "Ġbecame": 3243,
      "rought": 3244,
      "values": 3245,
      "Ġdraw": 3246,
      "lin": 3247,
      "na": 3248,
      "ype": 3249,
      "Ġwet": 3250,
      "Ġhom": 3251,
      "Ġcontext": 3252,
      "ĠPress": 3253,
      "ĠAlso": 3254,
      "Ġdirection": 3255,
      "Ġfiles": 3256,
      "06": 3257,
      "pers": 3258,
      "Ġcust": 3259,
      "ĠNi": 3260,
      "eps": 3261,
      "Ġcompar": 3262,
      "Ġteac": 3263,
      "ervation": 3264,
      "Ġcharge": 3265,
      "Ġindividuals": 3266,
      "ä½": 3267,
      "ises": 3268,
      "Ġbal": 3269,
      "umber": 3270,
      "Ġatm": 3271,
      "Ġcompared": 3272,
      "Ġbasic": 3273,
      "Ġchemical": 3274,
      "44": 3275,
      "And": 3276,
      "Delta": 3277,
      "coh": 3278,
      "ming": 3279,
      "with": 3280,
      "Ġvideo": 3281,
      "acy": 3282,
      "augh": 3283,
      "Ġexamples": 3284,
      "uit": 3285,
      "Ġast": 3286,
      "head": 3287,
      "Ġmut": 3288,
      "Ġthick": 3289,
      "Ġliqu": 3290,
      "Ġstop": 3291,
      "Ġmanifold": 3292,
      "Ġindex": 3293,
      "Ġparticle": 3294,
      "ĠComp": 3295,
      "Ġbelieve": 3296,
      "ĠFeb": 3297,
      "ying": 3298,
      "Ġrev": 3299,
      "Ġshape": 3300,
      "Ġincluded": 3301,
      "ĠHere": 3302,
      "Ġdesigned": 3303,
      "Ġparameter": 3304,
      "new": 3305,
      "olar": 3306,
      "urity": 3307,
      "ĠMore": 3308,
      "tty": 3309,
      "Ġmarket": 3310,
      "Ġbehavi": 3311,
      "ĠInstitute": 3312,
      "31": 3313,
      "Un": 3314,
      "load": 3315,
      "Ġsent": 3316,
      "asons": 3317,
      "ĠBi": 3318,
      "aching": 3319,
      "Ġ2005": 3320,
      "Ġcomponent": 3321,
      "Ġbirds": 3322,
      "IC": 3323,
      "cle": 3324,
      "mega": 3325,
      "Ġones": 3326,
      "Ġdeb": 3327,
      "ĠJew": 3328,
      "Ġcaused": 3329,
      "Ġcompletely": 3330,
      "Ġscientists": 3331,
      "Ġrecommend": 3332,
      "iddle": 3333,
      "67": 3334,
      "But": 3335,
      "Ġord": 3336,
      "Ġunits": 3337,
      "Ġoutside": 3338,
      "Ġideas": 3339,
      "Ġallows": 3340,
      "mitted": 3341,
      "Ġnan": 3342,
      "odes": 3343,
      "ĠNow": 3344,
      "ĠNote": 3345,
      "Ġspread": 3346,
      "Ġevolution": 3347,
      "Ġmetal": 3348,
      "Ġsatis": 3349,
      "ĠAfter": 3350,
      "Ġconne": 3351,
      "ĠMy": 3352,
      "Ġextreme": 3353,
      "Ġdidn": 3354,
      "MAT": 3355,
      "ched": 3356,
      "Ã±": 3357,
      "illi": 3358,
      "Ġ&=": 3359,
      "Ġdefine": 3360,
      "Ġconstruct": 3361,
      "Ġprior": 3362,
      "Ġmaximum": 3363,
      "57": 3364,
      "more": 3365,
      "Ġir": 3366,
      "encies": 3367,
      "Ġpure": 3368,
      "Ġfigure": 3369,
      "leep": 3370,
      "eter": 3371,
      "ĠLa": 3372,
      "Ġreflect": 3373,
      "Ġlanguages": 3374,
      "Ġangle": 3375,
      "Ġdetails": 3376,
      "hors": 3377,
      "mat": 3378,
      "iling": 3379,
      "ĠSm": 3380,
      "ĠAust": 3381,
      "ĠMin": 3382,
      "ips": 3383,
      "Ġintern": 3384,
      "Ġrequires": 3385,
      "Ġmedic": 3386,
      "Ġfields": 3387,
      "58": 3388,
      "can": 3389,
      "åħ": 3390,
      "Ġcity": 3391,
      "Ġey": 3392,
      "ĠAm": 3393,
      "Ġwrong": 3394,
      "ĠWhile": 3395,
      "96": 3396,
      "Wh": 3397,
      "Ġeigen": 3398,
      "amm": 3399,
      "quad": 3400,
      "apter": 3401,
      "Ġpatient": 3402,
      "minist": 3403,
      "Ġextrud": 3404,
      "lock": 3405,
      "Ġdoctor": 3406,
      "Ġanything": 3407,
      "ĠRetrieved": 3408,
      "Note": 3409,
      "Ġhor": 3410,
      "Ġwebs": 3411,
      "ĠFirst": 3412,
      "Ġsynt": 3413,
      "Ġoverall": 3414,
      "Ġsmaller": 3415,
      "Ġidentify": 3416,
      "Ġgrowth": 3417,
      "Ġproducts": 3418,
      "Ġcir": 3419,
      "Ġhab": 3420,
      "ains": 3421,
      "ĠNovember": 3422,
      "active": 3423,
      "ube": 3424,
      "aily": 3425,
      "ashington": 3426,
      "Ġvacc": 3427,
      "ection": 3428,
      "ml": 3429,
      "Ġcoun": 3430,
      "Ġund": 3431,
      "istry": 3432,
      "pec": 3433,
      "Ġimages": 3434,
      "Ġgenetic": 3435,
      "Ġrelig": 3436,
      "Ġregions": 3437,
      "Ġtesting": 3438,
      "Ġbuilt": 3439,
      "iques": 3440,
      "Ġlimited": 3441,
      "ĠBritish": 3442,
      "Ġanimals": 3443,
      "Ġdemonstr": 3444,
      "Ġfill": 3445,
      "Ġdry": 3446,
      "ĠPost": 3447,
      "ĠHall": 3448,
      "Ġmodern": 3449,
      "Ġcommand": 3450,
      "iction": 3451,
      "41": 3452,
      "atin": 3453,
      "Ġever": 3454,
      "ĠMost": 3455,
      "ĠFrom": 3456,
      "Ġpretty": 3457,
      "Ġcover": 3458,
      "Ġtransport": 3459,
      "Ġprinted": 3460,
      "Ġstructures": 3461,
      "Ġfeatures": 3462,
      "ĠGeneral": 3463,
      "Ġinvestig": 3464,
      "ht": 3465,
      "alse": 3466,
      "Ġbur": 3467,
      "oted": 3468,
      "celer": 3469,
      "Ġflag": 3470,
      "Ġmeasures": 3471,
      "Ġoption": 3472,
      "ĠJohn": 3473,
      "lier": 3474,
      "}^": 3475,
      "ental": 3476,
      "ĠServ": 3477,
      "uration": 3478,
      "Ġsolve": 3479,
      "Ġsatisf": 3480,
      "topic": 3481,
      "Ġdam": 3482,
      "Ġliving": 3483,
      "Ġum": 3484,
      "ĠGod": 3485,
      "Ġplants": 3486,
      "ãĢĤ": 3487,
      "Ġobtained": 3488,
      "ued": 3489,
      "inger": 3490,
      "lement": 3491,
      "ellow": 3492,
      "Ġproof": 3493,
      "ĠOther": 3494,
      "Ġimpl": 3495,
      "Ġconsum": 3496,
      "Ġofficial": 3497,
      "Ġpoll": 3498,
      "Ġencoura": 3499,
      "IT": 3500,
      "works": 3501,
      "Ġpseud": 3502,
      "Ġtools": 3503,
      "raw": 3504,
      "ulf": 3505,
      "Ġrules": 3506,
      "Ġadult": 3507,
      "Ġarch": 3508,
      "Ġtests": 3509,
      "Ġbusiness": 3510,
      "'d": 3511,
      "cm": 3512,
      "estern": 3513,
      "Ġwon": 3514,
      "ulated": 3515,
      "amed": 3516,
      "duc": 3517,
      "Ġtransform": 3518,
      "Ġprimary": 3519,
      "59": 3520,
      "Ġbar": 3521,
      "Ġrepe": 3522,
      "Ġnothing": 3523,
      "ĠNot": 3524,
      "izations": 3525,
      "Ġmanufact": 3526,
      "Ġincor": 3527,
      "Ġillust": 3528,
      "++": 3529,
      "Ġsort": 3530,
      "odies": 3531,
      "Ġcomments": 3532,
      "Ġ2006": 3533,
      "Ġincreases": 3534,
      "$-": 3535,
      "63": 3536,
      "ET": 3537,
      "rote": 3538,
      "Ġ(\\": 3539,
      "ĠShe": 3540,
      "Ġalgebra": 3541,
      "ĠLib": 3542,
      "Ġchoose": 3543,
      "Ġrob": 3544,
      "Ġsaf": 3545,
      "Ġedit": 3546,
      "Ġcurrently": 3547,
      "Ġimmedi": 3548,
      "Ġparents": 3549,
      "ĠJanuary": 3550,
      "IS": 3551,
      "ML": 3552,
      "fl": 3553,
      "gl": 3554,
      "ystem": 3555,
      "Ġpick": 3556,
      "oman": 3557,
      "cean": 3558,
      "Ġupper": 3559,
      "Ġprove": 3560,
      "Ġitem": 3561,
      "Ġalcoh": 3562,
      "Ġseed": 3563,
      "ĠDr": 3564,
      "Ġneut": 3565,
      "Ġscreen": 3566,
      "Ġcollection": 3567,
      "isms": 3568,
      "ometric": 3569,
      "sych": 3570,
      "Ġdouble": 3571,
      "Ġevalu": 3572,
      "è®": 3573,
      "Ġtend": 3574,
      "isions": 3575,
      "Ġproport": 3576,
      "Ġrule": 3577,
      "Ġcontroll": 3578,
      "ricult": 3579,
      "Ġarray": 3580,
      ")$.": 3581,
      "gency": 3582,
      "Ġsteps": 3583,
      "Ġradius": 3584,
      "Ġseparate": 3585,
      "atur": 3586,
      "Ġfixed": 3587,
      "Ġlate": 3588,
      "Ġupd": 3589,
      "Ġthroughout": 3590,
      "ĠOctober": 3591,
      "ĠGerman": 3592,
      "EM": 3593,
      "Sh": 3594,
      "ait": 3595,
      "aly": 3596,
      "Ġmoney": 3597,
      "Ġled": 3598,
      "ĠAbstract": 3599,
      "Ġprot": 3600,
      "ĠWork": 3601,
      "ĠFrench": 3602,
      "avor": 3603,
      "Ġcoe": 3604,
      "Ġstarted": 3605,
      "Ġmeaning": 3606,
      "Ġinvolved": 3607,
      "07": 3608,
      "46": 3609,
      "actions": 3610,
      "Ġ%": 3611,
      "Ġsound": 3612,
      "ĠAc": 3613,
      "Ġring": 3614,
      "Ġsamples": 3615,
      "Ġantibi": 3616,
      "Ġsymptoms": 3617,
      "Con": 3618,
      "DF": 3619,
      "oon": 3620,
      "æķ": 3621,
      "hel": 3622,
      "Ġcand": 3623,
      "struct": 3624,
      "ĠTrans": 3625,
      "ulate": 3626,
      "Ġdisplay": 3627,
      "Ġhighly": 3628,
      "Ġtried": 3629,
      "ĠScient": 3630,
      "Ġdrug": 3631,
      "Abstract": 3632,
      "hest": 3633,
      "Ġbegan": 3634,
      "ĠNorth": 3635,
      "Ġusbi": 3636,
      "Ġspaces": 3637,
      "ĠRev": 3638,
      "Ġfemale": 3639,
      "One": 3640,
      "TR": 3641,
      "ha": 3642,
      "ien": 3643,
      "inally": 3644,
      "ĠWashington": 3645,
      "elling": 3646,
      "ĠKe": 3647,
      "Ġsituation": 3648,
      "Ġperformance": 3649,
      "inical": 3650,
      "Ġphen": 3651,
      "Ġalk": 3652,
      "pling": 3653,
      "racy": 3654,
      "Ġwriting": 3655,
      "Ġrelatively": 3656,
      "Ġestablished": 3657,
      "Ġsafety": 3658,
      ")/": 3659,
      "cast": 3660,
      "yond": 3661,
      "inct": 3662,
      "Ġball": 3663,
      "Ġdog": 3664,
      "igr": 3665,
      "ĠMon": 3666,
      "ĠPres": 3667,
      "used": 3668,
      "Ġdiss": 3669,
      "rown": 3670,
      "Ġmemory": 3671,
      "Ġappears": 3672,
      "Ġrespectively": 3673,
      "Ġenvironmental": 3674,
      "ĠApril": 3675,
      "Ġri": 3676,
      "rect": 3677,
      "osure": 3678,
      "plot": 3679,
      "$$,": 3680,
      "Ġprep": 3681,
      "Ġinteger": 3682,
      "Ġrights": 3683,
      "Ġstatement": 3684,
      "imin": 3685,
      "ĠRel": 3686,
      "ially": 3687,
      "ĠJap": 3688,
      "Ġapply": 3689,
      "Ġinterval": 3690,
      "Ġexpression": 3691,
      "Ġpersonal": 3692,
      "Ġdiscussion": 3693,
      "ĠCommun": 3694,
      "Ġrelevant": 3695,
      "Ġpicture": 3696,
      "Ġequivalent": 3697,
      "dfrac": 3698,
      "uild": 3699,
      "Ġrain": 3700,
      "Ġfish": 3701,
      "abilities": 3702,
      "ĠLaw": 3703,
      "apers": 3704,
      "Ġenter": 3705,
      "ĠNewton": 3706,
      "ĠSept": 3707,
      "Ġbreak": 3708,
      "zzle": 3709,
      "Ġsettings": 3710,
      "Ġslightly": 3711,
      "ĠJuly": 3712,
      "Omega": 3713,
      "Ph": 3714,
      "Ġmor": 3715,
      "Ġtravel": 3716,
      ".;": 3717,
      "02": 3718,
      "54": 3719,
      "AP": 3720,
      "Pl": 3721,
      "Post": 3722,
      "oly": 3723,
      "åĲ": 3724,
      "Ġtang": 3725,
      "Ġbacter": 3726,
      "Ġmale": 3727,
      "sec": 3728,
      "Ġstro": 3729,
      "Ġ29": 3730,
      "ogen": 3731,
      "ĠThus": 3732,
      "ief": 3733,
      "Ġbecomes": 3734,
      "Ġgenerated": 3735,
      "Ġintegral": 3736,
      "Ġradiation": 3737,
      "Ġinfluence": 3738,
      "dimens": 3739,
      "Ġaff": 3740,
      "Ġfraction": 3741,
      "Ġbottom": 3742,
      "Ġaspect": 3743,
      "thon": 3744,
      "Ġability": 3745,
      "Ġinstit": 3746,
      "Ġdeveloping": 3747,
      "Ġminimum": 3748,
      "Ġhyper": 3749,
      "Ġeasier": 3750,
      "Ġangles": 3751,
      "Ġdevice": 3752,
      "Ġscientific": 3753,
      "Ġchoice": 3754,
      "Ġcustom": 3755,
      "76": 3756,
      "79": 3757,
      "itian": 3758,
      "Ġdivid": 3759,
      "Ġreve": 3760,
      "iments": 3761,
      "semb": 3762,
      "Ġdeep": 3763,
      "ĠEach": 3764,
      "reng": 3765,
      "Ġvolt": 3766,
      "Ġparticularly": 3767,
      "Ġpolicy": 3768,
      "epsilon": 3769,
      "SC": 3770,
      "och": 3771,
      "pen": 3772,
      "uk": 3773,
      "Ġperhaps": 3774,
      "),(": 3775,
      "overed": 3776,
      "Ġvariety": 3777,
      "ĠPrint": 3778,
      "42": 3779,
      "56": 3780,
      "73": 3781,
      "Ar": 3782,
      "erate": 3783,
      "Ġwarm": 3784,
      "Ġfirm": 3785,
      "Ġhost": 3786,
      "Ġult": 3787,
      "ĠAut": 3788,
      "ĠMarch": 3789,
      "Ġeverything": 3790,
      "Ġdegrees": 3791,
      "ĠSystem": 3792,
      "ĠInternational": 3793,
      "Ġliquid": 3794,
      "iem": 3795,
      "åı": 3796,
      "ç»": 3797,
      "vere": 3798,
      "Ġlooks": 3799,
      "Ġforces": 3800,
      "ully": 3801,
      "plit": 3802,
      "ibri": 3803,
      "Ġagree": 3804,
      "Ġrecently": 3805,
      "Ġdiagn": 3806,
      "Ġprinters": 3807,
      "Ġgeometry": 3808,
      "Here": 3809,
      "Ġbeginning": 3810,
      "Ġnuclear": 3811,
      "ĠAugust": 3812,
      "delta": 3813,
      "Ġwild": 3814,
      "Ġhosp": 3815,
      "stain": 3816,
      "ĠSer": 3817,
      "Ġcommer": 3818,
      "Ġrock": 3819,
      "Ġsurve": 3820,
      "Ġreceive": 3821,
      "Ġderiv": 3822,
      "circ": 3823,
      "itable": 3824,
      "Ġwrote": 3825,
      "roy": 3826,
      "aser": 3827,
      "omial": 3828,
      "rab": 3829,
      "ĠAre": 3830,
      "abet": 3831,
      "Ġsupply": 3832,
      "Ġdepends": 3833,
      "Ġdiagram": 3834,
      "from": 3835,
      "iar": 3836,
      "anation": 3837,
      "Ġdate": 3838,
      "ilos": 3839,
      "ĠArm": 3840,
      "Ġheight": 3841,
      "Ġchance": 3842,
      "ĠOf": 3843,
      "Ġdifferences": 3844,
      "Ġemploy": 3845,
      "Ġzinc": 3846,
      "Ġtypically": 3847,
      "Ġphysic": 3848,
      "Ġcontinue": 3849,
      "Ġvolume": 3850,
      "Ġcritical": 3851,
      "By": 3852,
      "II": 3853,
      "ai": 3854,
      "iverse": 3855,
      "Ġrepl": 3856,
      "ama": 3857,
      "Ġheld": 3858,
      "ormal": 3859,
      "Ġrapid": 3860,
      "Ġtags": 3861,
      "Ġcauses": 3862,
      "placement": 3863,
      "Ġhypot": 3864,
      "car": 3865,
      "Ġter": 3866,
      "attle": 3867,
      "Ġface": 3868,
      "Ġhope": 3869,
      "Ġstreng": 3870,
      "Ġdoi": 3871,
      "198": 3872,
      "Ġsignal": 3873,
      "Ġreceived": 3874,
      "Ġrecords": 3875,
      "Ġvelocity": 3876,
      "Ġexercise": 3877,
      "rem": 3878,
      "ederal": 3879,
      "Ġmount": 3880,
      "ils": 3881,
      "Ġstay": 3882,
      "iral": 3883,
      "opr": 3884,
      "ĠLab": 3885,
      "Ġaccur": 3886,
      "Ġsafe": 3887,
      "Ġthinking": 3888,
      "Ġoptions": 3889,
      "Ġbring": 3890,
      "Ġimmune": 3891,
      "Ġexisting": 3892,
      "Ġgrav": 3893,
      "Ġcopy": 3894,
      "Ġpiece": 3895,
      "Ġquickly": 3896,
      "ls": 3897,
      "}-": 3898,
      "}}\\": 3899,
      "Ġbio": 3900,
      "Ġgain": 3901,
      "rap": 3902,
      "Ġexists": 3903,
      "rial": 3904,
      "ĠBecause": 3905,
      "ermitian": 3906,
      "Ġgeneration": 3907,
      "Ġcapt": 3908,
      "Ġopin": 3909,
      "ĠLevant": 3910,
      "Ġeconomic": 3911,
      "Ġelectrons": 3912,
      "Ã±o": 3913,
      "Ġwood": 3914,
      "vec": 3915,
      "iform": 3916,
      "Ġsun": 3917,
      "Ġplane": 3918,
      "ĠVol": 3919,
      "Ġgoes": 3920,
      "Ġlibrary": 3921,
      "Ġskills": 3922,
      "Ġoccurs": 3923,
      "Ġopportun": 3924,
      "51": 3925,
      "CH": 3926,
      "data": 3927,
      "ancy": 3928,
      "Ġfast": 3929,
      "Ġfair": 3930,
      "Ġfuel": 3931,
      "Ġnut": 3932,
      "Ġlack": 3933,
      "olid": 3934,
      "Ġstress": 3935,
      "ĠMany": 3936,
      "ada": 3937,
      "ĠOb": 3938,
      "Ġscore": 3939,
      "Ġmode": 3940,
      "Ġpoor": 3941,
      "Ġsolar": 3942,
      "Ġpopular": 3943,
      "Ġserious": 3944,
      "Ġproposed": 3945,
      "æķ°": 3946,
      "=\"": 3947,
      "MO": 3948,
      "})": 3949,
      "Ġreaction": 3950,
      "Ġnames": 3951,
      "ades": 3952,
      "ĠPlease": 3953,
      "urer": 3954,
      "Ġimag": 3955,
      "Ġkill": 3956,
      "anger": 3957,
      "Ġacceler": 3958,
      "Ġconstit": 3959,
      "Ġcentral": 3960,
      "ĠAdd": 3961,
      "Ġtraditional": 3962,
      "Ġmoving": 3963,
      "Ġratio": 3964,
      "ford": 3965,
      "çĶ": 3966,
      "heck": 3967,
      "Ġlat": 3968,
      "ilibri": 3969,
      "rag": 3970,
      "vert": 3971,
      "Ġ26": 3972,
      "Ġglass": 3973,
      "----------------": 3974,
      "http": 3975,
      "Ġbehaviour": 3976,
      "(-": 3977,
      "ran": 3978,
      "Ġstyle": 3979,
      "abase": 3980,
      "Ġ${": 3981,
      "Ġsustain": 3982,
      "Ġsea": 3983,
      "Ġprice": 3984,
      "irect": 3985,
      "Ġassign": 3986,
      "Ġresulting": 3987,
      "Ġcommunication": 3988,
      "Ġphysics": 3989,
      "Ġargument": 3990,
      "Ġinternational": 3991,
      "Ġaware": 3992,
      "Ġnight": 3993,
      "Ġstar": 3994,
      "Ġstory": 3995,
      "Ġ${\\": 3996,
      "Ġvote": 3997,
      "opy": 3998,
      "....": 3999,
      "Ġtrig": 4000,
      "cules": 4001,
      "Ġdemand": 4002,
      "``": 4003,
      "Ġfat": 4004,
      "Ġbooks": 4005,
      "resh": 4006,
      "ibly": 4007,
      "Ġagre": 4008,
      "Ġobvious": 4009,
      "Ġearlier": 4010,
      "Ġidentified": 4011,
      "ĠMathemat": 4012,
      "Ġalternative": 4013,
      "Le": 4014,
      "}_": 4015,
      "Ġ^": 4016,
      "Ġfine": 4017,
      "Ġthread": 4018,
      "ims": 4019,
      "ivil": 4020,
      "ĠJul": 4021,
      "Ġperfect": 4022,
      "ĠYour": 4023,
      "ĠSee": 4024,
      "agnetic": 4025,
      "ĠTechn": 4026,
      "Ġwebsite": 4027,
      "03": 4028,
      "All": 4029,
      "var": 4030,
      "oring": 4031,
      "ĠSub": 4032,
      "ĠHar": 4033,
      "Ġresid": 4034,
      "ĠJune": 4035,
      "ÂłÂł": 4036,
      "ensive": 4037,
      "Ġarm": 4038,
      "Ġreports": 4039,
      "Ġnucle": 4040,
      "Ġcolumn": 4041,
      "big": 4042,
      "Ġ?": 4043,
      "Ġwent": 4044,
      "icle": 4045,
      "omy": 4046,
      "Ġlic": 4047,
      "ĠAb": 4048,
      "Ġstage": 4049,
      "ĠPublic": 4050,
      "resents": 4051,
      "ĠStack": 4052,
      "Ġformed": 4053,
      "Ġspecif": 4054,
      "Ġlargest": 4055,
      "Ġpolitical": 4056,
      "ĠHistory": 4057,
      "\\{": 4058,
      "Ġtree": 4059,
      "ico": 4060,
      "sts": 4061,
      "Ġlinks": 4062,
      "Ġconcent": 4063,
      "Ġnumer": 4064,
      "Ġ60": 4065,
      "Ġremove": 4066,
      "Ġlocation": 4067,
      "Ġstarting": 4068,
      "Ġrunning": 4069,
      "Ġlaws": 4070,
      "Ġspectral": 4071,
      "That": 4072,
      "cap": 4073,
      "acks": 4074,
      "ĠâĢ¦": 4075,
      "Ġassume": 4076,
      "Ġoffer": 4077,
      "Ġposts": 4078,
      "Ġtechniques": 4079,
      "Ġpopulations": 4080,
      "Ġasking": 4081,
      "Ġgrowing": 4082,
      "Ġselected": 4083,
      "Ġfamilies": 4084,
      "ĠAustral": 4085,
      "ened": 4086,
      "enari": 4087,
      "olved": 4088,
      "ĠAnt": 4089,
      "Ġprop": 4090,
      "Ġconve": 4091,
      "ĠDis": 4092,
      "cles": 4093,
      "Ġhelps": 4094,
      "Ġauthors": 4095,
      "Ġbehind": 4096,
      "Ġfoods": 4097,
      "Ġgradu": 4098,
      "Ġensure": 4099,
      "Ġcommercial": 4100,
      "Pr": 4101,
      "inu": 4102,
      "Ġmid": 4103,
      "Ġreasons": 4104,
      "ĠTest": 4105,
      "eli": 4106,
      "unch": 4107,
      "ĠOur": 4108,
      "Ġ31": 4109,
      "Ġcompet": 4110,
      "Ġscal": 4111,
      "crete": 4112,
      "ĠCOP": 4113,
      "related": 4114,
      "Ġintroduced": 4115,
      "dimensional": 4116,
      "ilibrium": 4117,
      "rish": 4118,
      "sub": 4119,
      "iter": 4120,
      "Ġdynam": 4121,
      "cell": 4122,
      "Ġub": 4123,
      "Ġstream": 4124,
      "Ġvotes": 4125,
      "osis": 4126,
      "ement": 4127,
      "ĠEl": 4128,
      "ĠLear": 4129,
      "Ġplot": 4130,
      "Ġplaces": 4131,
      "Ġexpans": 4132,
      "Ġcarry": 4133,
      "Ġrepresents": 4134,
      "Ġrespond": 4135,
      "Ġbackground": 4136,
      "Ġslope": 4137,
      "ĠArch": 4138,
      "Ġswitch": 4139,
      "Ġmovement": 4140,
      "Ġfront": 4141,
      "ĠSeptember": 4142,
      "Ġclean": 4143,
      "ingu": 4144,
      "Ġinequ": 4145,
      "rier": 4146,
      "operator": 4147,
      "ĠWhy": 4148,
      "Ġpartners": 4149,
      "}{,": 4150,
      "Ġregression": 4151,
      "Ġroom": 4152,
      "ĠReview": 4153,
      "Ġextra": 4154,
      "Ġvectors": 4155,
      "===": 4156,
      "Ġvisit": 4157,
      "Ġtrade": 4158,
      "Ġfundament": 4159,
      "DE": 4160,
      "rr": 4161,
      "Ġrow": 4162,
      "erve": 4163,
      "cember": 4164,
      "ĠSociety": 4165,
      "akers": 4166,
      "Ġprefer": 4167,
      "Ġsimpl": 4168,
      "Ġsolid": 4169,
      "Ġattention": 4170,
      "Ġguid": 4171,
      "Ġpurpose": 4172,
      "Ġadjust": 4173,
      "Ġliterature": 4174,
      "69": 4175,
      "iers": 4176,
      "Ġigma": 4177,
      "Ġtask": 4178,
      "Ġodd": 4179,
      "anol": 4180,
      "Ġharm": 4181,
      "hern": 4182,
      "rian": 4183,
      "ĠDi": 4184,
      "ĠEduc": 4185,
      "ĠNet": 4186,
      "Ġclick": 4187,
      "$$.": 4188,
      "Ġnews": 4189,
      "Ġassist": 4190,
      "Ġestimate": 4191,
      "Ġoptim": 4192,
      "ĠÂ»": 4193,
      "board": 4194,
      "Ġchalleng": 4195,
      "known": 4196,
      "IP": 4197,
      "event": 4198,
      "ixt": 4199,
      "what": 4200,
      "Ġmol": 4201,
      "Ġhar": 4202,
      "omin": 4203,
      "Ġyield": 4204,
      "Ġrates": 4205,
      "ework": 4206,
      "clusion": 4207,
      "Ġanyone": 4208,
      "Ġinterview": 4209,
      "Ġflo": 4210,
      "Ġsupported": 4211,
      "Ġoperations": 4212,
      "Ġviol": 4213,
      "Ġobservations": 4214,
      "labor": 4215,
      "Ġframe": 4216,
      "Ġinterpret": 4217,
      "Ġatmosp": 4218,
      "iemann": 4219,
      "}{,}{": 4220,
      "ares": 4221,
      "eks": 4222,
      "faces": 4223,
      "overy": 4224,
      "icles": 4225,
      "room": 4226,
      "amin": 4227,
      "ĠDef": 4228,
      "Ġlect": 4229,
      "rices": 4230,
      "Ġveget": 4231,
      "Ġtriangle": 4232,
      "Ġdetermined": 4233,
      "Ġchanged": 4234,
      "Ġabsor": 4235,
      "Ġmolecules": 4236,
      "CC": 4237,
      "De": 4238,
      "een": 4239,
      "su": 4240,
      "äº": 4241,
      "Ġ;": 4242,
      "Ġsociety": 4243,
      "Ġjo": 4244,
      "Ġinternal": 4245,
      "Ġ2000": 4246,
      "produ": 4247,
      "Ġ90": 4248,
      "Ġcommunities": 4249,
      "Ġtopics": 4250,
      "Ġreduced": 4251,
      "ĠAdv": 4252,
      "operatorname": 4253,
      "88": 4254,
      "iency": 4255,
      "oes": 4256,
      "osition": 4257,
      "ĠUsing": 4258,
      "Ġadapt": 4259,
      "Ġplastic": 4260,
      "comp": 4261,
      "Ġattack": 4262,
      "LAB": 4263,
      "Ġaxis": 4264,
      "52": 4265,
      ">>": 4266,
      "DM": 4267,
      "no": 4268,
      "ygen": 4269,
      "Ġcos": 4270,
      "ros": 4271,
      "Ġgame": 4272,
      "raight": 4273,
      "ĠBr": 4274,
      "ander": 4275,
      "Ġneigh": 4276,
      "Ġchrom": 4277,
      "ĠGa": 4278,
      "Ġcommit": 4279,
      "Ġagents": 4280,
      "Ġgoal": 4281,
      "Ġfinding": 4282,
      "Ġcurve": 4283,
      "Ġstring": 4284,
      "Ġdescribe": 4285,
      "Ġlabor": 4286,
      "length": 4287,
      "tion": 4288,
      "uels": 4289,
      "Ġcamp": 4290,
      "itiz": 4291,
      "Ġwidth": 4292,
      "Ġreach": 4293,
      "omorph": 4294,
      "Ġlost": 4295,
      "Ġprogress": 4296,
      "Ġexhib": 4297,
      "ĠOff": 4298,
      "ney": 4299,
      "Ġdecay": 4300,
      "Ġdetermin": 4301,
      "Ġcosts": 4302,
      "Ġnearly": 4303,
      "ĠEuropean": 4304,
      "Ġextruder": 4305,
      "RO": 4306,
      "Ġsleep": 4307,
      "Ġstri": 4308,
      "ĠCour": 4309,
      "ĠChem": 4310,
      "Ġcomplic": 4311,
      "ĠHigh": 4312,
      "ĠUN": 4313,
      "Ġcompound": 4314,
      "ĠStand": 4315,
      "clude": 4316,
      "Ġaccom": 4317,
      "Ġsurround": 4318,
      "Ġdecision": 4319,
      "ĠAmericans": 4320,
      "Ġrare": 4321,
      "annel": 4322,
      "Ġ<-": 4323,
      "Ġbreed": 4324,
      "Ġmathematics": 4325,
      "Ġmentioned": 4326,
      "life": 4327,
      "atically": 4328,
      "Ġmill": 4329,
      "Ġthous": 4330,
      "Ġgsl": 4331,
      "Ġbeyond": 4332,
      "ĠSec": 4333,
      "ender": 4334,
      "Ġmere": 4335,
      "ords": 4336,
      "Ġvalid": 4337,
      "ĠAlthough": 4338,
      "Ġtechnique": 4339,
      "Ġmessage": 4340,
      "53": 4341,
      "PO": 4342,
      "SS": 4343,
      "des": 4344,
      "uge": 4345,
      "year": 4346,
      "Ġtitle": 4347,
      "Ġnative": 4348,
      "otics": 4349,
      "Ġselection": 4350,
      "Ġprices": 4351,
      "Ġprecise": 4352,
      "ĠVi": 4353,
      "ologies": 4354,
      "linear": 4355,
      "Ġcontaining": 4356,
      "Ġhealthy": 4357,
      "Ġpresented": 4358,
      "Ġlabel": 4359,
      "Ġestimates": 4360,
      "Ġindustry": 4361,
      "PI": 4362,
      "With": 4363,
      "ext": 4364,
      "rho": 4365,
      "}+": 4366,
      "Ġtiss": 4367,
      "hetic": 4368,
      "rec": 4369,
      "onic": 4370,
      "Ġwond": 4371,
      "Ġpages": 4372,
      "leq": 4373,
      "ĠCong": 4374,
      "que": 4375,
      "ĠWilli": 4376,
      "ĠChar": 4377,
      "ternal": 4378,
      "Ġembed": 4379,
      "overn": 4380,
      "Ġallowed": 4381,
      "Ġsuggested": 4382,
      "Ġclearly": 4383,
      "Ġcircuit": 4384,
      "ilitary": 4385,
      "Ġprocedure": 4386,
      "ĠScientific": 4387,
      "code": 4388,
      "åĴ": 4389,
      "olve": 4390,
      "Ġalone": 4391,
      "ĠEven": 4392,
      "ĠChild": 4393,
      "Ġ2014": 4394,
      "Ġsaw": 4395,
      "Ġremember": 4396,
      "Ġmonitor": 4397,
      "Ġconfig": 4398,
      "Ġboard": 4399,
      "Ġsignificantly": 4400,
      "ĠPhysics": 4401,
      "åĴĮ": 4402,
      "97": 4403,
      "VAC": 4404,
      "\\\\": 4405,
      "how": 4406,
      "tes": 4407,
      "Ġsides": 4408,
      "Ġdaily": 4409,
      "oting": 4410,
      "osen": 4411,
      "Ġadminist": 4412,
      "reek": 4413,
      "Ġcoast": 4414,
      "Ġminutes": 4415,
      "Ġleading": 4416,
      "Ġvisual": 4417,
      "ĠIndian": 4418,
      "useum": 4419,
      "However": 4420,
      "Ġbirth": 4421,
      "ĠAssoci": 4422,
      "Ġtowards": 4423,
      "}}$": 4424,
      "Ġcm": 4425,
      "ĠSu": 4426,
      "ĠSupp": 4427,
      "amples": 4428,
      "Ġconsequ": 4429,
      "oding": 4430,
      "rief": 4431,
      "Ġweather": 4432,
      "osa": 4433,
      "ĠWest": 4434,
      "ĠFigure": 4435,
      "ĠGl": 4436,
      "Ġleave": 4437,
      "Ġjud": 4438,
      "Ġarri": 4439,
      "Ġgenerate": 4440,
      "ĠUnion": 4441,
      "comm": 4442,
      "Ġsurv": 4443,
      "Ġhighlight": 4444,
      "Ġattrib": 4445,
      "cosystem": 4446,
      "Ġvirus": 4447,
      "At": 4448,
      "My": 4449,
      "ĠÏ": 4450,
      "Ġtax": 4451,
      "orial": 4452,
      "Ġfib": 4453,
      "Ġtown": 4454,
      "sect": 4455,
      "section": 4456,
      "Ġstraight": 4457,
      "key": 4458,
      "oston": 4459,
      "These": 4460,
      "Ġroot": 4461,
      "Ġgets": 4462,
      "hens": 4463,
      "ĠWeb": 4464,
      "Ġideal": 4465,
      "Ġinterested": 4466,
      "Ġcombination": 4467,
      "Ġcharacteristics": 4468,
      "Ġhappens": 4469,
      "SBN": 4470,
      "Ġvoltage": 4471,
      "IV": 4472,
      "Method": 4473,
      "spect": 4474,
      "water": 4475,
      "Ġlives": 4476,
      "umb": 4477,
      "Ġweb": 4478,
      "Ġweeks": 4479,
      "ĠJust": 4480,
      "Ġlocated": 4481,
      "value": 4482,
      "Ġtechnical": 4483,
      "Ġmeasured": 4484,
      "Ġcalculate": 4485,
      "Ġconnected": 4486,
      "Ġconnection": 4487,
      "Ġhabit": 4488,
      "Ġpseudopr": 4489,
      "BC": 4490,
      "Some": 4491,
      "mol": 4492,
      "pite": 4493,
      "ris": 4494,
      "rew": 4495,
      "Ġcold": 4496,
      "Ġfalse": 4497,
      "icit": 4498,
      "Ġlif": 4499,
      "ĠCath": 4500,
      "romagnetic": 4501,
      "Ġseason": 4502,
      "Ġotherwise": 4503,
      "Ġuniform": 4504,
      "rick": 4505,
      "Ġequilibrium": 4506,
      "ĠProblem": 4507,
      "Ġimportance": 4508,
      "ussian": 4509,
      "Ġoptical": 4510,
      "Ġtypical": 4511,
      "Ġoperator": 4512,
      "Ġadvant": 4513,
      "Ġdevices": 4514,
      "Ġrotation": 4515,
      "Ġloop": 4516,
      "Ġprivate": 4517,
      "Ġphenomen": 4518,
      "SO": 4519,
      "but": 4520,
      "nam": 4521,
      "Ġsold": 4522,
      "ening": 4523,
      "ophy": 4524,
      "ocation": 4525,
      "ĠUse": 4526,
      "comple": 4527,
      "exp": 4528,
      "Ġsmooth": 4529,
      "pir": 4530,
      "Ġpan": 4531,
      "edu": 4532,
      "ĠSan": 4533,
      "ĠSet": 4534,
      "ĠCount": 4535,
      "ĠDav": 4536,
      "Ġworth": 4537,
      "Ġadop": 4538,
      "Ġcontrast": 4539,
      "Ġfollowed": 4540,
      "Ġcreating": 4541,
      "Ġculture": 4542,
      "Ġestablish": 4543,
      "Ġregarding": 4544,
      "Quest": 4545,
      "range": 4546,
      "}=\\": 4547,
      "æĺ": 4548,
      "Ġslic": 4549,
      "ania": 4550,
      "Ġmis": 4551,
      "outher": 4552,
      "Ġindu": 4553,
      "roph": 4554,
      "utive": 4555,
      "umin": 4556,
      "ĠMex": 4557,
      "ĠBar": 4558,
      "that": 4559,
      "acing": 4560,
      "ĠHis": 4561,
      "Ġround": 4562,
      "Ġsoon": 4563,
      "ector": 4564,
      "Ġformer": 4565,
      "Ġeffort": 4566,
      "Ġcapacity": 4567,
      "ĠPrinting": 4568,
      "Ġopinion": 4569,
      "92": 4570,
      "Figure": 4571,
      "LL": 4572,
      "PA": 4573,
      "ani": 4574,
      "ancial": 4575,
      "Ġep": 4576,
      "ching": 4577,
      "ĠBoston": 4578,
      "ĠRock": 4579,
      "tered": 4580,
      "ags": 4581,
      "ĠInst": 4582,
      "Ġcompany": 4583,
      "ails": 4584,
      "ĠAny": 4585,
      "ĠProgram": 4586,
      "Ġhumans": 4587,
      "Ġadvanced": 4588,
      "Ġrepresented": 4589,
      "Ġestimated": 4590,
      "Ġefforts": 4591,
      "Ġancient": 4592,
      "cil": 4593,
      "Ġfully": 4594,
      "Ġdanger": 4595,
      "ĠTwo": 4596,
      "ĠMach": 4597,
      "Ġdead": 4598,
      "Ġshall": 4599,
      "Ġnozzle": 4600,
      "Ġexpand": 4601,
      "type": 4602,
      "oxide": 4603,
      "ĠConvention": 4604,
      "Ġdepending": 4605,
      "wide": 4606,
      "Ġtrack": 4607,
      "asks": 4608,
      "emma": 4609,
      "Ġsufficient": 4610,
      "ruary": 4611,
      "Ġjoint": 4612,
      "Ġschem": 4613,
      "ĠStat": 4614,
      "Ġ2016": 4615,
      "iki": 4616,
      "Ġperformed": 4617,
      "stitution": 4618,
      "Ġdraft": 4619,
      "Ġpackage": 4620,
      "Ġapproximately": 4621,
      "partial": 4622,
      "ĠNiÃ±o": 4623,
      "outhern": 4624,
      "PE": 4625,
      "down": 4626,
      "ga": 4627,
      "uth": 4628,
      "ĠISBN": 4629,
      "ĠAN": 4630,
      "istical": 4631,
      "ĠDec": 4632,
      "ĠRead": 4633,
      "ĠDecember": 4634,
      "ortunately": 4635,
      "Ġbenefit": 4636,
      "Ġextension": 4637,
      "stein": 4638,
      "85": 4639,
      "aul": 4640,
      "cur": 4641,
      "ding": 4642,
      "Ġinj": 4643,
      "erson": 4644,
      "Ġvict": 4645,
      "ĠHVAC": 4646,
      "ĠFind": 4647,
      "orthern": 4648,
      "ipment": 4649,
      "Ġscenari": 4650,
      "Ġstudied": 4651,
      "ĠChina": 4652,
      "Ġgiving": 4653,
      "ĠEngine": 4654,
      "ĠColle": 4655,
      "transfer": 4656,
      "Ġachieve": 4657,
      "Ġcandid": 4658,
      "Ġdivided": 4659,
      "61": 4660,
      "HO": 4661,
      "Ġtou": 4662,
      "Ġactions": 4663,
      "Ġcook": 4664,
      "anish": 4665,
      "ica": 4666,
      "Ġgap": 4667,
      "elt": 4668,
      "abric": 4669,
      "Ġrout": 4670,
      "ocks": 4671,
      "ĠInter": 4672,
      "Ġenh": 4673,
      "Ġacid": 4674,
      "Ġchanging": 4675,
      "Ġsummer": 4676,
      "Ġmagnetic": 4677,
      "Ġhydrogen": 4678,
      "Ġalcohol": 4679,
      "Be": 4680,
      "])": 4681,
      "dom": 4682,
      "pace": 4683,
      "Ġmiddle": 4684,
      "Ġtold": 4685,
      "Ġnorth": 4686,
      "Ġnamed": 4687,
      "ĠPy": 4688,
      "Ġchain": 4689,
      "fered": 4690,
      "Ġsetting": 4691,
      "Ġblue": 4692,
      "Ġinfinite": 4693,
      "ĠTherefore": 4694,
      "Ġskin": 4695,
      "Ġprotection": 4696,
      "Ġmechanical": 4697,
      "See": 4698,
      "********": 4699,
      "Ġinfection": 4700,
      "ĠLibrary": 4701,
      "Ġreveal": 4702,
      "ĠArmy": 4703,
      "Ġubset": 4704,
      "')": 4705,
      "72": 4706,
      "From": 4707,
      "free": 4708,
      "Ġfont": 4709,
      "Ġthreat": 4710,
      "char": 4711,
      "ĠOver": 4712,
      "izont": 4713,
      "Ġresource": 4714,
      "class": 4715,
      "ipal": 4716,
      "Ġ2003": 4717,
      "issions": 4718,
      "axis": 4719,
      "Ġmember": 4720,
      "ifying": 4721,
      "Ġerr": 4722,
      "Ġlinked": 4723,
      "ĠÂłĠÂłĠÂłĠÂł": 4724,
      "Ġprinciple": 4725,
      "ĠPresident": 4726,
      "74": 4727,
      "Ġsod": 4728,
      "Ġdark": 4729,
      "level": 4730,
      "ĠMark": 4731,
      "Ġexc": 4732,
      "ĠEm": 4733,
      "ĠLatin": 4734,
      "ought": 4735,
      "Ġblog": 4736,
      "Ġsurpr": 4737,
      "Ġ80": 4738,
      "Ġconstruction": 4739,
      "Ġpolar": 4740,
      "wards": 4741,
      "Ġsuggests": 4742,
      "ĠEnergy": 4743,
      "equiv": 4744,
      "Ġbacteria": 4745,
      "500": 4746,
      "Ġfun": 4747,
      "aste": 4748,
      "Ġaren": 4749,
      "Ġrise": 4750,
      "ession": 4751,
      "ĠFl": 4752,
      "#####": 4753,
      "Ġcolon": 4754,
      "Ġproviding": 4755,
      "Ġcommunic": 4756,
      "Ġleaders": 4757,
      "Ġsequences": 4758,
      "ĠModel": 4759,
      "Ġfundamental": 4760,
      "ĠCongress": 4761,
      "body": 4762,
      "ki": 4763,
      "Ġign": 4764,
      "Ġtrou": 4765,
      "Ġcro": 4766,
      "Ġbird": 4767,
      "Ġeat": 4768,
      "Ġefficient": 4769,
      "aint": 4770,
      "ĠNov": 4771,
      "inear": 4772,
      "Ġworked": 4773,
      "Ġdistinct": 4774,
      "Ġsecurity": 4775,
      "undred": 4776,
      "Ġsitu": 4777,
      "Ġtemperatures": 4778,
      "Ġcalculated": 4779,
      "Ġdiscussed": 4780,
      "color": 4781,
      "Ġdestroy": 4782,
      "Ġbalance": 4783,
      "Ġreligious": 4784,
      "SF": 4785,
      "_\\": 4786,
      "ca": 4787,
      "gamma": 4788,
      "mas": 4789,
      "Ġsave": 4790,
      "Ġbodies": 4791,
      "Ġmaps": 4792,
      "oma": 4793,
      "ĠAD": 4794,
      "amer": 4795,
      "tee": 4796,
      "Ġclinical": 4797,
      "Ġagricult": 4798,
      "Ġcollabor": 4799,
      "Ġbuy": 4800,
      "Ġwanted": 4801,
      "Ġguess": 4802,
      "ameter": 4803,
      "Ġrepresentation": 4804,
      "Ġfluid": 4805,
      "ĠRepublic": 4806,
      "Ġholds": 4807,
      "Ġoxygen": 4808,
      "TeX": 4809,
      "Ġimmediately": 4810,
      "Ġstroke": 4811,
      "Ġaccurate": 4812,
      "MS": 4813,
      "ball": 4814,
      "nov": 4815,
      "size": 4816,
      "}.": 4817,
      "Ġsn": 4818,
      "Ġpull": 4819,
      "Ġanimal": 4820,
      "Ġnation": 4821,
      "eterm": 4822,
      "Ġgave": 4823,
      "ĠCoun": 4824,
      "ĠPat": 4825,
      "opes": 4826,
      "Ġyourself": 4827,
      "Ġadding": 4828,
      "Ġdiscovered": 4829,
      "Ġserver": 4830,
      "Ġcorrelation": 4831,
      "Ġmotor": 4832,
      "Ġpassed": 4833,
      "Ġbelief": 4834,
      "ĠFranc": 4835,
      "BS": 4836,
      "New": 4837,
      "gar": 4838,
      "rite": 4839,
      "Ġwalk": 4840,
      "edom": 4841,
      "Ġisol": 4842,
      "amil": 4843,
      "ldots": 4844,
      "ĠDon": 4845,
      "ĠEqu": 4846,
      "Ġunf": 4847,
      "Ġoverl": 4848,
      "Ġexpon": 4849,
      "Ġ2020": 4850,
      "2012": 4851,
      "overline": 4852,
      "Ġreduction": 4853,
      "Ġstandards": 4854,
      "Ġexistence": 4855,
      "Ġplanet": 4856,
      "Ġopposite": 4857,
      "label": 4858,
      "Ġbenefits": 4859,
      "Ġmathematical": 4860,
      "Ġteachers": 4861,
      "æĺ¯": 4862,
      "Base": 4863,
      "OT": 4864,
      "ech": 4865,
      "long": 4866,
      "rum": 4867,
      "Ġsouth": 4868,
      "anz": 4869,
      "Ġpul": 4870,
      "iced": 4871,
      "ints": 4872,
      "Ġclust": 4873,
      "Ġcompute": 4874,
      "viation": 4875,
      "inese": 4876,
      ")$,": 4877,
      "position": 4878,
      "Ġidentity": 4879,
      "Ġremains": 4880,
      "Ġmolecular": 4881,
      "Ġimplementation": 4882,
      "Ġdatabase": 4883,
      "Ġcategory": 4884,
      "Ġextremely": 4885,
      "*(": 4886,
      "93": 4887,
      "?\"": 4888,
      "med": 4889,
      "orough": 4890,
      "Ġorbit": 4891,
      "Ġclos": 4892,
      "clus": 4893,
      "Ġedge": 4894,
      "Ġposted": 4895,
      "Ġcarried": 4896,
      "2008": 4897,
      "Ġprojects": 4898,
      "Ġpreviously": 4899,
      "%%%%": 4900,
      "Ġheavy": 4901,
      "Ġtangent": 4902,
      "Ġexpansion": 4903,
      "Int": 4904,
      "list": 4905,
      "Â¶": 4906,
      "åĩ": 4907,
      "Ġbab": 4908,
      "Ġecosystem": 4909,
      "ĠSw": 4910,
      "ĠPM": 4911,
      "Ġorb": 4912,
      "ĠTheorem": 4913,
      "pped": 4914,
      "alled": 4915,
      "Ġscript": 4916,
      "Ġmatrices": 4917,
      "Ġoffers": 4918,
      "Ġexperiments": 4919,
      "Ġexplanation": 4920,
      "Ġmetric": 4921,
      "Ġstatus": 4922,
      "Ġfacilities": 4923,
      "Ġcryst": 4924,
      "html": 4925,
      "varphi": 4926,
      "cks": 4927,
      "eq": 4928,
      "fort": 4929,
      "ratic": 4930,
      "vest": 4931,
      "Ġfight": 4932,
      "Ġfavor": 4933,
      "Ġmiles": 4934,
      "Ġinform": 4935,
      "Ġsuff": 4936,
      "ĠGo": 4937,
      "ĠGr": 4938,
      "Ġmaybe": 4939,
      "Ġradio": 4940,
      "Ġmeasurements": 4941,
      "Ġpractical": 4942,
      "Ġmechanics": 4943,
      "Ġrequirements": 4944,
      "Ġapproxim": 4945,
      "Ġuncertain": 4946,
      "ĠAccording": 4947,
      "ION": 4948,
      "gn": 4949,
      "å¤": 4950,
      "ĠÃ": 4951,
      "Ġtim": 4952,
      "Ġtum": 4953,
      "Ġbul": 4954,
      "Ġbinary": 4955,
      "Ġmer": 4956,
      "Ġhon": 4957,
      "Ġconv": 4958,
      "ĠDay": 4959,
      "Ġnotes": 4960,
      "Ġequipment": 4961,
      "Ġhelpful": 4962,
      "Ġclasses": 4963,
      "Ġclassical": 4964,
      "ĠSecret": 4965,
      "Ġruns": 4966,
      "Ġmajority": 4967,
      "Ġcontinuous": 4968,
      "Ġdoub": 4969,
      "Ġsubstant": 4970,
      "83": 4971,
      "Are": 4972,
      "Cont": 4973,
      "DA": 4974,
      "Why": 4975,
      "books": 4976,
      "åĪ": 4977,
      "rehens": 4978,
      "Ġcred": 4979,
      "Ġpm": 4980,
      "Ġfabric": 4981,
      "oud": 4982,
      "lebr": 4983,
      "ĠWater": 4984,
      "tex": 4985,
      "Ġplaced": 4986,
      "phas": 4987,
      "Ġacqu": 4988,
      "Ġpractices": 4989,
      "Ġdigital": 4990,
      "Ġpairs": 4991,
      "Ġdescription": 4992,
      "aught": 4993,
      "ĠHallow": 4994,
      "(&": 4995,
      "Since": 4996,
      "box": 4997,
      "ping": 4998,
      "Ġfresh": 4999,
      "Ġalign": 5000,
      "Ġsupers": 5001,
      "ĠFig": 5002,
      "ĠEast": 5003,
      "ocal": 5004,
      "Ġwaste": 5005,
      "berg": 5006,
      "Ġmostly": 5007,
      "Ġletter": 5008,
      "Ġviews": 5009,
      "Ġpurch": 5010,
      "Ġlearned": 5011,
      "Ġmusic": 5012,
      "(\"": 5013,
      "iable": 5014,
      "nes": 5015,
      "uber": 5016,
      "Ġaud": 5017,
      "Ġsend": 5018,
      "Ġpapers": 5019,
      "Ġmilitary": 5020,
      "olt": 5021,
      "ĠMich": 5022,
      "Ġweak": 5023,
      "Ġdiet": 5024,
      "Ġoperation": 5025,
      "ĠEnvironment": 5026,
      "Ġdomain": 5027,
      "Ġpatterns": 5028,
      "Ġbiof": 5029,
      "No": 5030,
      "PL": 5031,
      "RC": 5032,
      "beta": 5033,
      "ded": 5034,
      "Ġsand": 5035,
      "Ġlock": 5036,
      "ĠMass": 5037,
      "Ġdele": 5038,
      "antic": 5039,
      "comes": 5040,
      "return": 5041,
      "Ġderived": 5042,
      "ĠPlan": 5043,
      "Ġparticipants": 5044,
      "Ġmessages": 5045,
      "iemannian": 5046,
      "HE": 5047,
      "OS": 5048,
      "cor": 5049,
      "crib": 5050,
      "eigen": 5051,
      "zer": 5052,
      "Ġcitiz": 5053,
      "Ġdoc": 5054,
      "Ġlik": 5055,
      "rapy": 5056,
      "ĠSol": 5057,
      "Ġshap": 5058,
      "Ġimplic": 5059,
      "aven": 5060,
      "ĠKing": 5061,
      "Ġrecip": 5062,
      "Ġ[...": 5063,
      "Ġexplicit": 5064,
      "Ġhandle": 5065,
      "ographic": 5066,
      "ĠScout": 5067,
      "Ġcertainly": 5068,
      "Ġeducational": 5069,
      "Ġcomplexity": 5070,
      "Ġexperimental": 5071,
      "Ġresponsible": 5072,
      "Ġsymbol": 5073,
      "71": 5074,
      "94": 5075,
      "pd": 5076,
      "ester": 5077,
      "Ġpow": 5078,
      "Ġbillion": 5079,
      "Ġinner": 5080,
      "Ġnit": 5081,
      "Ġnice": 5082,
      "elcome": 5083,
      "umer": 5084,
      "atever": 5085,
      "Ġexternal": 5086,
      "Ġrough": 5087,
      "ocol": 5088,
      "ĠOpen": 5089,
      "Ġ->": 5090,
      "Ġunivers": 5091,
      "Ġcommonly": 5092,
      "Ġcombined": 5093,
      "ĠFrance": 5094,
      "è®¡": 5095,
      "87": 5096,
      "After": 5097,
      "Res": 5098,
      "Sc": 5099,
      "]{": 5100,
      "pm": 5101,
      "Ġpush": 5102,
      "Ġfederal": 5103,
      "Ġegg": 5104,
      "ĠCH": 5105,
      "riage": 5106,
      "ĠRed": 5107,
      "ager": 5108,
      "Ġleaves": 5109,
      "erved": 5110,
      "Ġsuccessful": 5111,
      "Ġfailure": 5112,
      "Ġaffected": 5113,
      "Ġremoved": 5114,
      "ĠFebruary": 5115,
      "Ġhorizont": 5116,
      "Ġspecifically": 5117,
      "ĠAssociation": 5118,
      "OH": 5119,
      "parent": 5120,
      "inf": 5121,
      "reet": 5122,
      "Ġswe": 5123,
      "Ġdie": 5124,
      "Ġeffic": 5125,
      "Ġlaser": 5126,
      "Ġgold": 5127,
      "ĠSep": 5128,
      "Ġstrict": 5129,
      "ĠBo": 5130,
      "ĠWind": 5131,
      "Ġuns": 5132,
      "Ġcove": 5133,
      "atures": 5134,
      "Ġspecified": 5135,
      "Ġdivers": 5136,
      "apping": 5137,
      "Ġshowing": 5138,
      "Ġwidely": 5139,
      "Ġhistorical": 5140,
      "Ġstrength": 5141,
      "Current": 5142,
      "IB": 5143,
      "LS": 5144,
      "iation": 5145,
      "pat": 5146,
      "Ã¶": 5147,
      "ana": 5148,
      "ĠCa": 5149,
      "ĠPract": 5150,
      "ĠBook": 5151,
      "Ġsevere": 5152,
      "ĠRober": 5153,
      "ĠDist": 5154,
      "ĠElect": 5155,
      "ultane": 5156,
      "Ġcompact": 5157,
      "ondon": 5158,
      "Ġflat": 5159,
      "Ġfeet": 5160,
      "Ġfilter": 5161,
      "Ġlisted": 5162,
      "Ġcalculation": 5163,
      "Ġmechanism": 5164,
      "Ġreturned": 5165,
      "Ġnecessarily": 5166,
      "Ġarticles": 5167,
      "ĠAfrican": 5168,
      "ĠQuestions": 5169,
      "89": 5170,
      "Elect": 5171,
      "ius": 5172,
      "Ġpen": 5173,
      "Ġfix": 5174,
      "Ġfoot": 5175,
      "Ġmist": 5176,
      "Ġeight": 5177,
      "omic": 5178,
      "ĠCD": 5179,
      "acific": 5180,
      "using": 5181,
      "Ġheating": 5182,
      "ĠOF": 5183,
      "Ġmeant": 5184,
      "Ġoutbur": 5185,
      "Ġtransl": 5186,
      "Ġseek": 5187,
      "Ġshowed": 5188,
      "2010": 5189,
      "scill": 5190,
      "Ġconfirm": 5191,
      "ĠDevelop": 5192,
      "Ġturned": 5193,
      "Ġmachines": 5194,
      "Ġinfluen": 5195,
      "cription": 5196,
      "Ġdrink": 5197,
      "While": 5198,
      "Ġcounter": 5199,
      "ĠEducation": 5200,
      "ĠCatholic": 5201,
      "PS": 5202,
      "uum": 5203,
      "Ġten": 5204,
      "requ": 5205,
      "Ġfru": 5206,
      "Ġmac": 5207,
      "Ġmother": 5208,
      "Ġexec": 5209,
      "Ġcoming": 5210,
      "Ġvs": 5211,
      "Ġhence": 5212,
      "ĠDuring": 5213,
      "Ġchurch": 5214,
      "pled": 5215,
      "Ġbutton": 5216,
      "Ġclim": 5217,
      "itect": 5218,
      "Ġcompan": 5219,
      "Ġspin": 5220,
      "Ġarbit": 5221,
      "ĠVir": 5222,
      "lick": 5223,
      "Ġ2002": 5224,
      "Ġtransition": 5225,
      "Ġoccup": 5226,
      "ĠService": 5227,
      "Ġpartnership": 5228,
      "house": 5229,
      "åľ": 5230,
      "Ġcore": 5231,
      "Ġbright": 5232,
      "arant": 5233,
      "state": 5234,
      "etime": 5235,
      "igration": 5236,
      "ights": 5237,
      "pty": 5238,
      "acters": 5239,
      "ĠThanks": 5240,
      "Ġscope": 5241,
      "awa": 5242,
      "ronic": 5243,
      "Ġminim": 5244,
      "ĠEngland": 5245,
      "Ġorganization": 5246,
      "Ġlegal": 5247,
      "ĠChristian": 5248,
      "Ġdrugs": 5249,
      "========": 5250,
      "Ġdamage": 5251,
      "çĶ¨": 5252,
      "Fig": 5253,
      "Last": 5254,
      "file": 5255,
      "Ġtrac": 5256,
      "Ġpsych": 5257,
      "ster": 5258,
      "Ġgram": 5259,
      "Ġforward": 5260,
      "uman": 5261,
      "ĠHermitian": 5262,
      "ĠUnder": 5263,
      "ava": 5264,
      "Ġjournal": 5265,
      "ferent": 5266,
      "Ġagent": 5267,
      "Ġ70": 5268,
      "putation": 5269,
      "Ġdecisions": 5270,
      "Ġmainly": 5271,
      "Ġleads": 5272,
      "force": 5273,
      "Ġbelong": 5274,
      "Ġdrive": 5275,
      "Ġconsistent": 5276,
      "Ġreferred": 5277,
      "Posts": 5278,
      "+\\": 5279,
      "91": 5280,
      "iences": 5281,
      "mal": 5282,
      "map": 5283,
      "train": 5284,
      "ç®": 5285,
      "isation": 5286,
      "Ġpet": 5287,
      "Ġbone": 5288,
      "Ġbrief": 5289,
      "Ġhundred": 5290,
      "Ġreached": 5291,
      "rays": 5292,
      "ĠFound": 5293,
      "Ġchosen": 5294,
      "ĠâĢ¢": 5295,
      "Ġintended": 5296,
      "anges": 5297,
      "Ġ2004": 5298,
      "Ġconservation": 5299,
      "ossible": 5300,
      "Ġeveryone": 5301,
      "2013": 5302,
      "Ġtempor": 5303,
      "Ġanalog": 5304,
      "ĠExpl": 5305,
      "Ġfinancial": 5306,
      "Ġadvice": 5307,
      "Ġintegr": 5308,
      "Ġinvolve": 5309,
      "Ġiniti": 5310,
      "Ġtrees": 5311,
      "ãĢģ": 5312,
      "Ġcontinued": 5313,
      "Ġdomin": 5314,
      "Ġfriends": 5315,
      "Ġencourage": 5316,
      "ixture": 5317,
      "ĠEngineering": 5318,
      "Ġsodium": 5319,
      ")}": 5320,
      "62": 5321,
      "AF": 5322,
      "IG": 5323,
      "NC": 5324,
      "Ret": 5325,
      "ey": 5326,
      "nomial": 5327,
      "Ġ`": 5328,
      "rep": 5329,
      "Ġsplit": 5330,
      "Ġdu": 5331,
      "Ġstation": 5332,
      "Ġconj": 5333,
      "Ġconvers": 5334,
      "Ġseven": 5335,
      "ĠFurther": 5336,
      "ĠJames": 5337,
      "Ġsymmetric": 5338,
      "Ġindepend": 5339,
      "Ġconsists": 5340,
      "Ġvariability": 5341,
      "ĠAng": 5342,
      "Ġcalls": 5343,
      "Ġproperly": 5344,
      "Ġmagnitude": 5345,
      "Ġaccepted": 5346,
      "Ġstrategy": 5347,
      "Ġinfections": 5348,
      "Ġcouple": 5349,
      "ĠCollege": 5350,
      "aign": 5351,
      "fall": 5352,
      "joy": 5353,
      "nel": 5354,
      "zing": 5355,
      "Ġtens": 5356,
      "inition": 5357,
      "Ġwire": 5358,
      "Ġfoss": 5359,
      "oln": 5360,
      "Ġbeg": 5361,
      "ads": 5362,
      "ĠPub": 5363,
      "Ġvary": 5364,
      "ĠGovern": 5365,
      "ĠGreek": 5366,
      "Ġkids": 5367,
      "Ġworkers": 5368,
      "Ġ2018": 5369,
      "Ġemphas": 5370,
      "Ġfindings": 5371,
      "Ġcharacters": 5372,
      "Ġhandling": 5373,
      "Ġsaying": 5374,
      "Ġannual": 5375,
      "ĠManagement": 5376,
      "Ġprofessional": 5377,
      "Ġsalt": 5378,
      "Ġdimension": 5379,
      "Acc": 5380,
      "Mod": 5381,
      "ses": 5382,
      "za": 5383,
      "reci": 5384,
      "ancing": 5385,
      "Ġbull": 5386,
      "Ġdro": 5387,
      "stood": 5388,
      "abs": 5389,
      "Ġvent": 5390,
      "Ġ35": 5391,
      "Ġsynon": 5392,
      "Ġsimultane": 5393,
      "rence": 5394,
      "Ġemot": 5395,
      "Ġattract": 5396,
      "Ġperspect": 5397,
      "Ġpositions": 5398,
      "Ġguide": 5399,
      "Ġlayers": 5400,
      "Ġindicate": 5401,
      "Ġbonds": 5402,
      "ĠMedical": 5403,
      "ĠAfrica": 5404,
      "Ġantibiotic": 5405,
      "DP": 5406,
      "IR": 5407,
      "ael": 5408,
      "gence": 5409,
      "mary": 5410,
      "ped": 5411,
      "rangle": 5412,
      "ua": 5413,
      "è¯": 5414,
      "Ġinverse": 5415,
      "icular": 5416,
      "Ġstack": 5417,
      "eles": 5418,
      "ogle": 5419,
      "Ġkn": 5420,
      "Ġsubsequ": 5421,
      "Ġtrials": 5422,
      "ĠIndia": 5423,
      "Ġprotein": 5424,
      "Ġhighest": 5425,
      "ä¸Ģ": 5426,
      "Ġinvolves": 5427,
      "Ġtreated": 5428,
      "Ġvirt": 5429,
      "Ġexpressed": 5430,
      "Ġfriend": 5431,
      "Ġcelebr": 5432,
      "ĠLearning": 5433,
      "ĠMexico": 5434,
      ":||": 5435,
      "fill": 5436,
      "kes": 5437,
      "power": 5438,
      "rue": 5439,
      "organ": 5440,
      "Ġbatter": 5441,
      "Ġbrought": 5442,
      "Ġhour": 5443,
      "Ġnest": 5444,
      "Ġlatter": 5445,
      "otimes": 5446,
      "Ġonto": 5447,
      "Ġassemb": 5448,
      "ayer": 5449,
      "ĠRad": 5450,
      "ĠEr": 5451,
      "ĠNon": 5452,
      "ĠGreen": 5453,
      "Ġparty": 5454,
      "ĠĠĠĠĠĠĠ": 5455,
      "Ġinterface": 5456,
      "ĠChinese": 5457,
      "Ġ2015": 5458,
      "ĠRec": 5459,
      "prime": 5460,
      "Ġexperien": 5461,
      "Ġfilm": 5462,
      "ĠExchange": 5463,
      "Ġpresence": 5464,
      "Ġdefinite": 5465,
      "Ġdatas": 5466,
      "Ġancest": 5467,
      "ĠPeople": 5468,
      "Ġfarmers": 5469,
      "Ġeye": 5470,
      "lementary": 5471,
      "Ġsynonym": 5472,
      "ban": 5473,
      "ee": 5474,
      "gu": 5475,
      "hot": 5476,
      "ios": 5477,
      "mark": 5478,
      "iny": 5479,
      "asure": 5480,
      "vector": 5481,
      "ĠAccess": 5482,
      "ague": 5483,
      "ibn": 5484,
      "ensus": 5485,
      "Ġmodes": 5486,
      "Ġphilos": 5487,
      "Ġsubset": 5488,
      "Ġeditor": 5489,
      "Ġtested": 5490,
      "Ġbuff": 5491,
      "ĠClass": 5492,
      "Ġbelieved": 5493,
      "Ġremaining": 5494,
      "riction": 5495,
      "Ġwindow": 5496,
      "ASA": 5497,
      "Ġfamiliar": 5498,
      "ĠQuestion": 5499,
      "Ġcovered": 5500,
      "Def": 5501,
      "Im": 5502,
      "Ps": 5503,
      "sum": 5504,
      "å®": 5505,
      "å·": 5506,
      "Ġsin": 5507,
      "Ġdrought": 5508,
      "Ġthin": 5509,
      "omb": 5510,
      "eties": 5511,
      "ĠTes": 5512,
      "ĠTheir": 5513,
      "Ġ\\{": 5514,
      "ulti": 5515,
      "anging": 5516,
      "Ġinteract": 5517,
      "Ġ2017": 5518,
      "Ġ2019": 5519,
      "Ġcompleted": 5520,
      "airs": 5521,
      "Ġletters": 5522,
      "Ġperiods": 5523,
      "Ġexplained": 5524,
      "Ġcycle": 5525,
      "Ġmissing": 5526,
      "Ġcooling": 5527,
      "Ġincorpor": 5528,
      "Ġsurvey": 5529,
      "86": 5530,
      "aters": 5531,
      "Ġwa": 5532,
      "alysis": 5533,
      "Ġborn": 5534,
      "Ġhous": 5535,
      "ĠAv": 5536,
      "Ġstaff": 5537,
      "eline": 5538,
      "ifferent": 5539,
      "ĠPLA": 5540,
      "ĠPDF": 5541,
      "Ġnoted": 5542,
      "Ġdifferential": 5543,
      "Ġlimits": 5544,
      "Ġorganizations": 5545,
      "ĠSpace": 5546,
      "Ġemergency": 5547,
      "handle": 5548,
      "abetes": 5549,
      "Ġhypothesis": 5550,
      "CT": 5551,
      "bles": 5552,
      "function": 5553,
      "gant": 5554,
      "kin": 5555,
      "Ġske": 5556,
      "roid": 5557,
      "Ġrelease": 5558,
      "iring": 5559,
      "ĠMicro": 5560,
      "ĠPacific": 5561,
      "geq": 5562,
      "athy": 5563,
      "ĠInformation": 5564,
      "itionally": 5565,
      "Ġsomewhat": 5566,
      "Ġgene": 5567,
      "Ġindeed": 5568,
      "ĠChurch": 5569,
      "Ġmoves": 5570,
      "ĠJewish": 5571,
      "Ġitems": 5572,
      "Ġhospital": 5573,
      ")=\\": 5574,
      "Function": 5575,
      "Rep": 5576,
      "pack": 5577,
      "under": 5578,
      "zy": 5579,
      "ÃŃ": 5580,
      "Ġtail": 5581,
      "Ġaim": 5582,
      "Ġocean": 5583,
      "orge": 5584,
      "edic": 5585,
      "Ġmission": 5586,
      "icon": 5587,
      "ĠSal": 5588,
      "ĠSur": 5589,
      "Ġstore": 5590,
      "ĠCity": 5591,
      "istant": 5592,
      "ĠBas": 5593,
      "ĠRem": 5594,
      "Then": 5595,
      "ellig": 5596,
      "ĠInf": 5597,
      "Ġteaching": 5598,
      "wered": 5599,
      "Ġemail": 5600,
      "Ġconfidence": 5601,
      "Ġcultural": 5602,
      "Ġelectronic": 5603,
      "ĠStudy": 5604,
      "Ġcomparison": 5605,
      "Ġcoefficient": 5606,
      "Ġderivative": 5607,
      "Power": 5608,
      "^\\": 5609,
      "grad": 5610,
      "ias": 5611,
      "jection": 5612,
      "ln": 5613,
      "lib": 5614,
      "sm": 5615,
      "uracy": 5616,
      "}(\\": 5617,
      "Ġwish": 5618,
      "Ġband": 5619,
      "Ġmag": 5620,
      "oming": 5621,
      "ĠSuch": 5622,
      "urt": 5623,
      "ifies": 5624,
      "ĠMus": 5625,
      "ĠData": 5626,
      "Ġneither": 5627,
      "Thanks": 5628,
      "Ġinstr": 5629,
      "arsh": 5630,
      "Ġapproaches": 5631,
      "Ġtrial": 5632,
      "ikip": 5633,
      "Ġcourt": 5634,
      "Ġnetworks": 5635,
      "Ġsubjects": 5636,
      "Ġflux": 5637,
      "Ġadults": 5638,
      "Ġthousands": 5639,
      "Ġerrors": 5640,
      "ibniz": 5641,
      "ĠTesla": 5642,
      "En": 5643,
      "IM": 5644,
      "PC": 5645,
      "elect": 5646,
      "mann": 5647,
      "Ġ~": 5648,
      "onia": 5649,
      "Ġcivil": 5650,
      "Ġlove": 5651,
      "ĠCre": 5652,
      "ĠPol": 5653,
      "ĠPaul": 5654,
      "ĠBay": 5655,
      "ĠHy": 5656,
      "ĠHol": 5657,
      "ĠHig": 5658,
      "Ġdisk": 5659,
      "Ġpert": 5660,
      "Ġspeaking": 5661,
      "uality": 5662,
      "Ġsurfaces": 5663,
      "Ġeffectively": 5664,
      "Ġstarts": 5665,
      "Ġdownload": 5666,
      "Ġdistributions": 5667,
      "Ġ1999": 5668,
      "Ġdiseases": 5669,
      "Ġeventually": 5670,
      "Ġthickness": 5671,
      "ĠWilliam": 5672,
      "ĠHalloween": 5673,
      "Ad": 5674,
      "Jo": 5675,
      "fit": 5676,
      "rs": 5677,
      "ĠâĪ": 5678,
      "Ġfear": 5679,
      "roc": 5680,
      "enth": 5681,
      "Ġnor": 5682,
      "etal": 5683,
      "ille": 5684,
      "ĠTM": 5685,
      "ĠSum": 5686,
      "ĠLondon": 5687,
      "Ġshared": 5688,
      "Ġkg": 5689,
      "weight": 5690,
      "Ġfunctional": 5691,
      "Ġproduces": 5692,
      "Ġrisks": 5693,
      "Ġcircum": 5694,
      "Ġpolynomial": 5695,
      "anese": 5696,
      "Ġassessment": 5697,
      "ikipedia": 5698,
      "Can": 5699,
      "Ind": 5700,
      "[\\": 5701,
      "]:": 5702,
      "inity": 5703,
      "itative": 5704,
      "rogen": 5705,
      "Ġnp": 5706,
      "âĢ²": 5707,
      "quest": 5708,
      "Ġcong": 5709,
      "ado": 5710,
      "ptions": 5711,
      "ĠGal": 5712,
      "They": 5713,
      "Ġspot": 5714,
      "Ġagencies": 5715,
      "Ġnovel": 5716,
      "Ġvariation": 5717,
      "Ġexperts": 5718,
      "Ġsecondary": 5719,
      "Ġelimin": 5720,
      "Ġfreedom": 5721,
      "ĠText": 5722,
      "lexive": 5723,
      "Ġresponses": 5724,
      "Ġcatalog": 5725,
      "Ġelectrical": 5726,
      "Ġfemales": 5727,
      "Ġmomentum": 5728,
      "Ġengineering": 5729,
      "ENT": 5730,
      "Ġsynthetic": 5731,
      "ĠJapan": 5732,
      "Ġfirmware": 5733,
      "Ġtissue": 5734,
      "Ġhorizontal": 5735,
      "Ġdiversity": 5736,
      "\")": 5737,
      "Do": 5738,
      "PR": 5739,
      "aid": 5740,
      "iant": 5741,
      "Ġfaster": 5742,
      "road": 5743,
      "stac": 5744,
      "ĠAR": 5745,
      "elines": 5746,
      "ĠMethod": 5747,
      "Ġexcess": 5748,
      "Ġexchange": 5749,
      "oses": 5750,
      "ĠFood": 5751,
      "ĠFerm": 5752,
      "ĠGroup": 5753,
      "ĠOx": 5754,
      "Ġque": 5755,
      "ĠJe": 5756,
      "Ġalloy": 5757,
      "Ġspring": 5758,
      "Ġformal": 5759,
      "Ġobser": 5760,
      "Ġsuppl": 5761,
      "Ġpossibly": 5762,
      "Ġlooked": 5763,
      "Any": 5764,
      "Ġforest": 5765,
      "Ġvertical": 5766,
      "Ġspectra": 5767,
      "amsar": 5768,
      "Ġdetailed": 5769,
      "Ġmedicine": 5770,
      "ĠOffice": 5771,
      "ĠCourt": 5772,
      "Ġadvantage": 5773,
      "Ġdocuments": 5774,
      ">-": 5775,
      "sin": 5776,
      "atography": 5777,
      "enge": 5778,
      "Ġcru": 5779,
      "itis": 5780,
      "Ġpi": 5781,
      "Ġpix": 5782,
      "Ġmob": 5783,
      "Ġmental": 5784,
      "asion": 5785,
      "Ġhole": 5786,
      "omas": 5787,
      "Ġgrain": 5788,
      "ĠSem": 5789,
      "uries": 5790,
      "tering": 5791,
      "ĠMc": 5792,
      "open": 5793,
      "ĠHer": 5794,
      "ĠHel": 5795,
      "ĠWestern": 5796,
      "ĠNa": 5797,
      "Ġsubs": 5798,
      "ĠCommit": 5799,
      "aterials": 5800,
      "gery": 5801,
      "fficients": 5802,
      "ĠConf": 5803,
      "Ġvisible": 5804,
      "brid": 5805,
      "ĠAtl": 5806,
      "Ġmutation": 5807,
      "Ġcontrolled": 5808,
      "Ġneighbor": 5809,
      "ĠFrancisc": 5810,
      "210": 5811,
      "vari": 5812,
      "wer": 5813,
      "atform": 5814,
      "Ġflex": 5815,
      "Ġmales": 5816,
      "ĠId": 5817,
      "Ġalarm": 5818,
      "ĠPo": 5819,
      "ĠBoth": 5820,
      "ĠHence": 5821,
      "ĠGiven": 5822,
      "ĠOh": 5823,
      "uebl": 5824,
      "Ġenab": 5825,
      "Ġunless": 5826,
      "anged": 5827,
      "Ġthanks": 5828,
      "Ġteach": 5829,
      "Ġbeta": 5830,
      "Ġcolors": 5831,
      "Ġdecide": 5832,
      "Ġentry": 5833,
      "Ġmeasurement": 5834,
      "Ġintegers": 5835,
      "Ġprofile": 5836,
      "Ġhimself": 5837,
      "Ġtrend": 5838,
      "Also": 5839,
      "Ġsampling": 5840,
      "Ġvacuum": 5841,
      "ĠCanada": 5842,
      "Ġpolicies": 5843,
      "ademic": 5844,
      "ĠCounty": 5845,
      ")]": 5846,
      "BA": 5847,
      "USB": 5848,
      "num": 5849,
      "{~": 5850,
      "İæ": 5851,
      "inations": 5852,
      "eria": 5853,
      "essel": 5854,
      "Ġwin": 5855,
      "Ġwatch": 5856,
      "rox": 5857,
      "Ġhuge": 5858,
      "Ġreputation": 5859,
      "Ġstim": 5860,
      "Ġstuff": 5861,
      "umes": 5862,
      "ĠMill": 5863,
      "ĠTheory": 5864,
      "anted": 5865,
      "ĠWell": 5866,
      "ĠNature": 5867,
      "omega": 5868,
      "Ġ300": 5869,
      "Ġcompounds": 5870,
      "rupt": 5871,
      "Ġmanner": 5872,
      "Ġapparent": 5873,
      "Ġraised": 5874,
      "ĠNews": 5875,
      "Ġstatistics": 5876,
      "Ġparenthesis": 5877,
      "ĠMedic": 5878,
      "Ġclaims": 5879,
      "Ġstrategies": 5880,
      "events": 5881,
      "Ġimplies": 5882,
      "Ġaspects": 5883,
      "åľ¨": 5884,
      "US": 5885,
      "Yes": 5886,
      "xi": 5887,
      "æĸ": 5888,
      "Ġice": 5889,
      "Ġfig": 5890,
      "ĠIN": 5891,
      "ĠSun": 5892,
      "oday": 5893,
      "estic": 5894,
      "ĠRiver": 5895,
      "ĠRamsar": 5896,
      "ained": 5897,
      "ĠEvery": 5898,
      "Ġchiral": 5899,
      "Ġchannel": 5900,
      "Ġshock": 5901,
      "aks": 5902,
      "Ġcomprehens": 5903,
      "Ġunlike": 5904,
      "rice": 5905,
      "Ġcoll": 5906,
      "Ġregional": 5907,
      "Ġunderstood": 5908,
      "ĠComput": 5909,
      "Ġkept": 5910,
      "Ġconflic": 5911,
      "ĠLeibniz": 5912,
      "Ġplanning": 5913,
      "Ġlateral": 5914,
      "Ġolder": 5915,
      "ING": 5916,
      "ĠInternet": 5917,
      "Ġelectricity": 5918,
      "Ġprecip": 5919,
      "Ġcrops": 5920,
      "ĠCouncil": 5921,
      "According": 5922,
      "101": 5923,
      "Gen": 5924,
      "Riemannian": 5925,
      "Solution": 5926,
      "cup": 5927,
      "ij": 5928,
      "mut": 5929,
      "}]": 5930,
      "Ġbeaut": 5931,
      "Ġstable": 5932,
      "Ġstru": 5933,
      "add": 5934,
      "ĠEconom": 5935,
      "Ġnoticed": 5936,
      "Ġqual": 5937,
      "Ġprinc": 5938,
      "Ġcompare": 5939,
      "Ġprevention": 5940,
      "Ġpregn": 5941,
      "ĠVs": 5942,
      "Ġgenerator": 5943,
      "Ġempty": 5944,
      "Ġexposure": 5945,
      "ĠProf": 5946,
      "Ġdiameter": 5947,
      "Ġmeta": 5948,
      "Ġreducing": 5949,
      "Ġmotiv": 5950,
      "ĠIsland": 5951,
      "Ġpublication": 5952,
      "ĠUSA": 5953,
      "Example": 5954,
      "Ġdelay": 5955,
      "Ġassumed": 5956,
      "Ġrecognize": 5957,
      "________________________________": 5958,
      "https": 5959,
      "Ġautomatically": 5960,
      "Ġcolumns": 5961,
      "doi": 5962,
      "Ġatmosphere": 5963,
      "Ġcomplicated": 5964,
      "Ġconfiguration": 5965,
      "('": 5966,
      "Des": 5967,
      "Most": 5968,
      "Sub": 5969,
      "fers": 5970,
      "top": 5971,
      "ç§": 5972,
      "Ġiron": 5973,
      "Ġtrib": 5974,
      "Ġoscill": 5975,
      "Ġcast": 5976,
      "esh": 5977,
      "Ġburn": 5978,
      "Ġhit": 5979,
      "ĠTur": 5980,
      "ĠMR": 5981,
      "ĠLow": 5982,
      "Ġsharing": 5983,
      "Ġ36": 5984,
      "Ġcontract": 5985,
      "Ġcomposite": 5986,
      "swer": 5987,
      "mean": 5988,
      "Ġimmigr": 5989,
      "ĠOrgan": 5990,
      "ĠCommission": 5991,
      "Ġconcerned": 5992,
      "Ġassumption": 5993,
      "Ġconcepts": 5994,
      "Ġtalking": 5995,
      "Ġthermal": 5996,
      "Ġproportion": 5997,
      "Ġexponential": 5998,
      "ĠCommittee": 5999,
      "-)": 6000,
      "Data": 6001,
      "HC": 6002,
      "LE": 6003,
      "Or": 6004,
      "group": 6005,
      "zen": 6006,
      "{{": 6007,
      "Ġwaves": 6008,
      "oration": 6009,
      "Ġbases": 6010,
      "Ġmorph": 6011,
      "ĠDNA": 6012,
      "udd": 6013,
      "ĠJun": 6014,
      "Ġenjoy": 6015,
      "Ġuniverse": 6016,
      "ĠStr": 6017,
      "Ġrecon": 6018,
      "Ġvariance": 6019,
      "Ġoffice": 6020,
      "Ġextent": 6021,
      "Ġdiscovery": 6022,
      "anned": 6023,
      "Ġshell": 6024,
      "Ġcalculations": 6025,
      "ä¸ļ": 6026,
      "Ġcausing": 6027,
      "Ġbroken": 6028,
      "Ġfrequently": 6029,
      "Ġchoices": 6030,
      "Ġdivision": 6031,
      "Ġconducted": 6032,
      "Ġdecrease": 6033,
      "Ġessentially": 6034,
      "Ġcoordinate": 6035,
      "Ġmanufacturer": 6036,
      "Ġacceleration": 6037,
      "LT": 6038,
      "OD": 6039,
      "pan": 6040,
      "uable": 6041,
      "heimer": 6042,
      "Ġwinter": 6043,
      "arr": 6044,
      "Ġreject": 6045,
      "Ġreplace": 6046,
      "Ġreferences": 6047,
      "Ġnarrow": 6048,
      "Ġstated": 6049,
      "Ġwhatever": 6050,
      "ĠHome": 6051,
      "ĠDem": 6052,
      "ĠNav": 6053,
      "Ġplate": 6054,
      "Ġplus": 6055,
      "Ġoutcomes": 6056,
      "rame": 6057,
      "Ġinteraction": 6058,
      "Ġsimulation": 6059,
      "Ġanalys": 6060,
      "Ġprogramming": 6061,
      "bridge": 6062,
      "roduction": 6063,
      "Ġreturns": 6064,
      "Ġbounded": 6065,
      "Ġboundary": 6066,
      "ĠÎ¼": 6067,
      "Ġconcern": 6068,
      "Ġcardi": 6069,
      "ĠSimilar": 6070,
      "ĠJews": 6071,
      "Ġprepared": 6072,
      "åĲ¨": 6073,
      "ĠAustralia": 6074,
      "();": 6075,
      ")|": 6076,
      "84": 6077,
      "Not": 6078,
      "Sim": 6079,
      "iance": 6080,
      "vial": 6081,
      "èĢ": 6082,
      "Ġtheore": 6083,
      "eness": 6084,
      "enty": 6085,
      "Ġisland": 6086,
      "ĠAp": 6087,
      "Ġsugar": 6088,
      "pping": 6089,
      "ĠDise": 6090,
      "ogram": 6091,
      "Ġ==": 6092,
      "Ġ32": 6093,
      "Ġgenes": 6094,
      "âĢĿ.": 6095,
      "Ġcollis": 6096,
      "Ġwhereas": 6097,
      "example": 6098,
      "Ġmedium": 6099,
      "Ġveh": 6100,
      "ĠPhil": 6101,
      "ĠWhich": 6102,
      "Ġarguments": 6103,
      "ĠCalcul": 6104,
      "ediate": 6105,
      "Ġdemoc": 6106,
      "ĠControl": 6107,
      "Ġcoordinates": 6108,
      "Ġrepeated": 6109,
      "Ġlicens": 6110,
      "Ġcitizens": 6111,
      ")+": 6112,
      "\\}": 6113,
      "win": 6114,
      "ymmetric": 6115,
      "Ã¼": 6116,
      "ðŁ": 6117,
      "Ġsed": 6118,
      "alian": 6119,
      "uting": 6120,
      "ĠCura": 6121,
      "irit": 6122,
      "ĠPri": 6123,
      "ĠHouse": 6124,
      "Ġnotice": 6125,
      "Ġchapter": 6126,
      "Ġshift": 6127,
      "ĠOnce": 6128,
      "Ġtele": 6129,
      "tenance": 6130,
      "cycl": 6131,
      "Ġdecided": 6132,
      "2015": 6133,
      "Ġseconds": 6134,
      "150": 6135,
      "Ġallowing": 6136,
      "Ġnormally": 6137,
      "Another": 6138,
      "ympt": 6139,
      "while": 6140,
      "Ġrecorded": 6141,
      "Ġwalls": 6142,
      "Ġprinciples": 6143,
      "Ġwetlands": 6144,
      "Ġeigenvalues": 6145,
      "Ġevaluate": 6146,
      "ĠAuthor": 6147,
      "Ġwonder": 6148,
      "Ġcompanies": 6149,
      ")^{": 6150,
      "First": 6151,
      "Other": 6152,
      "fr": 6153,
      "mail": 6154,
      "ishes": 6155,
      "arge": 6156,
      "Ġdrop": 6157,
      "Ġgal": 6158,
      "ĠRich": 6159,
      "ĠRob": 6160,
      "ĠNASA": 6161,
      "Ġ500": 6162,
      "Ġcolour": 6163,
      "Ġ*/": 6164,
      "Ġdistingu": 6165,
      "ĠAnother": 6166,
      "Ġminor": 6167,
      "2011": 6168,
      "Ġadvance": 6169,
      "Ġ1998": 6170,
      "ĠSpanish": 6171,
      "Ġprimarily": 6172,
      "Ġauthority": 6173,
      "ĠGeorge": 6174,
      "Ġcontribute": 6175,
      "Ġethanol": 6176,
      "ypes": 6177,
      "Ġarchitect": 6178,
      "Ġchallenges": 6179,
      "ffe": 6180,
      "gr": 6181,
      "loss": 6182,
      "source": 6183,
      "vol": 6184,
      "zheimer": 6185,
      "Ġtasks": 6186,
      "Ġcamer": 6187,
      "Ġfan": 6188,
      "asc": 6189,
      "ĠCr": 6190,
      "ĠMa": 6191,
      "ĠExt": 6192,
      "ĠLike": 6193,
      "Ġperp": 6194,
      "ĠVal": 6195,
      "rows": 6196,
      "cluding": 6197,
      "Ġ&&": 6198,
      "Ġtransmission": 6199,
      "Ġsurgery": 6200,
      "Ġedges": 6201,
      "Ġcurves": 6202,
      "Ġminus": 6203,
      "ĠConstitution": 6204,
      "Ġbreast": 6205,
      "Ġimproved": 6206,
      "Ġpotentially": 6207,
      "Ġcircle": 6208,
      "Ġmoved": 6209,
      "Ġcollege": 6210,
      "Ġteacher": 6211,
      "Ġreplaced": 6212,
      "elihood": 6213,
      "ĠInstead": 6214,
      "ĠFrancisco": 6215,
      "82": 6216,
      "MM": 6217,
      "Rec": 6218,
      "bin": 6219,
      "called": 6220,
      "lig": 6221,
      "width": 6222,
      "Ġsav": 6223,
      "Ġsizes": 6224,
      "Ġreact": 6225,
      "Ġnone": 6226,
      "Ġvill": 6227,
      "oper": 6228,
      "ĠLast": 6229,
      "Ġpartial": 6230,
      "Ġwouldn": 6231,
      "Ġnoise": 6232,
      "Ġamb": 6233,
      "Ġcorn": 6234,
      "ĠProject": 6235,
      "Ġdecimal": 6236,
      "Ġsigns": 6237,
      "ĠQPO": 6238,
      "athers": 6239,
      "Ġserve": 6240,
      "Ġcorrel": 6241,
      "ransfer": 6242,
      "Ġrecommended": 6243,
      "Ġatomic": 6244,
      "Ġopportunity": 6245,
      "ĠMathematics": 6246,
      "/(": 6247,
      "EE": 6248,
      "NN": 6249,
      "Type": 6250,
      "care": 6251,
      "draw": 6252,
      "normal": 6253,
      "sBase": 6254,
      "Ġion": 6255,
      "Ġtut": 6256,
      "itivity": 6257,
      "Ġbud": 6258,
      "oto": 6259,
      "Ġgir": 6260,
      "ĠSO": 6261,
      "ĠArab": 6262,
      "ĠMal": 6263,
      "ĠMiss": 6264,
      "Ġrich": 6265,
      "Ġchlor": 6266,
      "ĠGold": 6267,
      "Ġadm": 6268,
      "inder": 6269,
      "Ġsoil": 6270,
      "Ġsyn": 6271,
      "Ġappreci": 6272,
      "orders": 6273,
      "Ġtwice": 6274,
      "Ġ2001": 6275,
      "Ġedited": 6276,
      "Ġcreation": 6277,
      "Ġpossibility": 6278,
      "Ġoperating": 6279,
      "ĠArt": 6280,
      "Ġpowerful": 6281,
      "Ġbasically": 6282,
      "Ġcomputed": 6283,
      "Ġrefers": 6284,
      "Ġresistor": 6285,
      "space": 6286,
      "Ġkinds": 6287,
      "Ġpromote": 6288,
      "Ġreleased": 6289,
      "ĠDesign": 6290,
      "Ġastron": 6291,
      "Ġeyes": 6292,
      "Ġdemonstrate": 6293,
      "Ġmorning": 6294,
      "ĠSecond": 6295,
      "ĠRockwell": 6296,
      "Ġbaby": 6297,
      "Ġarbitrary": 6298,
      "Ġperspective": 6299,
      "Hg": 6300,
      "Part": 6301,
      "born": 6302,
      "document": 6303,
      "hab": 6304,
      "np": 6305,
      "spec": 6306,
      "âĤ": 6307,
      "Ġtour": 6308,
      "het": 6309,
      "herent": 6310,
      "ony": 6311,
      "erators": 6312,
      "isk": 6313,
      "orator": 6314,
      "Ġmix": 6315,
      "Ġnorthern": 6316,
      "stat": 6317,
      "olf": 6318,
      "idation": 6319,
      "Ġalpha": 6320,
      "ĠPuebl": 6321,
      "ĠHen": 6322,
      "ĠLi": 6323,
      "ĠGreat": 6324,
      "ĠOR": 6325,
      "Ġclar": 6326,
      "Ġemit": 6327,
      "Ġhelped": 6328,
      "ĠAnn": 6329,
      "ĠAnalysis": 6330,
      "ĠPropos": 6331,
      "Ġcalib": 6332,
      "Ġbran": 6333,
      "Ġcapital": 6334,
      "Ġvolunt": 6335,
      "Ġfinally": 6336,
      "ĠSyrian": 6337,
      "Ġreviewed": 6338,
      "idden": 6339,
      "Ġsemi": 6340,
      "ĠParis": 6341,
      "going": 6342,
      "Ġhousehold": 6343,
      "ĠConsider": 6344,
      "Ġnanow": 6345,
      "Ġincorrect": 6346,
      "Ġriver": 6347,
      "Ġlatest": 6348,
      "ĠDavid": 6349,
      "Ġbeliefs": 6350,
      "Ass": 6351,
      "rich": 6352,
      "rates": 6353,
      "Ġ//": 6354,
      "Ġtaught": 6355,
      "orous": 6356,
      "Ġple": 6357,
      "Ġbattle": 6358,
      "arian": 6359,
      "Ġinsect": 6360,
      "icks": 6361,
      "Ġhaven": 6362,
      "omer": 6363,
      "step": 6364,
      "iders": 6365,
      "ĠSpe": 6366,
      "Ġstick": 6367,
      "ĠMag": 6368,
      "ading": 6369,
      "Ġvoting": 6370,
      "osit": 6371,
      "ĠGra": 6372,
      "Ġkin": 6373,
      "Ġclient": 6374,
      "Ġtransformation": 6375,
      "Ġunderlying": 6376,
      "Ġgenerating": 6377,
      "psi": 6378,
      "Ġaccuracy": 6379,
      "Ġready": 6380,
      "Ġraise": 6381,
      "Ġidentical": 6382,
      "Ġtextbooks": 6383,
      "Ġclosely": 6384,
      "Ġgraphs": 6385,
      "mmetry": 6386,
      "Ġconcerns": 6387,
      "Ġsensitive": 6388,
      "ä½ľ": 6389,
      ")/(": 6390,
      "Ġinequality": 6391,
      "ĠChildren": 6392,
      ".|": 6393,
      "Cons": 6394,
      "Find": 6395,
      "More": 6396,
      "Your": 6397,
      "oke": 6398,
      "pred": 6399,
      "pdf": 6400,
      "onym": 6401,
      "Ġfold": 6402,
      "Ġreality": 6403,
      "Ġnode": 6404,
      "ĠTable": 6405,
      "urning": 6406,
      "uls": 6407,
      "ĠMart": 6408,
      "ĠMount": 6409,
      "ĠMAT": 6410,
      "ĠMuseum": 6411,
      "Ġexceed": 6412,
      "ĠBrown": 6413,
      "Ġsuitable": 6414,
      "ache": 6415,
      "anta": 6416,
      "ĠOut": 6417,
      "Ġdoctors": 6418,
      "Ġmodified": 6419,
      "ĠKnow": 6420,
      "Ġdesired": 6421,
      "lemma": 6422,
      "roughts": 6423,
      "Ġprints": 6424,
      "ools": 6425,
      "Ġ75": 6426,
      "poses": 6427,
      "Ġoptimal": 6428,
      "2009": 6429,
      "Ġobservation": 6430,
      "Ġforecast": 6431,
      "Ġillness": 6432,
      "timeout": 6433,
      "Ġentirely": 6434,
      "Ġmeeting": 6435,
      "Ġchallenge": 6436,
      "Ġfeedback": 6437,
      "ĠBlack": 6438,
      "Ġterrit": 6439,
      "Ġsituations": 6440,
      "ĠFermat": 6441,
      "Ġprecipitation": 6442,
      ")}{": 6443,
      "CE": 6444,
      "SD": 6445,
      "eh": 6446,
      "ato": 6447,
      "isor": 6448,
      "Ġec": 6449,
      "Ġeating": 6450,
      "ĠTHE": 6451,
      "Ġforum": 6452,
      "ĠForm": 6453,
      "ĠDisc": 6454,
      "ĠLemma": 6455,
      "Ġprepar": 6456,
      "Ġmyself": 6457,
      "Ġextended": 6458,
      "ĠAlzheimer": 6459,
      "Ġprocessing": 6460,
      "Ġsupports": 6461,
      "Ġlargely": 6462,
      "standing": 6463,
      "ounced": 6464,
      "Ġorganic": 6465,
      "Ġdrawn": 6466,
      "3934": 6467,
      "ĠSciences": 6468,
      "Ġamounts": 6469,
      "printing": 6470,
      "Ġcapacitor": 6471,
      "Ġvaccine": 6472,
      "Ġchromatography": 6473,
      "Ġuncertainty": 6474,
      "ĠPractice": 6475,
      "ĠHiggs": 6476,
      "Ġprincipal": 6477,
      "81": 6478,
      "MA": 6479,
      "fish": 6480,
      "field": 6481,
      "ux": 6482,
      "yne": 6483,
      "Äģ": 6484,
      "çŃ": 6485,
      "isher": 6486,
      "icity": 6487,
      "Ġdroughts": 6488,
      "Ġtoler": 6489,
      "ĠTem": 6490,
      "ĠMain": 6491,
      "ĠPan": 6492,
      "Ġrank": 6493,
      "appe": 6494,
      "Ġenable": 6495,
      "ĠIts": 6496,
      "cluded": 6497,
      "Ġroll": 6498,
      "Ġexposed": 6499,
      "Ġdiabetes": 6500,
      "Ġexpert": 6501,
      "ĠAsia": 6502,
      "Ġconsidering": 6503,
      "ä¸ª": 6504,
      "Ġplayers": 6505,
      "Ġspectrum": 6506,
      "ManifoldsBase": 6507,
      "Ġcollected": 6508,
      "Ġcircul": 6509,
      "Ġneutral": 6510,
      "ĠStandard": 6511,
      "ĠMedicine": 6512,
      "!--": 6513,
      "Given": 6514,
      "IA": 6515,
      "Many": 6516,
      "such": 6517,
      "Ġislands": 6518,
      "ĠIV": 6519,
      "chron": 6520,
      "Ġstem": 6521,
      "ĠMD": 6522,
      "Ġnotion": 6523,
      "Ġabuse": 6524,
      "Ġquad": 6525,
      "Ġkern": 6526,
      "Ġpron": 6527,
      "Ġspac": 6528,
      "Ġ45": 6529,
      "ilde": 6530,
      "âĢĿ,": 6531,
      "Ġemissions": 6532,
      "ructure": 6533,
      "scale": 6534,
      "plicate": 6535,
      "Ġplayed": 6536,
      "Ġturns": 6537,
      "Ġlegis": 6538,
      "Ġevaluation": 6539,
      "ĠDoes": 6540,
      "Ġutil": 6541,
      "Ġdimensions": 6542,
      "Ġcoefficients": 6543,
      "ĠSystems": 6544,
      "Reg": 6545,
      "UT": 6546,
      "bal": 6547,
      "gO": 6548,
      "ni": 6549,
      "pg": 6550,
      "vision": 6551,
      "war": 6552,
      "Ġtit": 6553,
      "Ġtherapy": 6554,
      "Ġsch": 6555,
      "Ġsouthern": 6556,
      "Ġbiod": 6557,
      "Ġmixed": 6558,
      "ĠCam": 6559,
      "ĠNatural": 6560,
      "ĠOld": 6561,
      "Ġplatform": 6562,
      "Ġsomewhere": 6563,
      "ĠĠĠĠĠ": 6564,
      "Ġ48": 6565,
      "Ġgoals": 6566,
      "Ġspecify": 6567,
      "Ġseeing": 6568,
      "ventional": 6569,
      "Ġtriple": 6570,
      "Ġcontained": 6571,
      "Ġmembr": 6572,
      "Ġbrid": 6573,
      "}^{\\": 6574,
      "Ġgreatly": 6575,
      "ĠOnly": 6576,
      "Ġrestrict": 6577,
      "Ġsignificance": 6578,
      "Ġforeign": 6579,
      "Although": 6580,
      "Ġconcerning": 6581,
      "Ġimplemented": 6582,
      "ĠIII": 6583,
      "Ġpieces": 6584,
      "Ġgradient": 6585,
      "Ġsymbols": 6586,
      "Ġinstitutions": 6587,
      "Ġrapidly": 6588,
      "Ġgravity": 6589,
      "Ġconvex": 6590,
      "Ġinterpretation": 6591,
      "ĠAdvanced": 6592,
      "dx": 6593,
      "ham": 6594,
      "ira": 6595,
      "max": 6596,
      "Ġ_": 6597,
      "Ġcards": 6598,
      "isons": 6599,
      "Ġfrag": 6600,
      "Ġoffered": 6601,
      "Ġmel": 6602,
      "Ġreprodu": 6603,
      "Ġnav": 6604,
      "ulating": 6605,
      "amily": 6606,
      "Ġheard": 6607,
      "ĠDou": 6608,
      "ĠEv": 6609,
      "artes": 6610,
      "Ġreson": 6611,
      "Ġprobable": 6612,
      "Ġinteractions": 6613,
      "Ġdirector": 6614,
      "Ġdepth": 6615,
      "2019": 6616,
      "ĠZe": 6617,
      "ĠExper": 6618,
      "Ġhands": 6619,
      "Ġoperators": 6620,
      "2003": 6621,
      "Ġgreatest": 6622,
      "Ġoccurred": 6623,
      "Ġdegrad": 6624,
      "ĠUSB": 6625,
      "Ġeconomy": 6626,
      "ĠGermany": 6627,
      "Ġalgorithms": 6628,
      "Ġsmoke": 6629,
      "ĠJapanese": 6630,
      "æķ°åŃ¦": 6631,
      "Ġnucleus": 6632,
      "ĠGaussian": 6633,
      "Ġsurrounding": 6634,
      "Ġcandidate": 6635,
      "Ġtouch": 6636,
      "Ġbattery": 6637,
      "Ġexperienced": 6638,
      "HD": 6639,
      "Hi": 6640,
      "Per": 6641,
      "Right": 6642,
      "SU": 6643,
      "fortunately": 6644,
      "gment": 6645,
      "ups": 6646,
      "}[": 6647,
      "instein": 6648,
      "itud": 6649,
      "Ġpace": 6650,
      "Ġfol": 6651,
      "Ġmil": 6652,
      "Ġinnov": 6653,
      "ĠTime": 6654,
      "raq": 6655,
      "Ġstrain": 6656,
      "Ġstories": 6657,
      "Ġstored": 6658,
      "Ġvessel": 6659,
      "Ġdeleg": 6660,
      "ĠLie": 6661,
      "Ġusual": 6662,
      "Ġleaving": 6663,
      "ults": 6664,
      "Ġintensity": 6665,
      "rule": 6666,
      "ructions": 6667,
      "ĠKin": 6668,
      "Ġvariations": 6669,
      "Ġ65": 6670,
      "Ġoffset": 6671,
      "Ġinsert": 6672,
      "hyth": 6673,
      "Ġimpossible": 6674,
      "ĠOnline": 6675,
      "Ġviewed": 6676,
      "Stud": 6677,
      "Ġsuccessfully": 6678,
      "Ġmarriage": 6679,
      "ĠGuide": 6680,
      "Ġoriginally": 6681,
      "Ġpropag": 6682,
      "Ġefficiency": 6683,
      "Joined": 6684,
      "ĠMATLAB": 6685,
      ")-": 6686,
      "FT": 6687,
      "Par": 6688,
      "SA": 6689,
      "my": 6690,
      "uous": 6691,
      "Ġtro": 6692,
      "ativity": 6693,
      "Ġcities": 6694,
      "Ġwife": 6695,
      "orter": 6696,
      "orry": 6697,
      "etric": 6698,
      "sep": 6699,
      "idity": 6700,
      "ĠSam": 6701,
      "ĠAtt": 6702,
      "urance": 6703,
      "ĠMake": 6704,
      "heric": 6705,
      "Ġvoid": 6706,
      "Ġrational": 6707,
      "Ġheated": 6708,
      "agues": 6709,
      "ogene": 6710,
      "Ġ34": 6711,
      "ello": 6712,
      "Ġwilling": 6713,
      "Ġparties": 6714,
      "Ġintellig": 6715,
      "Ġspeech": 6716,
      "Ġspend": 6717,
      "Ġmanage": 6718,
      "-->": 6719,
      "ramework": 6720,
      "Ġbecoming": 6721,
      "Ġtechnologies": 6722,
      "Ġmultip": 6723,
      "Ġguarant": 6724,
      "Ġsheet": 6725,
      "Ġbridge": 6726,
      "Ġpresident": 6727,
      "ĠSpain": 6728,
      "Ġlogic": 6729,
      "Ġindicates": 6730,
      "iveness": 6731,
      "Ġprofessor": 6732,
      "ĠLaTeX": 6733,
      "matrix": 6734,
      "Ġcircl": 6735,
      "ĠServices": 6736,
      "Ġpollution": 6737,
      "Ġupdate": 6738,
      "Ġadopted": 6739,
      "åĩł": 6740,
      "IBUSB": 6741,
      "Ġbuffer": 6742,
      "cyclop": 6743,
      ")?": 6744,
      "CM": 6745,
      "Our": 6746,
      "]]": 6747,
      "build": 6748,
      "fil": 6749,
      "men": 6750,
      "word": 6751,
      "é»": 6752,
      "Ġid": 6753,
      "Ġturb": 6754,
      "Ġwest": 6755,
      "also": 6756,
      "Ġinert": 6757,
      "iled": 6758,
      "ota": 6759,
      "otal": 6760,
      "ĠTra": 6761,
      "cel": 6762,
      "Ġyellow": 6763,
      "uler": 6764,
      "ĠCheck": 6765,
      "Ġ1000": 6766,
      "ĠMary": 6767,
      "Ġsusp": 6768,
      "ĠFil": 6769,
      "arden": 6770,
      "Ġkit": 6771,
      "apor": 6772,
      "ressed": 6773,
      "Ġspent": 6774,
      "Ġdiffer": 6775,
      "Ġagg": 6776,
      "neum": 6777,
      "Ġroad": 6778,
      "racture": 6779,
      "Ġmatch": 6780,
      "Ġexpensive": 6781,
      "cipl": 6782,
      "Ġelectro": 6783,
      "Ġwants": 6784,
      "2016": 6785,
      "âĪĪ": 6786,
      "Ġoperate": 6787,
      "Ġappeared": 6788,
      "Ġintegrated": 6789,
      "Ġstrongly": 6790,
      "Ġbias": 6791,
      "Ġstatistical": 6792,
      "Ġvert": 6793,
      "Ġrecognized": 6794,
      "ä½ķ": 6795,
      "Ġdebate": 6796,
      "Ġordered": 6797,
      "Ġantibiotics": 6798,
      "Ġsustainable": 6799,
      "Ġmonitoring": 6800,
      "Ġorbital": 6801,
      "ĠRobert": 6802,
      "Electromagnetic": 6803,
      "Ġsimultaneously": 6804,
      "å·¥": 6805,
      "'.": 6806,
      "=(": 6807,
      "AB": 6808,
      "Ab": 6809,
      "PAR": 6810,
      "Supp": 6811,
      "Ľ¼": 6812,
      "Ġtor": 6813,
      "Ġtru": 6814,
      "Ġwww": 6815,
      "Ġwoman": 6816,
      "Ġwait": 6817,
      "Ġwelcome": 6818,
      "Ġholes": 6819,
      "Ġrect": 6820,
      "ĠAlex": 6821,
      "Ġorient": 6822,
      "ersion": 6823,
      "Ġdeviation": 6824,
      "Ġsecret": 6825,
      "uses": 6826,
      "ĠWhere": 6827,
      "Ġtimeout": 6828,
      "Ġproducing": 6829,
      "Ġends": 6830,
      "conf": 6831,
      "lisher": 6832,
      "ĠConference": 6833,
      "Ġfamous": 6834,
      "Ġcapable": 6835,
      "ĠIsra": 6836,
      "displacement": 6837,
      "Ġcorrectly": 6838,
      "ĠTechnology": 6839,
      "Ġcloser": 6840,
      "Ġsuperscript": 6841,
      "İæĽ¼": 6842,
      "åĩłä½ķ": 6843,
      "é»İæĽ¼": 6844,
      "<!--": 6845,
      "?âĢĿ": 6846,
      "EP": 6847,
      "May": 6848,
      "TE": 6849,
      "Waves": 6850,
      "Zbl": 6851,
      "^*": 6852,
      "ao": 6853,
      "bing": 6854,
      "dec": 6855,
      "wood": 6856,
      "Ġing": 6857,
      "eries": 6858,
      "Ġsounds": 6859,
      "itals": 6860,
      "orrow": 6861,
      "alt": 6862,
      "eds": 6863,
      "Ġbread": 6864,
      "Ġmo": 6865,
      "stream": 6866,
      "Ġlose": 6867,
      "ĠIraq": 6868,
      "ĠSing": 6869,
      "ĠAir": 6870,
      "ĠPC": 6871,
      "abil": 6872,
      "Ġexport": 6873,
      "Ġcompl": 6874,
      "ĠBer": 6875,
      "ĠBra": 6876,
      "ĠBoy": 6877,
      "ĠDO": 6878,
      "ĠOP": 6879,
      "Ġworry": 6880,
      "inding": 6881,
      "Ġoutl": 6882,
      "Ġscan": 6883,
      "Ġspat": 6884,
      "Ġremark": 6885,
      "Ġcalling": 6886,
      "Ġconstra": 6887,
      "oyal": 6888,
      "Ġtriang": 6889,
      "ircraft": 6890,
      "Ġtextbook": 6891,
      "Ġsky": 6892,
      "Ġswit": 6893,
      "Ġkeeping": 6894,
      "######": 6895,
      "Ġstatistic": 6896,
      "358": 6897,
      "Ġwavelength": 6898,
      "ipped": 6899,
      "Ġprecision": 6900,
      "Ġfairly": 6901,
      "Print": 6902,
      "Ġscheme": 6903,
      "Ġrevealed": 6904,
      "ĠDevelopment": 6905,
      "Ġcircumst": 6906,
      "displacementCurrent": 6907,
      "é»İæĽ¼åĩłä½ķ": 6908,
      "Pre": 6909,
      "Trans": 6910,
      "Using": 6911,
      "\\}$": 6912,
      "deg": 6913,
      "kg": 6914,
      "len": 6915,
      "mediate": 6916,
      "sis": 6917,
      "âī": 6918,
      "ä¹": 6919,
      "Ġsac": 6920,
      "Ġcrop": 6921,
      "ano": 6922,
      "Ġpin": 6923,
      "Ġmixture": 6924,
      "Ġdied": 6925,
      "asp": 6926,
      "ractions": 6927,
      "ĠAT": 6928,
      "ulum": 6929,
      "quare": 6930,
      "adder": 6931,
      "istent": 6932,
      "istance": 6933,
      "ĠWall": 6934,
      "0000": 6935,
      "Ġleaf": 6936,
      "ĠOper": 6937,
      "actitor": 6938,
      "ĠUs": 6939,
      "ĠVer": 6940,
      "Ġmatters": 6941,
      "there": 6942,
      "Ġinstant": 6943,
      "Ġempir": 6944,
      "exas": 6945,
      "Ġdiscover": 6946,
      "Ġstatements": 6947,
      "Ġmaintenance": 6948,
      "Ġapart": 6949,
      "Ġguit": 6950,
      "mitian": 6951,
      "Ġdistributed": 6952,
      "Ġcapactitor": 6953,
      "Ġincome": 6954,
      "Ġ1995": 6955,
      "Ġinterests": 6956,
      "Ġgrown": 6957,
      "ropical": 6958,
      "Ġpurposes": 6959,
      "Ġheads": 6960,
      "Ġinvolving": 6961,
      "ĠCentral": 6962,
      "Ġreasonable": 6963,
      "Ġsatell": 6964,
      "olester": 6965,
      "ĠStudies": 6966,
      "Comp": 6967,
      "loat": 6968,
      "Ġseeds": 6969,
      "TRAN": 6970,
      "ĠCommunity": 6971,
      "Ġaccompl": 6972,
      "Ġscenario": 6973,
      "Ġfossil": 6974,
      "ĠGovernment": 6975,
      "Ġperturb": 6976,
      "ĠÎ¼C": 6977,
      "Ġbudget": 6978,
      "Ġnanowire": 6979,
      "çŃī": 6980,
      "Ġcirclular": 6981,
      "ElectromagneticWaves": 6982,
      "='": 6983,
      "cule": 6984,
      "dependent": 6985,
      "pre": 6986,
      "rant": 6987,
      "rud": 6988,
      "spe": 6989,
      "zon": 6990,
      "æĪ": 6991,
      "Ġ]": 6992,
      "ĠâĪĴ": 6993,
      "onometry": 6994,
      "Ġdram": 6995,
      "asi": 6996,
      "othe": 6997,
      "ĠCurrent": 6998,
      "Ġconven": 6999,
      "ĠPoint": 7000,
      "Ġwhom": 7001,
      "osc": 7002,
      "ĠFin": 7003,
      "ĠFunction": 7004,
      "ocate": 7005,
      "Ġplas": 7006,
      "ricted": 7007,
      "Ġarrays": 7008,
      "atively": 7009,
      "Ġsetup": 7010,
      "Ġampl": 7011,
      "Ġvaluable": 7012,
      "Ġhelping": 7013,
      "cience": 7014,
      "Ġdecades": 7015,
      "Ġ2022": 7016,
      "ĠExample": 7017,
      "anguage": 7018,
      "Ġdescribes": 7019,
      "Ġnegot": 7020,
      "ĠNext": 7021,
      "kenes": 7022,
      "Ġsubstance": 7023,
      "break": 7024,
      "Ġdogs": 7025,
      "Ġopportunities": 7026,
      "Ġcampaign": 7027,
      "Ġagricultural": 7028,
      "Ġconjug": 7029,
      "Ġqueue": 7030,
      "Ġstrugg": 7031,
      "!!": 7032,
      "Bl": 7033,
      "DT": 7034,
      "FA": 7035,
      "Read": 7036,
      "dt": 7037,
      "xchange": 7038,
      "å°": 7039,
      "Ġpump": 7040,
      "Ġhaz": 7041,
      "Ġnull": 7042,
      "idistant": 7043,
      "ulas": 7044,
      "irds": 7045,
      "ĠMax": 7046,
      "ĠPen": 7047,
      "ĠPal": 7048,
      "ĠPort": 7049,
      "riers": 7050,
      "ĠBre": 7051,
      "emic": 7052,
      "ĠHz": 7053,
      "ĠHIV": 7054,
      "ĠHuman": 7055,
      "Ġrig": 7056,
      "kexchange": 7057,
      "ĠWil": 7058,
      "endicular": 7059,
      "ĠOpt": 7060,
      "ĠJer": 7061,
      "ella": 7062,
      "ĠThomas": 7063,
      "Ġdisorder": 7064,
      "Ġouter": 7065,
      "Ġapplying": 7066,
      "Ġteams": 7067,
      "Ġformation": 7068,
      "Ġcovers": 7069,
      "ologist": 7070,
      "Ġphases": 7071,
      "Ġsubmit": 7072,
      "ventions": 7073,
      "Ġextract": 7074,
      "everal": 7075,
      "pring": 7076,
      "Ġrace": 7077,
      "venue": 7078,
      "2005": 7079,
      "Ġleader": 7080,
      "ĠShow": 7081,
      "Ġremainder": 7082,
      "Ġbiological": 7083,
      "Ġgrid": 7084,
      "Ġexplains": 7085,
      "Ġcris": 7086,
      "Ġindicated": 7087,
      "Ġapplies": 7088,
      "Ġdealing": 7089,
      "ĠHistor": 7090,
      "Ġlecture": 7091,
      "Question": 7092,
      "SFER": 7093,
      "Ġbiofuels": 7094,
      "Ġlikelihood": 7095,
      "gi": 7096,
      "gy": 7097,
      "hom": 7098,
      "éĹ": 7099,
      "erc": 7100,
      "Ġcert": 7101,
      "Ġpray": 7102,
      "Ġbank": 7103,
      "Ġtox": 7104,
      "Ġgamma": 7105,
      "ida": 7106,
      "ĠAge": 7107,
      "Ġyes": 7108,
      "iry": 7109,
      "Ġconclude": 7110,
      "ĠPet": 7111,
      "ĠPower": 7112,
      "ĠBen": 7113,
      "ĠFinally": 7114,
      "ĠEth": 7115,
      "ĠGar": 7116,
      "Ġcloud": 7117,
      "ĠKn": 7118,
      "ĠVis": 7119,
      "Ġinterior": 7120,
      "ooking": 7121,
      "Ġsupposed": 7122,
      "Ġstrings": 7123,
      "Ġmonoxide": 7124,
      "Ġexplore": 7125,
      "Ġincident": 7126,
      "Ġdriving": 7127,
      "Ġintroduction": 7128,
      "Ġfailed": 7129,
      "COM": 7130,
      "Ġoxide": 7131,
      "Ġjobs": 7132,
      "Ġalgebraic": 7133,
      "aturally": 7134,
      "Ġguidelines": 7135,
      "Ġmillions": 7136,
      "ĠGlobal": 7137,
      "amilton": 7138,
      "Ġdoubt": 7139,
      "Ġcomprehensive": 7140,
      "TRANSFER": 7141,
      "().": 7142,
      "UN": 7143,
      "bour": 7144,
      "cs": 7145,
      "che": 7146,
      "gent": 7147,
      "hi": 7148,
      "writ": 7149,
      "you": 7150,
      "{<!--": 7151,
      "eros": 7152,
      "ese": 7153,
      "Ġdin": 7154,
      "ĠTanz": 7155,
      "Ġgames": 7156,
      "this": 7157,
      "Ġsuspect": 7158,
      "acher": 7159,
      "essor": 7160,
      "Ġnotation": 7161,
      "ĠOcean": 7162,
      "ĠInit": 7163,
      "Ġprison": 7164,
      "Ġtruth": 7165,
      "ĠYear": 7166,
      "Ġconsult": 7167,
      "Ġsubt": 7168,
      "Ġsolving": 7169,
      "coming": 7170,
      "Ġinfill": 7171,
      "Ġdirections": 7172,
      "2018": 7173,
      "Ġowners": 7174,
      "Ġcontinues": 7175,
      "Ġimmun": 7176,
      "ĠMaybe": 7177,
      "Ġdigits": 7178,
      "Ġproposal": 7179,
      "ĠStudents": 7180,
      "ooting": 7181,
      "ĠInteg": 7182,
      "Ġinterpre": 7183,
      "Ġmountain": 7184,
      "Ġcarrying": 7185,
      "Ġmerely": 7186,
      "Ġdeleted": 7187,
      "ĠFoundation": 7188,
      "Ġbulls": 7189,
      "ĠPueblo": 7190,
      "FF": 7191,
      "Please": 7192,
      "SON": 7193,
      "ULL": 7194,
      "cat": 7195,
      "eer": 7196,
      "just": 7197,
      "mid": 7198,
      "rical": 7199,
      "rations": 7200,
      "Ã¡": 7201,
      "âģ": 7202,
      "å¼": 7203,
      "Ġaw": 7204,
      "orage": 7205,
      "Ġbin": 7206,
      "Ġdense": 7207,
      "ola": 7208,
      "ĠIll": 7209,
      "ĠSen": 7210,
      "ĠBuild": 7211,
      "ĠRE": 7212,
      "ĠRay": 7213,
      "Ġchief": 7214,
      "duino": 7215,
      "bert": 7216,
      "ension": 7217,
      "ĠStreet": 7218,
      "lli": 7219,
      "ĠYes": 7220,
      "Ġequally": 7221,
      "Ġdespite": 7222,
      "othing": 7223,
      "Ġproved": 7224,
      "ception": 7225,
      "20210": 7226,
      "Ġcreates": 7227,
      "ĠAlab": 7228,
      "Ġsignals": 7229,
      "Ġminimal": 7230,
      "gener": 7231,
      "ĠSection": 7232,
      "ticle": 7233,
      "ĠExp": 7234,
      "Ġstronger": 7235,
      "ChL": 7236,
      "Ġdifficulty": 7237,
      "Ġfocused": 7238,
      "Ġbigger": 7239,
      "ĠPhysical": 7240,
      "Ġframework": 7241,
      "series": 7242,
      "Ġâī": 7243,
      "Ġindustrial": 7244,
      "ĠStep": 7245,
      "Ġprocedures": 7246,
      "ĠNetwork": 7247,
      "Ġexhibit": 7248,
      "&=": 7249,
      "Vector": 7250,
      "den": 7251,
      "nab": 7252,
      "then": 7253,
      "Ã³": 7254,
      "ĠÃĹ": 7255,
      "Ġtun": 7256,
      "Ġfert": 7257,
      "Ġans": 7258,
      "Ġhomes": 7259,
      "ĠImm": 7260,
      "ĠAst": 7261,
      "ĠAPI": 7262,
      "ĠCat": 7263,
      "umn": 7264,
      "ests": 7265,
      "ĠBel": 7266,
      "antum": 7267,
      "ĠFree": 7268,
      "ĠFramework": 7269,
      "plate": 7270,
      "Ġwasn": 7271,
      "Ġplans": 7272,
      "Ġunknown": 7273,
      "Ġmanaged": 7274,
      "Ġarr": 7275,
      "ailed": 7276,
      "erves": 7277,
      "Ġnewsp": 7278,
      "Ġdefines": 7279,
      "ĠProte": 7280,
      "Ġfacts": 7281,
      "Ġclassroom": 7282,
      "Ġcomputing": 7283,
      "Ġplayer": 7284,
      "Ġmaxim": 7285,
      "ployment": 7286,
      "ĠChristmas": 7287,
      "Ġextrusion": 7288,
      "defined": 7289,
      "Ġdiagonal": 7290,
      "Ġutility": 7291,
      "Ġofficials": 7292,
      "Ġneutr": 7293,
      "AbstractManifold": 7294,
      "Ġinstitution": 7295,
      "Ġwarming": 7296,
      "Ġconsequences": 7297,
      "Ġdangerous": 7298,
      "Ġclusters": 7299,
      "stackexchange": 7300,
      "Ġobserve": 7301,
      "Ġconflict": 7302,
      "Ġanalyses": 7303,
      "Ġcamera": 7304,
      "ĠHenry": 7305,
      "cyclopedia": 7306,
      "Cal": 7307,
      "bes": 7308,
      "Ġsell": 7309,
      "Ġwit": 7310,
      "ara": 7311,
      "Ġmamm": 7312,
      "Ġdual": 7313,
      "rot": 7314,
      "rosc": 7315,
      "astern": 7316,
      "Ġrein": 7317,
      "Ġlie": 7318,
      "ĠTexas": 7319,
      "Ġbeam": 7320,
      "Ġ(-": 7321,
      "ĠAI": 7322,
      "ĠCy": 7323,
      "amps": 7324,
      "Ġ120": 7325,
      "tery": 7326,
      "ĠMr": 7327,
      "ĠPers": 7328,
      "Ġcomfort": 7329,
      "ĠRoman": 7330,
      "ĠHT": 7331,
      "ĠHave": 7332,
      "ĠEU": 7333,
      "Ġworse": 7334,
      "Ġ400": 7335,
      "ĠChapter": 7336,
      "psilon": 7337,
      "Ġvarieties": 7338,
      "Ġacademic": 7339,
      "Ġsuppose": 7340,
      "overrightarrow": 7341,
      "Ġvolcan": 7342,
      "Ġmultiplic": 7343,
      "ĠOrig": 7344,
      "Ġpercentage": 7345,
      "Ġpainting": 7346,
      "Ġprepare": 7347,
      "Ġconstitution": 7348,
      "Ġdynamics": 7349,
      "cellent": 7350,
      "Ġpseudoprime": 7351,
      "ĠPython": 7352,
      "Ġeggs": 7353,
      "Ġfigures": 7354,
      "Eng": 7355,
      "Of": 7356,
      "Ste": 7357,
      "cher": 7358,
      "ees": 7359,
      "gra": 7360,
      "ka": 7361,
      "mes": 7362,
      "mic": 7363,
      "oice": 7364,
      "vare": 7365,
      "ville": 7366,
      "inte": 7367,
      "Ġcod": 7368,
      "Ġcub": 7369,
      "Ġpy": 7370,
      "Ġpneum": 7371,
      "Ġfa": 7372,
      "eding": 7373,
      "icians": 7374,
      "Ġforget": 7375,
      "acc": 7376,
      "Ġrou": 7377,
      "Ġkm": 7378,
      "ĠInc": 7379,
      "Ġsubsc": 7380,
      "Ġcharged": 7381,
      "Ġzone": 7382,
      "Ġlesson": 7383,
      "2007": 7384,
      "Ġcharacterized": 7385,
      "Ġbreath": 7386,
      "Ġaccounts": 7387,
      "ĠSTL": 7388,
      "Ġsilver": 7389,
      "carbon": 7390,
      "Ġagreed": 7391,
      "Ġnumerical": 7392,
      "Ġpreferred": 7393,
      "Ġguidance": 7394,
      "ç®Ĺ": 7395,
      "ĠDisease": 7396,
      "Ġtutorial": 7397,
      "ĠAlabama": 7398,
      ".$": 7399,
      "bf": 7400,
      "dy": 7401,
      "iology": 7402,
      "west": 7403,
      "åº": 7404,
      "Ġped": 7405,
      "Ġft": 7406,
      "Ġmic": 7407,
      "Ġdial": 7408,
      "Ġeld": 7409,
      "ete": 7410,
      "ĠAM": 7411,
      "ĠMem": 7412,
      "istor": 7413,
      "Ġvast": 7414,
      "Ġdement": 7415,
      "ĠWal": 7416,
      "ĠDet": 7417,
      "ĠList": 7418,
      "Ġship": 7419,
      "Ġcomposition": 7420,
      "Ġthank": 7421,
      "iana": 7422,
      "ifications": 7423,
      "ologists": 7424,
      "Ġgoods": 7425,
      "Ġrising": 7426,
      "ĠSea": 7427,
      "Ġhybrid": 7428,
      "Ġcomputers": 7429,
      "Ġ1990": 7430,
      "Ġdirectory": 7431,
      "Ġcharacteristic": 7432,
      "Ġhappy": 7433,
      "Ġmarked": 7434,
      "Ġmolecule": 7435,
      "Ġintroduce": 7436,
      "ĠMechan": 7437,
      "Ġprofession": 7438,
      "Ġurban": 7439,
      "æľī": 7440,
      "ĠMoreover": 7441,
      "MATLAB": 7442,
      "ictionary": 7443,
      "Ġupdated": 7444,
      "Ġawareness": 7445,
      "rishna": 7446,
      "Ġinduced": 7447,
      "Ġdestroyed": 7448,
      "Ġorbitals": 7449,
      "Ġcredit": 7450,
      "ĠWindows": 7451,
      "Ġdataset": 7452,
      "Ġkernel": 7453,
      "ĠTanzania": 7454,
      "${\\": 7455,
      "Add": 7456,
      "Fe": 7457,
      "VA": 7458,
      "di": 7459,
      "ih": 7460,
      "zed": 7461,
      "{-": 7462,
      "Ã¤": 7463,
      "åĽ": 7464,
      "Ġtheories": 7465,
      "Ġlists": 7466,
      "ilation": 7467,
      "otion": 7468,
      "ĠTop": 7469,
      "ĠTrig": 7470,
      "ĠSocial": 7471,
      "ĠSpecial": 7472,
      "Ġstorm": 7473,
      "Ġstability": 7474,
      "Ġproceed": 7475,
      "ria": 7476,
      "ĠBio": 7477,
      "Ġhear": 7478,
      "ĠLong": 7479,
      "Ġusage": 7480,
      "ĠON": 7481,
      "Ġ37": 7482,
      "Ġcontents": 7483,
      "Ġdischar": 7484,
      "Ġscores": 7485,
      "Ġblocks": 7486,
      "Ġedition": 7487,
      "ĠComple": 7488,
      "Ġlocations": 7489,
      "Ġinfl": 7490,
      "aneous": 7491,
      "bered": 7492,
      "Ġlandsc": 7493,
      "ĠReport": 7494,
      "Ġsensor": 7495,
      "Ġsensitivity": 7496,
      "Ġtells": 7497,
      "Ġdenote": 7498,
      "Ġrelationships": 7499,
      "ogenic": 7500,
      "ĠMathematical": 7501,
      "Ġapproximation": 7502,
      "ĠVirgin": 7503,
      "Ġcongru": 7504,
      "Ġmobile": 7505,
      "Ġtheoretical": 7506,
      "Ġperpendicular": 7507,
      "=-": 7508,
      "Ed": 7509,
      "found": 7510,
      "she": 7511,
      "sim": 7512,
      "va": 7513,
      "Ġrac": 7514,
      "Ġtack": 7515,
      "Ġaid": 7516,
      "Ġaircraft": 7517,
      "Ġsoci": 7518,
      "Ġsulf": 7519,
      "Ġcot": 7520,
      "Ġnaturally": 7521,
      "stone": 7522,
      "Ġlived": 7523,
      "Ġgerm": 7524,
      "Ġbeach": 7525,
      "urities": 7526,
      "Ġsty": 7527,
      "ĠCur": 7528,
      "Ġalt": 7529,
      "ĠPolic": 7530,
      "istered": 7531,
      "usa": 7532,
      "iesel": 7533,
      "ĠFore": 7534,
      "oca": 7535,
      "Ġchronic": 7536,
      "Ġshop": 7537,
      "ĠGet": 7538,
      "ĠGMAT": 7539,
      "ibilities": 7540,
      "ĠJose": 7541,
      "Ġpartner": 7542,
      "Ġspirit": 7543,
      "Ġ09": 7544,
      "Ġappoint": 7545,
      "ĠKi": 7546,
      "Ġ55": 7547,
      "ĠItalian": 7548,
      "versal": 7549,
      "Ġregister": 7550,
      "Ġdistances": 7551,
      "ergies": 7552,
      "Ġmedication": 7553,
      "ĠAsk": 7554,
      "ĠExamples": 7555,
      "Ġcheap": 7556,
      "Ġmotions": 7557,
      "ropy": 7558,
      "Ġdependent": 7559,
      "Ġcircular": 7560,
      "Ġelectronics": 7561,
      "ĠAppl": 7562,
      "Ġconstructed": 7563,
      "åħ·": 7564,
      "Ġrepeat": 7565,
      "Ġimagine": 7566,
      "omorphism": 7567,
      "ĠView": 7568,
      "Ġphenomenon": 7569,
      "Ġoverlap": 7570,
      "Ġpulse": 7571,
      "oltz": 7572,
      ".).": 7573,
      "?)": 7574,
      "Ext": 7575,
      "Me": 7576,
      "SP": 7577,
      "\\;": 7578,
      "div": 7579,
      "raries": 7580,
      "sch": 7581,
      "tr": 7582,
      "ugg": 7583,
      "xx": 7584,
      "Ã¢": 7585,
      "Ġ####": 7586,
      "Ġaward": 7587,
      "atric": 7588,
      "Ġcatch": 7589,
      "Ġfriction": 7590,
      "arter": 7591,
      "arks": 7592,
      "arithm": 7593,
      "Ġmit": 7594,
      "Ġmaster": 7595,
      "Ġnations": 7596,
      "ili": 7597,
      "utch": 7598,
      "ĠSN": 7599,
      "Ġstages": 7600,
      "Ġvit": 7601,
      "ĠBro": 7602,
      "ths": 7603,
      "ĠWood": 7604,
      "ĠDen": 7605,
      "ĠLife": 7606,
      "ago": 7607,
      "izer": 7608,
      "Ġoutcome": 7609,
      "ishing": 7610,
      "Ġregul": 7611,
      "Ġattached": 7612,
      "Ġentries": 7613,
      "Ġreader": 7614,
      "Ġconfused": 7615,
      "Ġinches": 7616,
      "Ġskill": 7617,
      "Ġcarefully": 7618,
      "ä¸ĵ": 7619,
      "Ġprediction": 7620,
      "Ġresponsibility": 7621,
      "Ġartific": 7622,
      "'''": 7623,
      "Ġcolleagues": 7624,
      "ademy": 7625,
      "Ġconnections": 7626,
      "Ġconsumption": 7627,
      "Ġkilled": 7628,
      "Ġviolence": 7629,
      "Ġembedding": 7630,
      "Ġgalax": 7631,
      "ĠRichard": 7632,
      "Ġspacetime": 7633,
      "Ġdementia": 7634,
      "App": 7635,
      "LP": 7636,
      "Over": 7637,
      "Sm": 7638,
      "UR": 7639,
      "Well": 7640,
      "Where": 7641,
      "cons": 7642,
      "effect": 7643,
      "tx": 7644,
      "tri": 7645,
      "ucl": 7646,
      "xy": 7647,
      "})$": 7648,
      "inction": 7649,
      "Ġcle": 7650,
      "Ġcyl": 7651,
      "Ġwires": 7652,
      "Ġfather": 7653,
      "ingly": 7654,
      "Ġmouth": 7655,
      "Ġinfect": 7656,
      "Ġinvent": 7657,
      "Ġdx": 7658,
      "Ġdy": 7659,
      "Ġhorm": 7660,
      "Ġhair": 7661,
      "olutions": 7662,
      "âĢĤ": 7663,
      "Ġstret": 7664,
      "Ġstorage": 7665,
      "Ġalumin": 7666,
      "ĠPark": 7667,
      "Ġvon": 7668,
      "opl": 7669,
      "Ġsections": 7670,
      "reshold": 7671,
      "ochem": 7672,
      "Ġabund": 7673,
      "ustion": 7674,
      "ideos": 7675,
      "Ġkil": 7676,
      "Ġdisappe": 7677,
      "Ġspeak": 7678,
      "Ġages": 7679,
      "ĠChange": 7680,
      "Ġtransmit": 7681,
      "obia": 7682,
      "Ġdetection": 7683,
      "forest": 7684,
      "prob": 7685,
      "cium": 7686,
      "Ġpossess": 7687,
      "const": 7688,
      "Ġstudying": 7689,
      "Ġelection": 7690,
      "Ġcourses": 7691,
      "Ġtexture": 7692,
      "azine": 7693,
      "Ġproteins": 7694,
      "Ġphotos": 7695,
      "Ġparticipate": 7696,
      "Ġconvergence": 7697,
      "Ġdocumentation": 7698,
      "Ġextensive": 7699,
      "Ġachieved": 7700,
      "Ġvaccines": 7701,
      "Ġhabitat": 7702,
      "Ġ[...]": 7703,
      "Ġexplicitly": 7704,
      "Ġmoist": 7705,
      "olesterol": 7706,
      "Aut": 7707,
      "CS": 7708,
      "Get": 7709,
      "Sp": 7710,
      "kl": 7711,
      "pens": 7712,
      "vis": 7713,
      "vals": 7714,
      "åĮ": 7715,
      "æŀ": 7716,
      "Ġtight": 7717,
      "Ġtube": 7718,
      "Ġsales": 7719,
      "esium": 7720,
      "Ġwestern": 7721,
      "Ġborough": 7722,
      "Ġdoll": 7723,
      "Ġeast": 7724,
      "etry": 7725,
      "Ġlun": 7726,
      "Ġlots": 7727,
      "ima": 7728,
      "uten": 7729,
      "ĠTer": 7730,
      "Ġgar": 7731,
      "ĠIre": 7732,
      "iful": 7733,
      "ĠPsych": 7734,
      "ĠDel": 7735,
      "unk": 7736,
      "Ġneural": 7737,
      "ĠLinear": 7738,
      "Ġchart": 7739,
      "ĠOK": 7740,
      "Ġcomposed": 7741,
      "Ġperman": 7742,
      "riculum": 7743,
      "Ġ02": 7744,
      "Ġsettle": 7745,
      "Ġpointed": 7746,
      "ĠReference": 7747,
      "Ġblind": 7748,
      "}\\\\": 7749,
      "Ġresemb": 7750,
      "Ġ:=": 7751,
      "Ġelev": 7752,
      "mbol": 7753,
      "Ġvision": 7754,
      "Ġ150": 7755,
      "Ġ1996": 7756,
      "Ġplaying": 7757,
      "Ġnaturalization": 7758,
      "Ġmechanisms": 7759,
      "Ġassumptions": 7760,
      "Ġaffects": 7761,
      "Ġelementary": 7762,
      "ĠParties": 7763,
      "ĠCoast": 7764,
      "Ġrecommendations": 7765,
      "Ġfilled": 7766,
      "Ġphenomena": 7767,
      "Ġtrouble": 7768,
      "Ġsubstantial": 7769,
      "ä¸Ģä¸ª": 7770,
      "onymous": 7771,
      "hythm": 7772,
      "ogeneous": 7773,
      "Ġcrisis": 7774,
      "Am": 7775,
      "IL": 7776,
      "Just": 7777,
      "Set": 7778,
      "Vi": 7779,
      "cut": 7780,
      "erest": 7781,
      "hint": 7782,
      "tag": 7783,
      "Ķ¹": 7784,
      "init": 7785,
      "itors": 7786,
      "aration": 7787,
      "ented": 7788,
      "Ġha": 7789,
      "omon": 7790,
      "omers": 7791,
      "ether": 7792,
      "import": 7793,
      "ĠTreat": 7794,
      "urface": 7795,
      "ulus": 7796,
      "ellect": 7797,
      "ĠMac": 7798,
      "opt": 7799,
      "Ġhen": 7800,
      "ĠDig": 7801,
      "Ġunus": 7802,
      "Ġintu": 7803,
      "neg": 7804,
      "Ġsubstit": 7805,
      "Ġflood": 7806,
      "Ġextend": 7807,
      "Ġemb": 7808,
      "Ġended": 7809,
      "Ġpersons": 7810,
      "Ġmeasuring": 7811,
      "Ġglob": 7812,
      "Ġfewer": 7813,
      "bras": 7814,
      "Ġbuildings": 7815,
      "ĠÂ°": 7816,
      "ĠClimate": 7817,
      "ĠWhite": 7818,
      "Ġlogical": 7819,
      "Ġfeeling": 7820,
      "Ġimprovement": 7821,
      "Ġinitially": 7822,
      "Ġimpacts": 7823,
      "Ġhappened": 7824,
      "ĠPrevention": 7825,
      "Ġincreasingly": 7826,
      "Ġinstalled": 7827,
      "Ġsexes": 7828,
      "Ġwetland": 7829,
      "Place": 7830,
      "Ġassigned": 7831,
      "Ġvegetation": 7832,
      "Ġprecisely": 7833,
      "Ġroutine": 7834,
      "Ġroughly": 7835,
      "ĠFurthermore": 7836,
      "ĠMuslim": 7837,
      "Ġcircumstances": 7838,
      "%)": 7839,
      "AG": 7840,
      "Bas": 7841,
      "cers": 7842,
      "ya": 7843,
      "hered": 7844,
      "real": 7845,
      "itational": 7846,
      "Ġwaters": 7847,
      "ctic": 7848,
      "storm": 7849,
      "Ġlies": 7850,
      "Ġluck": 7851,
      "olves": 7852,
      "Ġgases": 7853,
      "ĠIran": 7854,
      "ĠAu": 7855,
      "ithic": 7856,
      "Ġexcellent": 7857,
      "Ġ\\,": 7858,
      "ĠHamilton": 7859,
      "ĠFact": 7860,
      "ĠEnd": 7861,
      "ĠNat": 7862,
      "ĠLou": 7863,
      "Ġabstract": 7864,
      "Ġknew": 7865,
      "Ġencl": 7866,
      "Ġarrange": 7867,
      "Ġ46": 7868,
      "ĠVari": 7869,
      "Ġformulas": 7870,
      "isson": 7871,
      "theless": 7872,
      "Ġ:-)": 7873,
      "ĠZbl": 7874,
      "Ġnonlinear": 7875,
      "ynes": 7876,
      "Ġcombine": 7877,
      "lishing": 7878,
      "Ġcareer": 7879,
      "Ġrespective": 7880,
      "Ġquantities": 7881,
      "Ġdefinitions": 7882,
      "Ġseparation": 7883,
      "aska": 7884,
      "Ġdriver": 7885,
      "dden": 7886,
      "Ġcorresponds": 7887,
      "Ġweights": 7888,
      "Ġcattle": 7889,
      "Ġconsisting": 7890,
      "Ġcategories": 7891,
      "ĠSmith": 7892,
      "ç»Ł": 7893,
      "Ġnumerous": 7894,
      "Ġcompetition": 7895,
      "Ġbreeding": 7896,
      "ĠSuper": 7897,
      "Ġpseudoprimes": 7898,
      "ĠAND": 7899,
      "ĠEnvironmental": 7900,
      "Ġshapes": 7901,
      "Ġindependence": 7902,
      "elesc": 7903,
      "ĠTMEM": 7904,
      "ĠOxford": 7905,
      "Ġpixel": 7906,
      "ĠIdent": 7907,
      "ĠMiller": 7908,
      "èĢĥ": 7909,
      "ĠMartin": 7910,
      "chronous": 7911,
      "&-": 7912,
      "'$": 7913,
      "())": 7914,
      "/\\": 7915,
      "Because": 7916,
      "Col": 7917,
      "DI": 7918,
      "Like": 7919,
      "bound": 7920,
      "lers": 7921,
      "langle": 7922,
      "maker": 7923,
      "ç¨": 7924,
      "asters": 7925,
      "omal": 7926,
      "ĠTO": 7927,
      "ĠTP": 7928,
      "ĠTr": 7929,
      "quality": 7930,
      "Ġconference": 7931,
      "ĠMont": 7932,
      "illing": 7933,
      "ĠRuss": 7934,
      "ĠDu": 7935,
      "ĠDynam": 7936,
      "Ġplug": 7937,
      "ĠThree": 7938,
      "Ġscatter": 7939,
      "Ġinternet": 7940,
      "Ġknowing": 7941,
      "Ġtransmitted": 7942,
      "ĠReal": 7943,
      "oving": 7944,
      "hematic": 7945,
      "Ġemission": 7946,
      "128": 7947,
      "Ġchildhood": 7948,
      "Ġcareful": 7949,
      "Ġdiscussions": 7950,
      "Ġquantity": 7951,
      "Ġlabels": 7952,
      "Ġcrime": 7953,
      "ĠEarly": 7954,
      "Ġversions": 7955,
      "Ġcriteria": 7956,
      "Ġprompt": 7957,
      "COP": 7958,
      "Ġframes": 7959,
      "Ġconvert": 7960,
      "ipping": 7961,
      "Ġprotected": 7962,
      "Ġportion": 7963,
      "Ġslowly": 7964,
      "Ġmaintaining": 7965,
      "Ġrobust": 7966,
      "Ġprotocol": 7967,
      "åı¯": 7968,
      "Ġagreement": 7969,
      "Ġrows": 7970,
      "Ġharvest": 7971,
      "Ġcoastal": 7972,
      "Ġvictims": 7973,
      "Ġisolated": 7974,
      "ĠGoogle": 7975,
      "Ġoutburst": 7976,
      "Ġfruit": 7977,
      "Ġinstrument": 7978,
      "Consider": 7979,
      "Ġpneumonia": 7980,
      "Americ": 7981,
      "CL": 7982,
      "Cre": 7983,
      "Location": 7984,
      "Out": 7985,
      "Table": 7986,
      "](": 7987,
      "aired": 7988,
      "dot": 7989,
      "norm": 7990,
      "node": 7991,
      "é¢": 7992,
      "Ġ###": 7993,
      "Ġahead": 7994,
      "onometric": 7995,
      "Ġson": 7996,
      "Ġcoding": 7997,
      "ala": 7998,
      "Ġbits": 7999,
      "ican": 8000,
      "Ġdut": 8001,
      "string": 8002,
      "etary": 8003,
      "ĠTimes": 8004,
      "ĠType": 8005,
      "ĠToday": 8006,
      "Ġbear": 8007,
      "ĠIrish": 8008,
      "Ġforced": 8009,
      "ĠMo": 8010,
      "Ġexha": 8011,
      "Ġvan": 8012,
      "Ġvital": 8013,
      "Ġdecom": 8014,
      "acent": 8015,
      "rome": 8016,
      "Ġrum": 8017,
      "ĠDate": 8018,
      "ĠEN": 8019,
      "ĠNE": 8020,
      "ĠNorm": 8021,
      "ĠLeg": 8022,
      "Ġ39": 8023,
      "elled": 8024,
      "Ġclock": 8025,
      "___": 8026,
      "Ġspeakers": 8027,
      "Ġmodule": 8028,
      "Ġroots": 8029,
      "Ġacts": 8030,
      "Ġacting": 8031,
      "Ġflash": 8032,
      "ĠAnswer": 8033,
      "cious": 8034,
      "ĠAlk": 8035,
      "rolog": 8036,
      "forward": 8037,
      "ĠIslands": 8038,
      "Ġwrites": 8039,
      "Ġrepresenting": 8040,
      "Ġsummary": 8041,
      "Ġtrained": 8042,
      "Ġsubjective": 8043,
      "Ġmarks": 8044,
      "Ġparticipation": 8045,
      "ĠIntroduction": 8046,
      "Ġcollections": 8047,
      "Ġcontacts": 8048,
      "Ġdrawing": 8049,
      "ĠSmall": 8050,
      "Ġproportional": 8051,
      "ĠLabor": 8052,
      "Ġarrived": 8053,
      "awaii": 8054,
      "Ġdefinitely": 8055,
      "Ġwaiting": 8056,
      "Ġsupplies": 8057,
      "Ġpipe": 8058,
      "mutex": 8059,
      "Ġsediment": 8060,
      "itudes": 8061,
      "ĠIsrael": 8062,
      "%.": 8063,
      "=>": 8064,
      "Math": 8065,
      "bons": 8066,
      "rat": 8067,
      "rition": 8068,
      "tau": 8069,
      "uy": 8070,
      "uan": 8071,
      "uing": 8072,
      "wing": 8073,
      "itransfer": 8074,
      "Ġfelt": 8075,
      "Ġmort": 8076,
      "Ġinher": 8077,
      "icate": 8078,
      "Ġreplacement": 8079,
      "ĠCNC": 8080,
      "Ġweap": 8081,
      "Ġsudden": 8082,
      "Ġrated": 8083,
      "ĠWill": 8084,
      "001": 8085,
      "ĠFund": 8086,
      "ĠFlor": 8087,
      "ĠDI": 8088,
      "occur": 8089,
      "ĠNO": 8090,
      "Ġshar": 8091,
      "endix": 8092,
      "soft": 8093,
      "Ġcompr": 8094,
      "phabet": 8095,
      "Ġmanip": 8096,
      "Ġmanual": 8097,
      "Ġ1980": 8098,
      "Ġsymmetry": 8099,
      "ysics": 8100,
      "ĠKore": 8101,
      "Ġpharm": 8102,
      "Ġpeace": 8103,
      "Ġtransaction": 8104,
      "Ġrocks": 8105,
      "Ġinstruction": 8106,
      "Ġdioxide": 8107,
      "Ġgeneralized": 8108,
      "Ġ1997": 8109,
      "Ġlowest": 8110,
      "azz": 8111,
      "Ġcontrols": 8112,
      "Ġexamine": 8113,
      "Ġmasses": 8114,
      "Ġexpectation": 8115,
      "Ġimproving": 8116,
      "Ġlands": 8117,
      "Ġflowers": 8118,
      "Ġgrass": 8119,
      "Ġnearby": 8120,
      "Ġfacilit": 8121,
      "Ġcopies": 8122,
      "Ġchemistry": 8123,
      "ĠMean": 8124,
      "Ġappearance": 8125,
      "Ġgrade": 8126,
      "Ġlaunch": 8127,
      "ĠAgain": 8128,
      "Ġrevolution": 8129,
      "Ġidentifying": 8130,
      "Ġimmediate": 8131,
      "Ġobviously": 8132,
      "Ġconcentration": 8133,
      "inuous": 8134,
      "Ġstreamflow": 8135,
      "Ġlaboratory": 8136,
      "ĠChemistry": 8137,
      "Ġembedded": 8138,
      "Ġsurprising": 8139,
      "ĠSecretary": 8140,
      "ĠMichael": 8141,
      "Ġsubsequent": 8142,
      "package": 8143,
      "Ġempirical": 8144,
      "varepsilon": 8145,
      "Ġhensel": 8146,
      "ç¨ĭ": 8147,
      "\":": 8148,
      ".:": 8149,
      "Ob": 8150,
      "bg": 8151,
      "hn": 8152,
      "poll": 8153,
      "ship": 8154,
      "xnet": 8155,
      "«ĺ": 8156,
      "âĭ": 8157,
      "è§": 8158,
      "è¿": 8159,
      "é«ĺ": 8160,
      "Ġtips": 8161,
      "Ġtiny": 8162,
      "lets": 8163,
      "Ġgone": 8164,
      "Ġgiant": 8165,
      "ĠCub": 8166,
      "amic": 8167,
      "ĠPeter": 8168,
      "Ġorg": 8169,
      "istan": 8170,
      "Ġvul": 8171,
      "Ġdeer": 8172,
      "ĠBooks": 8173,
      "anda": 8174,
      "unic": 8175,
      "ĠNob": 8176,
      "ĠNULL": 8177,
      "ĠLand": 8178,
      "ĠLog": 8179,
      "oster": 8180,
      "ĠUK": 8181,
      "Ġcontour": 8182,
      "Ġcompression": 8183,
      "Ġdiscrete": 8184,
      "phant": 8185,
      "ften": 8186,
      "ariat": 8187,
      "jects": 8188,
      "Ġintersection": 8189,
      "Ġsolved": 8190,
      "Inter": 8191,
      "process": 8192,
      "Ġexperiences": 8193,
      "Ġeveryday": 8194,
      "Ġrestricted": 8195,
      "Ġdeliver": 8196,
      "Ã©t": 8197,
      "Ġpredicted": 8198,
      "Ġinputs": 8199,
      "}}{\\": 8200,
      "çļĦç": 8201,
      "ä»£èĢĥ": 8202,
      "Ġmicrosc": 8203,
      "ĠSchw": 8204,
      "ĠBritain": 8205,
      "ĠâĨ": 8206,
      "Ġhistoric": 8207,
      "Ġgreenhouse": 8208,
      "ĠRevolution": 8209,
      "second": 8210,
      "opyright": 8211,
      "Ġlicense": 8212,
      "rosion": 8213,
      "%%%%%%%%": 8214,
      "Ġbulk": 8215,
      "Ġassembly": 8216,
      "gantt": 8217,
      "edicated": 8218,
      "Ġcrucial": 8219,
      "ĠAtlantic": 8220,
      "Ġambient": 8221,
      "Ġbranch": 8222,
      "ĠCambridge": 8223,
      "ĠIreland": 8224,
      "\");": 8225,
      "2000": 8226,
      "Ag": 8227,
      "GA": 8228,
      "Gamma": 8229,
      "LU": 8230,
      "Xiv": 8231,
      "pread": 8232,
      "ponse": 8233,
      "rd": 8234,
      "run": 8235,
      "{(": 8236,
      "hene": 8237,
      "orb": 8238,
      "alg": 8239,
      "aling": 8240,
      "Ġbill": 8241,
      "Ġmal": 8242,
      "Ġmapping": 8243,
      "oured": 8244,
      "Ġdust": 8245,
      "ilst": 8246,
      "imit": 8247,
      "ĠIss": 8248,
      "Ġstatic": 8249,
      "Ġconc": 8250,
      "osph": 8251,
      "empor": 8252,
      "aining": 8253,
      "unched": 8254,
      "ĠNaz": 8255,
      "ĠLED": 8256,
      "ptic": 8257,
      "Ġ38": 8258,
      "Ġclosing": 8259,
      "index": 8260,
      "racle": 8261,
      "Ġequidistant": 8262,
      "Ġtransparent": 8263,
      "raining": 8264,
      "Ġcorpor": 8265,
      "approx": 8266,
      "ĠCommon": 8267,
      "Ġsecurities": 8268,
      "Ġlocally": 8269,
      "Ġinfrast": 8270,
      "Ġcenters": 8271,
      "Ġ:)": 8272,
      "2014": 8273,
      "Ġclassification": 8274,
      "Ġoccasion": 8275,
      "Ġantis": 8276,
      "Ġcourts": 8277,
      "ĠPhilos": 8278,
      "Ġobjective": 8279,
      "Ġcombat": 8280,
      "Ġexams": 8281,
      "Ġmassive": 8282,
      "Ġ/*": 8283,
      "Ġplanets": 8284,
      "ymph": 8285,
      "Ġgeometric": 8286,
      "Ġsatur": 8287,
      "Ġphoto": 8288,
      "}}{{": 8289,
      "Ġmenu": 8290,
      "Ġpictures": 8291,
      "ĠAcademy": 8292,
      "Ġalkanes": 8293,
      "Ġscenarios": 8294,
      "Ġtumor": 8295,
      "Ġalignment": 8296,
      "Ġdrinking": 8297,
      "Ġbegins": 8298,
      "ĠHelp": 8299,
      "Ġcollisions": 8300,
      "Ġterritory": 8301,
      "Ġconstraints": 8302,
      "Ġanswered": 8303,
      "322": 8304,
      "Don": 8305,
      "aus": 8306,
      "ket": 8307,
      "oor": 8308,
      "path": 8309,
      "wall": 8310,
      "zero": 8311,
      "Â·": 8312,
      "âĦ": 8313,
      "éĺ": 8314,
      "Ġ!": 8315,
      "Ġaver": 8316,
      "Ġsan": 8317,
      "Ġcash": 8318,
      "Ġfav": 8319,
      "Ġbrow": 8320,
      "Ġmig": 8321,
      "oul": 8322,
      "asive": 8323,
      "olph": 8324,
      "Ġgun": 8325,
      "ĠSanta": 8326,
      "Ġasc": 8327,
      "Ġyouth": 8328,
      "ĠMaterials": 8329,
      "ĠPR": 8330,
      "ĠPrice": 8331,
      "ureau": 8332,
      "ĠBased": 8333,
      "uset": 8334,
      "Ġrural": 8335,
      "ĠDirect": 8336,
      "ĠNumber": 8337,
      "aph": 8338,
      "Ġuniversity": 8339,
      "Ġscrew": 8340,
      "Ġprobe": 8341,
      "Ġprobabilities": 8342,
      "Ġ44": 8343,
      "ĠVeh": 8344,
      "ribution": 8345,
      "Ġintervention": 8346,
      "Ġinteractive": 8347,
      "Ġequals": 8348,
      "textrm": 8349,
      "ĠHead": 8350,
      "Ġelected": 8351,
      "Ġraw": 8352,
      "posed": 8353,
      "idespread": 8354,
      "Ġbranc": 8355,
      "Ġserved": 8356,
      "ĠDev": 8357,
      "Ġtrait": 8358,
      "Ġgravel": 8359,
      "Ġputting": 8360,
      "Ġbrother": 8361,
      "Ġargue": 8362,
      "ĠColor": 8363,
      "Ġdriven": 8364,
      "ĠApplic": 8365,
      "Ġdetected": 8366,
      "Ġexpressions": 8367,
      "Ġearthqu": 8368,
      "control": 8369,
      "Ġvelocities": 8370,
      "Ġscreening": 8371,
      "Ġnutri": 8372,
      "ĠAustralian": 8373,
      "ĠCharles": 8374,
      "Ġradioactive": 8375,
      "è®¡ç®Ĺ": 8376,
      "Ġstationary": 8377,
      "Ġneighborhood": 8378,
      "Ġenabled": 8379,
      "Ġintelligence": 8380,
      "Ġvertices": 8381,
      "ä¸ĵä¸ļ": 8382,
      "Hermitian": 8383,
      "Oct": 8384,
      "Us": 8385,
      "VI": 8386,
      "bot": 8387,
      "ny": 8388,
      "oe": 8389,
      "page": 8390,
      "tan": 8391,
      "wid": 8392,
      "éĿ": 8393,
      "Ġtables": 8394,
      "Ġsession": 8395,
      "Ġpun": 8396,
      "Ġbones": 8397,
      "Ġmuseum": 8398,
      "ouble": 8399,
      "Ġnodes": 8400,
      "ette": 8401,
      "imen": 8402,
      "sey": 8403,
      "ĠSil": 8404,
      "ĠSpec": 8405,
      "Ġstre": 8406,
      "Ġstock": 8407,
      "ĠCAD": 8408,
      "Ġconvention": 8409,
      "Ġconclusion": 8410,
      "Ġiter": 8411,
      "Ġalle": 8412,
      "uming": 8413,
      "ĠMeta": 8414,
      "ĠMiddle": 8415,
      "ighter": 8416,
      "Ġsector": 8417,
      "Ġrings": 8418,
      "ĠFort": 8419,
      "ĠDar": 8420,
      "ĠEmer": 8421,
      "ĠEinstein": 8422,
      "ĠNations": 8423,
      "Ġshif": 8424,
      "Ġ33": 8425,
      "Ġimper": 8426,
      "ellar": 8427,
      "uble": 8428,
      "Ġ07": 8429,
      "ysical": 8430,
      "Ġgenome": 8431,
      "olds": 8432,
      "nex": 8433,
      "Ġphone": 8434,
      "Ġtranslation": 8435,
      "Ġsimulations": 8436,
      "Ġcorner": 8437,
      "Thank": 8438,
      "Ġinstructions": 8439,
      "ĠProper": 8440,
      "Ġdiverse": 8441,
      "Ġangular": 8442,
      "Ġpaint": 8443,
      "igenous": 8444,
      "Ġforests": 8445,
      "Ġesc": 8446,
      "Ġrequirement": 8447,
      "ĠGener": 8448,
      "Ġfacility": 8449,
      "Ġcultiv": 8450,
      "Ġassuming": 8451,
      "Ġplanted": 8452,
      "Ġstrategic": 8453,
      "ĠĠĠĠĠĠĠĠĠĠĠĠĠĠĠĠĠĠĠĠĠĠĠĠĠĠĠĠĠĠĠĠ": 8454,
      "ĠAgricult": 8455,
      "Ġsatisfy": 8456,
      "ĠKey": 8457,
      "Ġhospitals": 8458,
      "ĠArea": 8459,
      "Ġgravitational": 8460,
      "Ġyields": 8461,
      "omorphic": 8462,
      "ĠSecretariat": 8463,
      "cribed": 8464,
      "ffee": 8465,
      "predict": 8466,
      "nabla": 8467,
      "ĠHTML": 8468,
      "oltzmann": 8469,
      ".[": 8470,
      "1000": 8471,
      "Dec": 8472,
      "Each": 8473,
      "Mat": 8474,
      "NO": 8475,
      "Vol": 8476,
      "\\_": 8477,
      "fix": 8478,
      "gov": 8479,
      "pes": 8480,
      "some": 8481,
      "vised": 8482,
      "Ġions": 8483,
      "Ġfif": 8484,
      "Ġfracture": 8485,
      "Ġnin": 8486,
      "ĠTV": 8487,
      "idents": 8488,
      "ĠCode": 8489,
      "ĠClick": 8490,
      "Ġconce": 8491,
      "ĠMT": 8492,
      "ĠWord": 8493,
      "ĠEst": 8494,
      "ĠLos": 8495,
      "Ġchat": 8496,
      "pler": 8497,
      "agonal": 8498,
      "roups": 8499,
      "Ġoutbreak": 8500,
      "Ġsports": 8501,
      "Ġmanually": 8502,
      "ĠĠĠĠĠĠ": 8503,
      "onday": 8504,
      "Ġtrust": 8505,
      "Ġmodify": 8506,
      "Ġrelate": 8507,
      "Ġforming": 8508,
      "ĠYet": 8509,
      "Ġregime": 8510,
      "Ġassert": 8511,
      "ollowing": 8512,
      "Ġcompletion": 8513,
      "Ġstrange": 8514,
      "Ġpolice": 8515,
      "Ġdepression": 8516,
      "ĠRespond": 8517,
      "Ġtexts": 8518,
      "Ġconsideration": 8519,
      "Ġorganized": 8520,
      "Ġpurs": 8521,
      "Ġgrand": 8522,
      "AND": 8523,
      "Ġcritic": 8524,
      "Ġphotograph": 8525,
      "Ġcutting": 8526,
      "Ġalternate": 8527,
      "Text": 8528,
      "Ġsatisfies": 8529,
      "Ġadministr": 8530,
      "Questions": 8531,
      "Ġslicer": 8532,
      "ĠÂłĠÂłĠÂłĠÂłĠÂłĠÂłĠÂłĠÂł": 8533,
      "Ġdelegates": 8534,
      "Ġartificial": 8535,
      "300": 8536,
      "AA": 8537,
      "Full": 8538,
      "La": 8539,
      "Long": 8540,
      "Once": 8541,
      "SL": 8542,
      "['": 8543,
      "after": 8544,
      "ba": 8545,
      "cds": 8546,
      "chers": 8547,
      "ker": 8548,
      "pass": 8549,
      "supp": 8550,
      "vard": 8551,
      "wi": 8552,
      "zil": 8553,
      "Ġ01": 8554,
      "itz": 8555,
      "Ġpig": 8556,
      "alities": 8557,
      "Ġflying": 8558,
      "Ġrevenue": 8559,
      "start": 8560,
      "imaker": 8561,
      "ĠIP": 8562,
      "Ġforth": 8563,
      "ĠSank": 8564,
      "ĠSometimes": 8565,
      "ĠAma": 8566,
      "Ġpropose": 8567,
      "Ġconventional": 8568,
      "ested": 8569,
      "Ġvapor": 8570,
      "throp": 8571,
      "ĠFour": 8572,
      "ĠFace": 8573,
      "ĠField": 8574,
      "articles": 8575,
      "ĠLanguage": 8576,
      "Ġcholesterol": 8577,
      "ĠGulf": 8578,
      "ulty": 8579,
      "ĠJac": 8580,
      "Ġads": 8581,
      "aren": 8582,
      "$$-": 8583,
      "Ġscr": 8584,
      "Ġevolved": 8585,
      "ĠStart": 8586,
      "Ġanyway": 8587,
      "onsin": 8588,
      "Ġcoverage": 8589,
      "Ġknows": 8590,
      "108": 8591,
      "Ġdifferently": 8592,
      "prop": 8593,
      "ĠProb": 8594,
      "Ġfoundation": 8595,
      "ĠXAC": 8596,
      "Ġposting": 8597,
      "Ġinfo": 8598,
      "Ġinvari": 8599,
      "Ġ95": 8600,
      "Ġpersonnel": 8601,
      "Ġcomputation": 8602,
      "Ġmotors": 8603,
      "ATION": 8604,
      "ouns": 8605,
      "ä¸º": 8606,
      "usepackage": 8607,
      "Ġsummar": 8608,
      "Ġopened": 8609,
      "Ġmarine": 8610,
      "Ġcycl": 8611,
      "AML": 8612,
      "Ġattempts": 8613,
      "ĠAmong": 8614,
      "Ġinvestigation": 8615,
      "ĠWorkPlace": 8616,
      "Ġrainfall": 8617,
      "ĠObserv": 8618,
      "ĠAbout": 8619,
      "Ġimplications": 8620,
      "Ġreciproc": 8621,
      "Ġuniversal": 8622,
      "Ġinfluenced": 8623,
      "ĠJeff": 8624,
      "Ġpregnancy": 8625,
      "Ġvehicle": 8626,
      "ository": 8627,
      "Ġmembrane": 8628,
      "Ġwitness": 8629,
      "Krishna": 8630,
      "LO": 8631,
      "Mar": 8632,
      "\\,": 8633,
      "^-": 8634,
      "oys": 8635,
      "paper": 8636,
      "ras": 8637,
      "table": 8638,
      "æĭ": 8639,
      "çĽ": 8640,
      "heast": 8641,
      "Ġcart": 8642,
      "Ġwiki": 8643,
      "Ġbuck": 8644,
      "Ġreform": 8645,
      "Ġnine": 8646,
      "vectors": 8647,
      "otype": 8648,
      "ĠTake": 8649,
      "Ġbeaches": 8650,
      "ĠSC": 8651,
      "ĠMad": 8652,
      "osh": 8653,
      "Ġsuc": 8654,
      "Ġsup": 8655,
      "Ġseats": 8656,
      "ĠDifferent": 8657,
      "Ġscene": 8658,
      "Ġscales": 8659,
      "Ġmoderation": 8660,
      "Ġcoffee": 8661,
      "obank": 8662,
      "ĠReferences": 8663,
      "Ġvariant": 8664,
      "Ġflight": 8665,
      "ĠWeber": 8666,
      "Ġextrem": 8667,
      "ĠForum": 8668,
      "ĠProv": 8669,
      "Ġcurv": 8670,
      "ĠAlgebra": 8671,
      "Ġreads": 8672,
      "âĪ¥": 8673,
      "Ġpersonally": 8674,
      "ĠDeb": 8675,
      "Ġtraits": 8676,
      "Ġtraffic": 8677,
      "Ġintegration": 8678,
      "ĠPrinci": 8679,
      "Ġhardware": 8680,
      "Ġchecked": 8681,
      "Ġholding": 8682,
      "Ġpackages": 8683,
      "Ġbonding": 8684,
      "oken": 8685,
      "Ġoxidation": 8686,
      "Ġpolyg": 8687,
      "Ġannounced": 8688,
      "Ġsubstances": 8689,
      "Ġdescriptors": 8690,
      "Ġsexual": 8691,
      "Ġsentence": 8692,
      "Ġmedications": 8693,
      "aturated": 8694,
      "Ġdiagnosis": 8695,
      "Ġatmospheric": 8696,
      "Ġadministration": 8697,
      "Ġenhance": 8698,
      "clusive": 8699,
      "Ġtemporary": 8700,
      "ĠOrganization": 8701,
      "ðŁĶ¹": 8702,
      "Ġdegradation": 8703,
      "ĠAlexander": 8704,
      "Ġinfrastructure": 8705,
      "ĠSankar": 8706,
      "600": 8707,
      "Car": 8708,
      "Dis": 8709,
      "During": 8710,
      "Ge": 8711,
      "Rem": 8712,
      "UE": 8713,
      "VC": 8714,
      "VE": 8715,
      "][": 8716,
      "bolic": 8717,
      "fold": 8718,
      "got": 8719,
      "iest": 8720,
      "iated": 8721,
      "king": 8722,
      "nu": 8723,
      "wave": 8724,
      "Ãħ": 8725,
      "including": 8726,
      "Ġsd": 8727,
      "Ġwidespread": 8728,
      "Ġpark": 8729,
      "Ġmerg": 8730,
      "icol": 8731,
      "Ġdedicated": 8732,
      "Ġthreshold": 8733,
      "etween": 8734,
      "etilde": 8735,
      "ĠTyp": 8736,
      "ĠSign": 8737,
      "ĠBT": 8738,
      "ĠBank": 8739,
      "ements": 8740,
      "oping": 8741,
      "ĠFamily": 8742,
      "ĠDE": 8743,
      "ĠDeterm": 8744,
      "ĠLat": 8745,
      "ĠLIBUSB": 8746,
      "Ġking": 8747,
      "ĠJud": 8748,
      "ĠUR": 8749,
      "ĠUlt": 8750,
      "Ġadequ": 8751,
      "Ġadvert": 8752,
      "Ġalloc": 8753,
      "Ġintense": 8754,
      "Ġintellect": 8755,
      "Ġpermission": 8756,
      "Ġthereby": 8757,
      "Ġmoderators": 8758,
      "ĠStar": 8759,
      "Ġpoison": 8760,
      "Ġ41": 8761,
      "Ġ47": 8762,
      "Ġreliable": 8763,
      "inking": 8764,
      "Ġpeak": 8765,
      "ĠUnfortunately": 8766,
      "problem": 8767,
      "Ġcurriculum": 8768,
      "ĠComb": 8769,
      "Ġdecade": 8770,
      "ometer": 8771,
      "Ġsmallest": 8772,
      "Ġcenturies": 8773,
      "context": 8774,
      "Ġglue": 8775,
      "Ġworldwide": 8776,
      "Ġthoughts": 8777,
      "being": 8778,
      "Ġreflection": 8779,
      "ĠAdminist": 8780,
      "Ġelastic": 8781,
      "Ġtradition": 8782,
      "Ġassociation": 8783,
      "Ġflows": 8784,
      "ĠEncyclopedia": 8785,
      "Ġgovernments": 8786,
      "Ġmaximal": 8787,
      "isconsin": 8788,
      "ĠMarlin": 8789,
      "empty": 8790,
      "Ġsearching": 8791,
      "Ġfunding": 8792,
      "Ġelsewhere": 8793,
      "ĠmmHg": 8794,
      "ĠSTR": 8795,
      "Ġboxes": 8796,
      "urable": 8797,
      "Ġcere": 8798,
      "Ġdemonstrated": 8799,
      "Ġillustrated": 8800,
      "glas": 8801,
      "ĠAbstractManifold": 8802,
      "help": 8803,
      "Ġemployed": 8804,
      "Ġabsorption": 8805,
      "ĠStatistics": 8806,
      "Ġignore": 8807,
      "Ġfighting": 8808,
      "Ġphilosophy": 8809,
      "ĠAvailable": 8810,
      "blesh": 8811,
      "Ġunlikely": 8812,
      "ç§ĳ": 8813,
      "Ġdemocracy": 8814,
      "Ġtroops": 8815,
      "Ġstyles": 8816,
      "Ġexhaust": 8817,
      "widetilde": 8818,
      "(:": 8819,
      ")*": 8820,
      "Act": 8821,
      "TO": 8822,
      "WA": 8823,
      "iate": 8824,
      "kins": 8825,
      "last": 8826,
      "nm": 8827,
      "Ġtab": 8828,
      "onom": 8829,
      "edge": 8830,
      "oust": 8831,
      "ician": 8832,
      "Ġhidden": 8833,
      "Ġrenew": 8834,
      "Ġlying": 8835,
      "Ġgarden": 8836,
      "ĠABS": 8837,
      "verty": 8838,
      "ĠCap": 8839,
      "ĠCare": 8840,
      "ĠCivil": 8841,
      "Ġorth": 8842,
      "Ġvideos": 8843,
      "ĠBig": 8844,
      "ĠRand": 8845,
      "ĠWisconsin": 8846,
      "actic": 8847,
      "achuset": 8848,
      "Ġunion": 8849,
      "Ġjour": 8850,
      "Ġpoverty": 8851,
      "Ġ43": 8852,
      "Ġcommands": 8853,
      "Ġrecre": 8854,
      "Ġcoin": 8855,
      "Ġinstances": 8856,
      "ĠProcess": 8857,
      "intercept": 8858,
      "Ġdepart": 8859,
      "Ġsupporting": 8860,
      "}}$$": 8861,
      "ashion": 8862,
      "ĠSovi": 8863,
      "Ġdetermines": 8864,
      "Ġdetermining": 8865,
      "Ġdirected": 8866,
      "imental": 8867,
      "ĠClub": 8868,
      "ĠFrank": 8869,
      "Ġaddresses": 8870,
      "Ġaddressed": 8871,
      "Ġcycles": 8872,
      "Ġconverted": 8873,
      "afety": 8874,
      "Ġhappening": 8875,
      "attice": 8876,
      "Ġexception": 8877,
      "Ġmanufacturing": 8878,
      "Ġdisplayed": 8879,
      "secutive": 8880,
      "Ġassistance": 8881,
      "ĠDefinition": 8882,
      "Ġjoined": 8883,
      "ĠÏĢ": 8884,
      "Ġcollaboration": 8885,
      "Ġoutbursts": 8886,
      "Ġskew": 8887,
      "Ġflexible": 8888,
      "ĠProfessor": 8889,
      "specific": 8890,
      "Ġaggreg": 8891,
      "ĠFlorida": 8892,
      "Ġvulner": 8893,
      "achusetts": 8894,
      "Code": 8895,
      "Hz": 8896,
      "Point": 8897,
      "Sec": 8898,
      "pic": 8899,
      "sk": 8900,
      "æĬ": 8901,
      "Ġtape": 8902,
      "Ġtimer": 8903,
      "inating": 8904,
      "only": 8905,
      "ena": 8906,
      "isd": 8907,
      "Ġfle": 8908,
      "Ġboy": 8909,
      "Ġinclusion": 8910,
      "leigh": 8911,
      "Ġepid": 8912,
      "Ġreverse": 8913,
      "ĠTom": 8914,
      "Ġgall": 8915,
      "Ġgcode": 8916,
      "ĠID": 8917,
      "iday": 8918,
      "ĠSoc": 8919,
      "cho": 8920,
      "Ġasyn": 8921,
      "Ġproton": 8922,
      "Ġprojection": 8923,
      "Ġalphabet": 8924,
      "abin": 8925,
      "ndrome": 8926,
      "ĠBudd": 8927,
      "antly": 8928,
      "ĠHand": 8929,
      "ĠHoo": 8930,
      "ĠWikipedia": 8931,
      "ĠFre": 8932,
      "ĠDiv": 8933,
      "ĠEffect": 8934,
      "ĠLo": 8935,
      "ĠLake": 8936,
      "pert": 8937,
      "agers": 8938,
      "agraph": 8939,
      "ĠGood": 8940,
      "allow": 8941,
      "ibli": 8942,
      "ĠUpd": 8943,
      "Ġplots": 8944,
      "Ġunable": 8945,
      "Ġ1900": 8946,
      "Ġpreced": 8947,
      "Ġindigenous": 8948,
      "Ġdefense": 8949,
      "Ġedits": 8950,
      "Ġbund": 8951,
      "valent": 8952,
      "Ġmetals": 8953,
      "Ġtrivial": 8954,
      "Ġconfusion": 8955,
      "ĠIndians": 8956,
      "ĠIndeed": 8957,
      "Ġsingular": 8958,
      "Ġdescribing": 8959,
      "incoln": 8960,
      "Ġopening": 8961,
      "Ġremained": 8962,
      "Ġreceiving": 8963,
      "Ġopposed": 8964,
      "Ġseparated": 8965,
      "},\\": 8966,
      "ognitive": 8967,
      "Ġpacket": 8968,
      "liest": 8969,
      "liament": 8970,
      "ä»£åĨĻRiemannian": 8971,
      "æľ¯": 8972,
      "Ġcryobank": 8973,
      "Ġmanifolds": 8974,
      "Ġpurely": 8975,
      "Ġinvestigate": 8976,
      "Ġconsumers": 8977,
      "Ġcopyright": 8978,
      "Ġcapture": 8979,
      "ĠVolume": 8980,
      "ĠAdditionally": 8981,
      "Ġsurvival": 8982,
      "Ġcandidates": 8983,
      "****************": 8984,
      "Ġleadership": 8985,
      "Ġfavorite": 8986,
      "Ġnitrogen": 8987,
      "Ġeliminate": 8988,
      "Ġsaved": 8989,
      "æķ°åŃ¦ä»£åĨĻ": 8990,
      "Ġturbul": 8991,
      "Ġswitches": 8992,
      "é»İæĽ¼åĩłä½ķä»£åĨĻRiemannian": 8993,
      "Transport": 8994,
      "Ġprofessionals": 8995,
      "Ġsucceed": 8996,
      "${": 8997,
      "([": 8998,
      "Eq": 8999,
      "Lemma": 9000,
      "Next": 9001,
      "Time": 9002,
      "TER": 9003,
      "foo": 9004,
      "hard": 9005,
      "kay": 9006,
      "pow": 9007,
      "}|": 9008,
      "Ġ),": 9009,
      "ķĻ": 9010,
      "Ġtub": 9011,
      "Ġtrick": 9012,
      "Ġsnow": 9013,
      "esides": 9014,
      "itt": 9015,
      "itage": 9016,
      "Ġpounds": 9017,
      "Ġfault": 9018,
      "Ġfung": 9019,
      "Ġanonymous": 9020,
      "Ġmeth": 9021,
      "Ġmoon": 9022,
      "ett": 9023,
      "etics": 9024,
      "olving": 9025,
      "imeter": 9026,
      "ĠTw": 9027,
      "ĠTags": 9028,
      "rared": 9029,
      "iger": 9030,
      "Ġ(\"": 9031,
      "ĠSl": 9032,
      "Ġstead": 9033,
      "irality": 9034,
      "ĠMor": 9035,
      "ĠMot": 9036,
      "ĠPap": 9037,
      "istence": 9038,
      "Ġvib": 9039,
      "Ġwear": 9040,
      "ĠBal": 9041,
      "ĠBack": 9042,
      "ĠBeta": 9043,
      "operation": 9044,
      "ĠRisk": 9045,
      "ĠHawaii": 9046,
      "essment": 9047,
      "Ġhex": 9048,
      "Ġheater": 9049,
      "ĠNeg": 9050,
      "Ġkid": 9051,
      "Ġworst": 9052,
      "astro": 9053,
      "igned": 9054,
      "Ġdisag": 9055,
      "Ġ04": 9056,
      "Ġarise": 9057,
      "Ġphr": 9058,
      "Ġ$\\{": 9059,
      "oven": 9060,
      "uesday": 9061,
      "Ġacknow": 9062,
      "Ġoffic": 9063,
      "rained": 9064,
      "product": 9065,
      "Ġfinds": 9066,
      "Ġcomplement": 9067,
      "Ġeverywhere": 9068,
      "Ġmetall": 9069,
      "âĪĳ": 9070,
      "Ġlessons": 9071,
      "ĠArduino": 9072,
      "Ġbrand": 9073,
      "ĠResources": 9074,
      "Ġpresentation": 9075,
      "Ġfinished": 9076,
      "Ġ1994": 9077,
      "azing": 9078,
      "Ġmultipl": 9079,
      "aligned": 9080,
      "blue": 9081,
      "Ġfrequencies": 9082,
      "Comment": 9083,
      "Ġdetector": 9084,
      "Ġantibodies": 9085,
      "Ġadjacent": 9086,
      "Query": 9087,
      "nonumber": 9088,
      "ilingual": 9089,
      "Ġcovering": 9090,
      "ç»ı": 9091,
      "Ġgeometryä»£èĢĥ": 9092,
      "Ġarmy": 9093,
      "Ġvegetables": 9094,
      "Ġdeterminism": 9095,
      "ĠSecurity": 9096,
      "Ġagriculture": 9097,
      "ĠÃ¢": 9098,
      "Ġaudio": 9099,
      "Ġpowers": 9100,
      "Ġfruits": 9101,
      "Ġdinosa": 9102,
      "Ġorgans": 9103,
      "Ġsaturated": 9104,
      "Spe": 9105,
      "Test": 9106,
      "]$": 9107,
      "dots": 9108,
      "dynam": 9109,
      "even": 9110,
      "frame": 9111,
      "gers": 9112,
      "ivery": 9113,
      "pot": 9114,
      "qrt": 9115,
      "rim": 9116,
      "when": 9117,
      "Â®": 9118,
      "Ã¨": 9119,
      "Î©": 9120,
      "oni": 9121,
      "Ġsong": 9122,
      "isters": 9123,
      "Ġbos": 9124,
      "arth": 9125,
      "Ġreactions": 9126,
      "ethe": 9127,
      "imary": 9128,
      "ĠMA": 9129,
      "ĠMulti": 9130,
      "adic": 9131,
      "ĠPop": 9132,
      "about": 9133,
      "illa": 9134,
      "Ġcanon": 9135,
      "ĠDire": 9136,
      "ĠEastern": 9137,
      "acts": 9138,
      "phone": 9139,
      "Ġjump": 9140,
      "Ġperme": 9141,
      "Ġmodelling": 9142,
      "Ġmoderate": 9143,
      "Ġ85": 9144,
      "Ġinfrared": 9145,
      "2017": 9146,
      "Ġclassic": 9147,
      "ikov": 9148,
      "Ġreporting": 9149,
      "Ġstanding": 9150,
      "2004": 9151,
      "hyd": 9152,
      "Ġpersonality": 9153,
      "Ġdesigns": 9154,
      "bean": 9155,
      "ĠIsl": 9156,
      "Ġreflexive": 9157,
      "Ġseemed": 9158,
      "Ġ1993": 9159,
      "Ġsuggestion": 9160,
      "Ġengage": 9161,
      "Ġsquares": 9162,
      "dev": 9163,
      "Ġcopper": 9164,
      "Ġdomestic": 9165,
      "Ġrotating": 9166,
      "ĠPrep": 9167,
      "author": 9168,
      "Ġlimitations": 9169,
      "Ġrequested": 9170,
      "aughter": 9171,
      "Ġwildlife": 9172,
      "Ġdynamic": 9173,
      "Ġadapted": 9174,
      "ĠProblems": 9175,
      "Ġcooking": 9176,
      "Retraction": 9177,
      "arshall": 9178,
      "Ġarchitecture": 9179,
      "Ġquadratic": 9180,
      "Ġingred": 9181,
      "ĠFacebook": 9182,
      ",-": 9183,
      ".-": 9184,
      ":\\": 9185,
      "IF": 9186,
      "Use": 9187,
      "dist": 9188,
      "green": 9189,
      "mers": 9190,
      "spring": 9191,
      "tons": 9192,
      "vin": 9193,
      "zene": 9194,
      "Â²": 9195,
      "Ġaf": 9196,
      "rey": 9197,
      "onent": 9198,
      "online": 9199,
      "erly": 9200,
      "Ġcited": 9201,
      "Ġctx": 9202,
      "Ġpal": 9203,
      "Ġbought": 9204,
      "lements": 9205,
      "rovers": 9206,
      "Ġthorough": 9207,
      "ĠTor": 9208,
      "Ġbeings": 9209,
      "igation": 9210,
      "ĠCro": 9211,
      "ĠMonday": 9212,
      "gebras": 9213,
      "ĠBa": 9214,
      "Ġran": 9215,
      "Ġrid": 9216,
      "Ġranges": 9217,
      "ĠWhe": 9218,
      "ĠWild": 9219,
      "ĠFlu": 9220,
      "ocy": 9221,
      "endar": 9222,
      "ogether": 9223,
      "activity": 9224,
      "oolean": 9225,
      "earing": 9226,
      "Ġ08": 9227,
      "Ġ54": 9228,
      "Ġroles": 9229,
      "Ġaccum": 9230,
      "Ġ64": 9231,
      "Ġdiver": 9232,
      "Ġsecure": 9233,
      "Ġdepict": 9234,
      "Ġminute": 9235,
      "Ġtermin": 9236,
      "Ġtopological": 9237,
      "Ġretraction": 9238,
      "olecular": 9239,
      "Ġradical": 9240,
      "Ġreduces": 9241,
      "ĠResolution": 9242,
      "255": 9243,
      "Ġgrant": 9244,
      "Ġexplaining": 9245,
      "Ġseparately": 9246,
      "Exp": 9247,
      "Ġcontributions": 9248,
      "inois": 9249,
      "holders": 9250,
      "Ġdecreases": 9251,
      "++++": 9252,
      "Ġultimately": 9253,
      "ĠSeries": 9254,
      "Ġresidue": 9255,
      "Ġgradually": 9256,
      "Ġlectures": 9257,
      "Ġecosystems": 9258,
      "ĠMassachusetts": 9259,
      "forcement": 9260,
      "Ġhundreds": 9261,
      "Ġemotional": 9262,
      "Ġapparently": 9263,
      "Ġvessels": 9264,
      "å·¥åħ·": 9265,
      "Ġtruly": 9266,
      "Ġsatellite": 9267,
      "ĠJoseph": 9268,
      "View": 9269,
      "Ġunusual": 9270,
      ".}": 9271,
      "120": 9272,
      "??": 9273,
      "CN": 9274,
      "Finally": 9275,
      "Pe": 9276,
      "Pub": 9277,
      "bb": 9278,
      "cond": 9279,
      "cartes": 9280,
      "first": 9281,
      "gments": 9282,
      "high": 9283,
      "hop": 9284,
      "pire": 9285,
      "rusion": 9286,
      "uits": 9287,
      "åĬ": 9288,
      "éĩ": 9289,
      "Ġod": 9290,
      "Ġcant": 9291,
      "Ġcrack": 9292,
      "Ġcube": 9293,
      "orf": 9294,
      "Ġpale": 9295,
      "Ġblow": 9296,
      "Ġmand": 9297,
      "Ġmouse": 9298,
      "Ġinvention": 9299,
      "icago": 9300,
      "Ġdot": 9301,
      "Ġlymph": 9302,
      "ĠTry": 9303,
      "ĠTrad": 9304,
      "ĠTuesday": 9305,
      "Ġgate": 9306,
      "Ġstut": 9307,
      "Ġstores": 9308,
      "Ġconcluded": 9309,
      "Ġalkenes": 9310,
      "ĠMars": 9311,
      "ems": 9312,
      "Ġheter": 9313,
      "aints": 9314,
      "ĠName": 9315,
      "ĠNOT": 9316,
      "ĠLew": 9317,
      "ĠLincoln": 9318,
      "ogs": 9319,
      "Ġquot": 9320,
      "agehot": 9321,
      "ductor": 9322,
[...]
