{
  "version": "1.0",
  "truncation": null,
  "padding": null,
  "added_tokens": [
    {
      "id": 0,
      "content": "[UNK]",
      "single_word": false,
      "lstrip": false,
      "rstrip": false,
      "normalized": false,
      "special": true
    }
  ],
  "normalizer": {
    "type": "Sequence",
    "normalizers": []
  },
  "pre_tokenizer": {
    "type": "ByteLevel",
    "add_prefix_space": false,
    "trim_offsets": true,
    "use_regex": true
  },
  "post_processor": {
    "type": "ByteLevel",
    "add_prefix_space": true,
    "trim_offsets": false,
    "use_regex": true
  },
  "decoder": null,
  "model": {
    "type": "BPE",
    "dropout": null,
    "unk_token": "[UNK]",
    "continuing_subword_prefix": null,
    "end_of_word_suffix": null,
    "fuse_unk": false,
    "byte_fallback": false,
    "ignore_merges": false,
    "vocab": {
      "[UNK]": 0,
      "!": 1,
      "\"": 2,
      "#": 3,
      "$": 4,
      "%": 5,
      "&": 6,
      "'": 7,
      "(": 8,
      ")": 9,
      "*": 10,
      "+": 11,
      ",": 12,
      "-": 13,
      ".": 14,
      "/": 15,
      "0": 16,
      "1": 17,
      "2": 18,
      "3": 19,
      "4": 20,
      "5": 21,
      "6": 22,
      "7": 23,
      "8": 24,
      "9": 25,
      ":": 26,
      ";": 27,
      "<": 28,
      "=": 29,
      ">": 30,
      "?": 31,
      "@": 32,
      "A": 33,
      "B": 34,
      "C": 35,
      "D": 36,
      "E": 37,
      "F": 38,
      "G": 39,
      "H": 40,
      "I": 41,
      "J": 42,
      "K": 43,
      "L": 44,
      "M": 45,
      "N": 46,
      "O": 47,
      "P": 48,
      "Q": 49,
      "R": 50,
      "S": 51,
      "T": 52,
      "U": 53,
      "V": 54,
      "W": 55,
      "X": 56,
      "Y": 57,
      "Z": 58,
      "[": 59,
      "\\": 60,
      "]": 61,
      "^": 62,
      "_": 63,
      "`": 64,
      "a": 65,
      "b": 66,
      "c": 67,
      "d": 68,
      "e": 69,
      "f": 70,
      "g": 71,
      "h": 72,
      "i": 73,
      "j": 74,
      "k": 75,
      "l": 76,
      "m": 77,
      "n": 78,
      "o": 79,
      "p": 80,
      "q": 81,
      "r": 82,
      "s": 83,
      "t": 84,
      "u": 85,
      "v": 86,
      "w": 87,
      "x": 88,
      "y": 89,
      "z": 90,
      "{": 91,
      "|": 92,
      "}": 93,
      "~": 94,
      "¡": 95,
      "¢": 96,
      "£": 97,
      "¤": 98,
      "¥": 99,
      "¦": 100,
      "§": 101,
      "¨": 102,
      "©": 103,
      "ª": 104,
      "«": 105,
      "¬": 106,
      "®": 107,
      "¯": 108,
      "°": 109,
      "±": 110,
      "²": 111,
      "³": 112,
      "´": 113,
      "µ": 114,
      "¶": 115,
      "·": 116,
      "¸": 117,
      "¹": 118,
      "º": 119,
      "»": 120,
      "¼": 121,
      "½": 122,
      "¾": 123,
      "¿": 124,
      "Â": 125,
      "Ã": 126,
      "Ä": 127,
      "Å": 128,
      "Æ": 129,
      "Ç": 130,
      "È": 131,
      "É": 132,
      "Ê": 133,
      "Ë": 134,
      "Ì": 135,
      "Í": 136,
      "Î": 137,
      "Ï": 138,
      "Ð": 139,
      "Ñ": 140,
      "Ò": 141,
      "Ó": 142,
      "Ô": 143,
      "Õ": 144,
      "Ö": 145,
      "×": 146,
      "Ø": 147,
      "Ù": 148,
      "Ú": 149,
      "Û": 150,
      "Ü": 151,
      "Ý": 152,
      "Þ": 153,
      "ß": 154,
      "à": 155,
      "á": 156,
      "â": 157,
      "ã": 158,
      "ä": 159,
      "å": 160,
      "æ": 161,
      "ç": 162,
      "è": 163,
      "é": 164,
      "ê": 165,
      "ë": 166,
      "ì": 167,
      "í": 168,
      "î": 169,
      "ï": 170,
      "ð": 171,
      "ñ": 172,
      "ò": 173,
      "ó": 174,
      "ô": 175,
      "Ā": 176,
      "ā": 177,
      "Ă": 178,
      "ă": 179,
      "Ą": 180,
      "ą": 181,
      "Ć": 182,
      "ć": 183,
      "Ĉ": 184,
      "ĉ": 185,
      "Ċ": 186,
      "ċ": 187,
      "Č": 188,
      "č": 189,
      "Ď": 190,
      "ď": 191,
      "Đ": 192,
      "đ": 193,
      "Ē": 194,
      "ē": 195,
      "Ĕ": 196,
      "ĕ": 197,
      "Ė": 198,
      "ė": 199,
      "Ę": 200,
      "ę": 201,
      "Ě": 202,
      "ě": 203,
      "Ĝ": 204,
      "ĝ": 205,
      "Ğ": 206,
      "ğ": 207,
      "Ġ": 208,
      "ġ": 209,
      "Ģ": 210,
      "ģ": 211,
      "Ĥ": 212,
      "ĥ": 213,
      "Ħ": 214,
      "ħ": 215,
      "Ĩ": 216,
      "ĩ": 217,
      "Ī": 218,
      "ī": 219,
      "Ĭ": 220,
      "ĭ": 221,
      "Į": 222,
      "į": 223,
      "İ": 224,
      "ı": 225,
      "Ĳ": 226,
      "ĳ": 227,
      "Ĵ": 228,
      "ĵ": 229,
      "Ķ": 230,
      "ķ": 231,
      "ĸ": 232,
      "Ĺ": 233,
      "ĺ": 234,
      "Ļ": 235,
      "ļ": 236,
      "Ľ": 237,
      "ľ": 238,
      "Ŀ": 239,
      "ŀ": 240,
      "Ł": 241,
      "ł": 242,
      "Ń": 243,
      "ĠĠ": 244,
      "ĠĠĠĠ": 245,
      "Ġt": 246,
      "čĊ": 247,
      "Ġa": 248,
      "in": 249,
      "he": 250,
      "re": 251,
      "on": 252,
      "er": 253,
      "Ġs": 254,
      "at": 255,
      "Ġthe": 256,
      "or": 257,
      "en": 258,
      "es": 259,
      "Ġc": 260,
      "is": 261,
      "Ġw": 262,
      "it": 263,
      "ĠĠĠ": 264,
      "ou": 265,
      "an": 266,
      "Ġf": 267,
      "al": 268,
      "Ġp": 269,
      "Ġo": 270,
      "ĠĠĠĠĠĠĠĠ": 271,
      "Ġb": 272,
      "ed": 273,
      "ing": 274,
      "ar": 275,
      "el": 276,
      "Ġan": 277,
      "Ġm": 278,
      "Ġd": 279,
      "Ġin": 280,
      "ion": 281,
      "Ġto": 282,
      "le": 283,
      "ic": 284,
      "Ġof": 285,
      "as": 286,
      "ro": 287,
      "Ġand": 288,
      "et": 289,
      "Ġth": 290,
      "ĠĠĠĠĠĠĠ": 291,
      "st": 292,
      "Ġh": 293,
      "Ġn": 294,
      "Ġre": 295,
      "ent": 296,
      "ct": 297,
      "il": 298,
      "om": 299,
      "Ġl": 300,
      "am": 301,
      "ot": 302,
      "id": 303,
      "Ġe": 304,
      "Ġis": 305,
      "ĠI": 306,
      "im": 307,
      "se": 308,
      "Ġg": 309,
      "ut": 310,
      "Ġ=": 311,
      "ve": 312,
      "ĠT": 313,
      "Ġfor": 314,
      "ad": 315,
      "ce": 316,
      "Ġy": 317,
      "elf": 318,
      "Ġu": 319,
      "ol": 320,
      "if": 321,
      "ly": 322,
      "ow": 323,
      "Ġbe": 324,
      "ig": 325,
      "ur": 326,
      "ĠS": 327,
      "ay": 328,
      "Ġon": 329,
      "ch": 330,
      "od": 331,
      "ation": 332,
      "ver": 333,
      "ĠA": 334,
      "Ġthat": 335,
      "Ġst": 336,
      "Ġyou": 337,
      "Ġ(": 338,
      "âĢ": 339,
      "ĠC": 340,
      "ul": 341,
      "ĠĠĠĠĠĠĠĠĠĠĠ": 342,
      "Ġ'": 343,
      "est": 344,
      "ith": 345,
      "Ġit": 346,
      "Ġ\"": 347,
      "ir": 348,
      "ag": 349,
      "Ġde": 350,
      "Ġas": 351,
      "pe": 352,
      "ate": 353,
      "Ġwith": 354,
      "ter": 355,
      "qu": 356,
      "ac": 357,
      "Ġcon": 358,
      "Ġself": 359,
      "ĠM": 360,
      "ab": 361,
      "em": 362,
      "her": 363,
      "Ġ1": 364,
      "Ġpro": 365,
      "um": 366,
      "ĠP": 367,
      "un": 368,
      "out": 369,
      "ri": 370,
      "Ġal": 371,
      "ort": 372,
      "ist": 373,
      "ke": 374,
      "Ġwh": 375,
      "pp": 376,
      "ra": 377,
      "--": 378,
      "ers": 379,
      "Ġor": 380,
      "ess": 381,
      "ame": 382,
      "Ġex": 383,
      "Ġnot": 384,
      "res": 385,
      "rom": 386,
      "Ġv": 387,
      "Ġare": 388,
      "ill": 389,
      "nd": 390,
      "pt": 391,
      "ĠB": 392,
      "ld": 393,
      "ect": 394,
      "Ġ2": 395,
      "and": 396,
      "):": 397,
      "us": 398,
      "oc": 399,
      "##": 400,
      "ore": 401,
      "Ġhe": 402,
      "nt": 403,
      "ĠF": 404,
      "',": 405,
      "op": 406,
      "ĠĠĠĠĠĠĠĠĠĠĠĠĠĠĠĠ": 407,
      "ĠN": 408,
      "Ġcom": 409,
      "Ġwe": 410,
      "Ġha": 411,
      "ue": 412,
      "Ġat": 413,
      "ht": 414,
      "Ġr": 415,
      "our": 416,
      "00": 417,
      "ex": 418,
      "ass": 419,
      "ĠW": 420,
      "Ġif": 421,
      "ĠD": 422,
      "ĠThe": 423,
      "os": 424,
      "ĠR": 425,
      "art": 426,
      "ĠH": 427,
      "ew": 428,
      "Ġsu": 429,
      "Ġthis": 430,
      "end": 431,
      "self": 432,
      "pl": 433,
      "ĠL": 434,
      "one": 435,
      "ain": 436,
      "ity": 437,
      "ment": 438,
      "ant": 439,
      "all": 440,
      "Ġhave": 441,
      "ould": 442,
      "th": 443,
      "ĠG": 444,
      "Ġse": 445,
      "Ġby": 446,
      "Ġfrom": 447,
      "Ġwas": 448,
      "'s": 449,
      "Ġsh": 450,
      "ight": 451,
      "ĠE": 452,
      "âĢĻ": 453,
      "iv": 454,
      "ive": 455,
      "Ġcan": 456,
      "Ġ#": 457,
      "ert": 458,
      "urn": 459,
      "Ġdef": 460,
      "imp": 461,
      "og": 462,
      "ust": 463,
      "cl": 464,
      "Ġch": 465,
      "ies": 466,
      "ud": 467,
      "),": 468,
      "ult": 469,
      "red": 470,
      "ack": 471,
      "ost": 472,
      "age": 473,
      "ions": 474,
      "ĠO": 475,
      "ine": 476,
      "ang": 477,
      "ally": 478,
      "ap": 479,
      "Ġle": 480,
      "ile": 481,
      "\"\"": 482,
      "Ġdo": 483,
      "ard": 484,
      "con": 485,
      "ome": 486,
      "Ġus": 487,
      "Ġab": 488,
      "iz": 489,
      "ure": 490,
      "able": 491,
      "int": 492,
      "ork": 493,
      "rou": 494,
      "orm": 495,
      "Ġyour": 496,
      "()": 497,
      "ĠĠĠĠĠĠĠĠĠĠĠĠĠĠĠ": 498,
      "Ġwill": 499,
      "ry": 500,
      "Ġj": 501,
      "ind": 502,
      "..": 503,
      "ime": 504,
      "Ġbut": 505,
      "ok": 506,
      "Ġret": 507,
      "ial": 508,
      "ast": 509,
      "Ġk": 510,
      "Ġ-": 511,
      "ff": 512,
      "Ġall": 513,
      "Ġres": 514,
      "Ġ[": 515,
      "__": 516,
      "ice": 517,
      "Ġcl": 518,
      "act": 519,
      "ell": 520,
      "ib": 521,
      "ther": 522,
      "Ġwhe": 523,
      "ip": 524,
      "Ġad": 525,
      "ide": 526,
      "get": 527,
      "Ġ0": 528,
      "Ġint": 529,
      "ase": 530,
      "ich": 531,
      "ub": 532,
      "Ġpl": 533,
      "ath": 534,
      "are": 535,
      "Ġcont": 536,
      "ated": 537,
      "':": 538,
      "ak": 539,
      "Ġreturn": 540,
      "ĠJ": 541,
      "ĠU": 542,
      "de": 543,
      "ext": 544,
      "Ġne": 545,
      "The": 546,
      "----": 547,
      "('": 548,
      "ail": 549,
      "Ġme": 550,
      "Ġgo": 551,
      "Ġhas": 552,
      "Ġimp": 553,
      "ob": 554,
      "Ġout": 555,
      "ord": 556,
      "ere": 557,
      "per": 558,
      "ans": 559,
      "ĠâĢ": 560,
      "name": 561,
      "ite": 562,
      "ata": 563,
      "Ġcomp": 564,
      "Ġmy": 565,
      "Ġen": 566,
      "ype": 567,
      "cc": 568,
      "ake": 569,
      "==": 570,
      "ance": 571,
      "Ġso": 572,
      "ear": 573,
      "Ġthey": 574,
      "'t": 575,
      "ction": 576,
      "####": 577,
      "Ġqu": 578,
      "ject": 579,
      "ong": 580,
      "Ġun": 581,
      "ook": 582,
      "Ġone": 583,
      "Ġup": 584,
      "form": 585,
      "ode": 586,
      "com": 587,
      ").": 588,
      "ĠTh": 589,
      "Ġel": 590,
      "ary": 591,
      "Ġmore": 592,
      "Ġ3": 593,
      "gh": 594,
      "Ġar": 595,
      "iel": 596,
      "ations": 597,
      "ace": 598,
      "Ġwhich": 599,
      "ire": 600,
      "ign": 601,
      "01": 602,
      "ep": 603,
      "ens": 604,
      "Ġapp": 605,
      "ount": 606,
      "ge": 607,
      "\",": 608,
      "ents": 609,
      "Ġget": 610,
      "ress": 611,
      "')": 612,
      "ĠIn": 613,
      "very": 614,
      "vers": 615,
      "ield": 616,
      "ous": 617,
      "so": 618,
      "ber": 619,
      "ose": 620,
      "Ġother": 621,
      "Ġabout": 622,
      "Ġtr": 623,
      "Ġtheir": 624,
      "ach": 625,
      "ict": 626,
      "ical": 627,
      "Ġwork": 628,
      "ck": 629,
      "Ġ\"\"\"": 630,
      "Ġany": 631,
      "Ġli": 632,
      "du": 633,
      "ĠSt": 634,
      "ink": 635,
      "Ġwould": 636,
      "ock": 637,
      "Ġsome": 638,
      "Ġsc": 639,
      "ll": 640,
      "ors": 641,
      "Ġ$": 642,
      "Ġdis": 643,
      "val": 644,
      "Ġper": 645,
      "ree": 646,
      "ory": 647,
      "Ġsa": 648,
      "ings": 649,
      "now": 650,
      "ia": 651,
      "eth": 652,
      "Ġthere": 653,
      "']": 654,
      "ition": 655,
      "Ġ+": 656,
      "ru": 657,
      "ĠV": 658,
      "au": 659,
      "ely": 660,
      "Ġman": 661,
      "Ġtime": 662,
      "ĠK": 663,
      "Ġhis": 664,
      "ence": 665,
      "))": 666,
      "ound": 667,
      "._": 668,
      "vi": 669,
      "Ġimport": 670,
      "lic": 671,
      "vel": 672,
      "ption": 673,
      "rib": 674,
      "Ġev": 675,
      "ild": 676,
      "ĠĠĠĠĠ": 677,
      "Ġwho": 678,
      "pec": 679,
      "Ġpart": 680,
      "ĠY": 681,
      "Ġ{": 682,
      "Ġsp": 683,
      "Ġnew": 684,
      "ays": 685,
      "fere": 686,
      "put": 687,
      "//": 688,
      "ie": 689,
      "arg": 690,
      "rue": 691,
      "Ġval": 692,
      "Ġwhen": 693,
      "Ġpre": 694,
      "Ġmod": 695,
      "âĢĿ": 696,
      "Ġag": 697,
      "ys": 698,
      "erv": 699,
      "Ġtest": 700,
      "ror": 701,
      "Ġalso": 702,
      "irst": 703,
      "ove": 704,
      "Ġoff": 705,
      "Ġwhat": 706,
      "ft": 707,
      "Ġass": 708,
      "ick": 709,
      "['": 710,
      "Ġthem": 711,
      "Ġno": 712,
      "amp": 713,
      "lo": 714,
      "low": 715,
      "up": 716,
      "Ġthan": 717,
      "Ġ%": 718,
      "Ġ4": 719,
      "mod": 720,
      "ark": 721,
      "ph": 722,
      "Ġuse": 723,
      "Ġro": 724,
      "Ġlike": 725,
      "gr": 726,
      "ĠIt": 727,
      "Ġwere": 728,
      "par": 729,
      "Ġyear": 730,
      "av": 731,
      "Ġset": 732,
      "ččĊ": 733,
      "pro": 734,
      "itt": 735,
      "ise": 736,
      "Ġjust": 737,
      "ool": 738,
      "reat": 739,
      "Ġcomm": 740,
      "Ġknow": 741,
      "Ġpr": 742,
      "ax": 743,
      "Ġ\\": 744,
      "Ġbeen": 745,
      "(\"": 746,
      "def": 747,
      "assert": 748,
      "ize": 749,
      "Ġmay": 750,
      "own": 751,
      "oint": 752,
      "nder": 753,
      "Ġhad": 754,
      "Ġover": 755,
      "ces": 756,
      "ĠĠĠĠĠĠĠĠĠĠĠĠĠĠĠĠĠĠĠ": 757,
      "Ġadd": 758,
      "ener": 759,
      "Ġonly": 760,
      "pect": 761,
      "key": 762,
      "ring": 763,
      "wo": 764,
      "ix": 765,
      "set": 766,
      "Ġfun": 767,
      "ĠCh": 768,
      "Ġpe": 769,
      "Ġ:": 770,
      "In": 771,
      "ates": 772,
      "etw": 773,
      "Ġ5": 774,
      "Ġacc": 775,
      "che": 776,
      "Ġob": 777,
      "ish": 778,
      "pon": 779,
      "ific": 780,
      "Ġam": 781,
      "Ġshould": 782,
      "Ġneed": 783,
      "from": 784,
      "ule": 785,
      "],": 786,
      "Ġdes": 787,
      "old": 788,
      "Ġhow": 789,
      "cre": 790,
      "ange": 791,
      "cess": 792,
      "Ġinst": 793,
      "Ġinto": 794,
      "Ġ_": 795,
      "ĠThis": 796,
      "fter": 797,
      "ause": 798,
      "Ġfirst": 799,
      "Ġstud": 800,
      "Ġbec": 801,
      "app": 802,
      "ĠNone": 803,
      "Ġour": 804,
      "clud": 805,
      "ning": 806,
      "ms": 807,
      "Ġte": 808,
      "ĠâĢľ": 809,
      "port": 810,
      "Ġrec": 811,
      "ual": 812,
      "ater": 813,
      "iss": 814,
      "Ġ201": 815,
      "Ġsy": 816,
      "qual": 817,
      "ari": 818,
      "row": 819,
      "ient": 820,
      "Ġcol": 821,
      "ER": 822,
      "ns": 823,
      "ble": 824,
      "Ġdif": 825,
      "Ġnum": 826,
      "Ġunder": 827,
      "--------": 828,
      "**": 829,
      "...": 830,
      "Ġrequ": 831,
      "sh": 832,
      "ople": 833,
      "Ġph": 834,
      "arch": 835,
      "type": 836,
      "ec": 837,
      "cept": 838,
      "Ġsub": 839,
      "Ġ6": 840,
      "Ġfe": 841,
      "Ġact": 842,
      "roup": 843,
      "Ġ==": 844,
      "Ġsaid": 845,
      "path": 846,
      "ribut": 847,
      "Ġem": 848,
      "add": 849,
      "Ġits": 850,
      "ible": 851,
      "read": 852,
      "::": 853,
      "Ġdata": 854,
      "Ġpos": 855,
      "Ġthen": 856,
      "tt": 857,
      "====": 858,
      "ne": 859,
      "Ġname": 860,
      "Ġtwo": 861,
      "ont": 862,
      "les": 863,
      "ied": 864,
      "Ġinter": 865,
      "ov": 866,
      "Ġ19": 867,
      "lp": 868,
      "ĉĉ": 869,
      "\")": 870,
      "Ġra": 871,
      "class": 872,
      "tr": 873,
      "ade": 874,
      "ues": 875,
      "ough": 876,
      "te": 877,
      "atch": 878,
      "ĠIf": 879,
      "alse": 880,
      "Ġspec": 881,
      "ics": 882,
      "########": 883,
      "stem": 884,
      "Th": 885,
      "els": 886,
      "ful": 887,
      "ault": 888,
      "igh": 889,
      "Ġpeople": 890,
      "Ġdoes": 891,
      "Ġsee": 892,
      "Ġwant": 893,
      "Ġher": 894,
      "Ġform": 895,
      "Ġind": 896,
      "Ġcould": 897,
      "Ġresult": 898,
      "Ġim": 899,
      "Ġback": 900,
      "hed": 901,
      "Ġmake": 902,
      "day": 903,
      "uth": 904,
      "Ġ200": 905,
      "Ġx": 906,
      "ug": 907,
      "pr": 908,
      "IN": 909,
      "ethod": 910,
      "Ġcons": 911,
      "to": 912,
      "Ġdon": 913,
      "Ġelse": 914,
      "Ġwr": 915,
      "Ġbl": 916,
      "Ġatt": 917,
      "fore": 918,
      "Ġreg": 919,
      "Ġprov": 920,
      "Ġhelp": 921,
      "der": 922,
      "file": 923,
      "Ġthese": 924,
      "Ġrel": 925,
      "Ġmost": 926,
      "eg": 927,
      "True": 928,
      "ank": 929,
      "Ġinclud": 930,
      "ams": 931,
      "ense": 932,
      "Er": 933,
      "Ġlist": 934,
      "ating": 935,
      "Ġco": 936,
      "Ġlook": 937,
      "ian": 938,
      "Ġpar": 939,
      "Ġafter": 940,
      "Ġwhere": 941,
      "Ġthink": 942,
      "Ġcall": 943,
      "ĠčĊ": 944,
      "ĠWe": 945,
      "Âł": 946,
      "ss": 947,
      "ices": 948,
      "oth": 949,
      "fo": 950,
      "Ġused": 951,
      "Ġrem": 952,
      "rough": 953,
      "round": 954,
      "min": 955,
      "ments": 956,
      "aw": 957,
      "ON": 958,
      "ection": 959,
      "10": 960,
      "Ġeven": 961,
      "='": 962,
      "Ġdiffere": 963,
      "fig": 964,
      "Error": 965,
      "Ġbu": 966,
      "Ġbecause": 967,
      "uch": 968,
      "Ġgr": 969,
      "ities": 970,
      "Ġway": 971,
      "Ġi": 972,
      "Ġquest": 973,
      "Ġsupp": 974,
      "ser": 975,
      "Ġtry": 976,
      "enc": 977,
      "its": 978,
      "Ġvery": 979,
      "irect": 980,
      "Ġac": 981,
      "Ġstr": 982,
      "mer": 983,
      "ample": 984,
      "Ġshe": 985,
      "])": 986,
      "ract": 987,
      "ility": 988,
      "Ġdid": 989,
      "nce": 990,
      "ĠHe": 991,
      "urre": 992,
      "ason": 993,
      "ular": 994,
      "ource": 995,
      "Ġche": 996,
      "St": 997,
      "Ġsuch": 998,
      "Ġvalue": 999,
      "Ġstart": 1000,
      "Ġop": 1001,
      "line": 1002,
      "test": 1003,
      "ng": 1004,
      "Ġpub": 1005,
      "Ġ7": 1006,
      "other": 1007,
      "Ġfil": 1008,
      "oy": 1009,
      "data": 1010,
      "Ġevery": 1011,
      "ull": 1012,
      "ĠUn": 1013,
      "ee": 1014,
      "als": 1015,
      "ator": 1016,
      "ĠAnd": 1017,
      "Ġread": 1018,
      "Ġwell": 1019,
      "ures": 1020,
      "ative": 1021,
      "man": 1022,
      "Ġgood": 1023,
      "AT": 1024,
      "ased": 1025,
      "view": 1026,
      "Ġthrough": 1027,
      "Ġfind": 1028,
      "Ġpoint": 1029,
      "wn": 1030,
      "ident": 1031,
      "sw": 1032,
      "ames": 1033,
      "Ġmany": 1034,
      "Ġent": 1035,
      "cri": 1036,
      "Ġclass": 1037,
      "yp": 1038,
      "ting": 1039,
      "olog": 1040,
      "args": 1041,
      "erson": 1042,
      "Equal": 1043,
      "Ġnow": 1044,
      "ually": 1045,
      "Ġsame": 1046,
      "Ġend": 1047,
      "Ġprodu": 1048,
      "cont": 1049,
      "ood": 1050,
      "formation": 1051,
      "version": 1052,
      "Ġexp": 1053,
      "ĠĠĠĠĠĠĠĠĠĠĠĠĠĠĠĠĠĠĠĠĠĠĠĠĠĠĠĠĠĠĠĠ": 1054,
      "ages": 1055,
      "ES": 1056,
      "tern": 1057,
      "Ġ&": 1058,
      "Ġpol": 1059,
      "ational": 1060,
      "\":": 1061,
      "ash": 1062,
      "ev": 1063,
      "str": 1064,
      "ollow": 1065,
      "the": 1066,
      "Ġ10": 1067,
      "hat": 1068,
      "Ġright": 1069,
      "ef": 1070,
      ".\"": 1071,
      "Ġfile": 1072,
      "ruct": 1073,
      "Ġinv": 1074,
      "Ġ*": 1075,
      "ced": 1076,
      "Ġgener": 1077,
      "ines": 1078,
      "Ġfl": 1079,
      "Ġmuch": 1080,
      "Ġtrans": 1081,
      "Ġhere": 1082,
      "Ġsom": 1083,
      "Ġstate": 1084,
      "ĠYou": 1085,
      "Ġdist": 1086,
      "urrent": 1087,
      "ward": 1088,
      "=\"": 1089,
      "Ġtra": 1090,
      "Ġpass": 1091,
      "eter": 1092,
      "Ġsystem": 1093,
      "ower": 1094,
      "Ġplay": 1095,
      "Ġext": 1096,
      "cond": 1097,
      "ave": 1098,
      "AR": 1099,
      "Ġfield": 1100,
      "Ġ<": 1101,
      "Ġyears": 1102,
      "resent": 1103,
      "een": 1104,
      "ask": 1105,
      "ily": 1106,
      "Ġrun": 1107,
      "Ġusing": 1108,
      "12": 1109,
      "eng": 1110,
      "Ġsm": 1111,
      "Ġshow": 1112,
      "Ġ>": 1113,
      "ired": 1114,
      "ivers": 1115,
      "Ġfin": 1116,
      "Ġproble": 1117,
      "date": 1118,
      "Ġloc": 1119,
      "Ġdown": 1120,
      "olut": 1121,
      "Ġser": 1122,
      "Ġeach": 1123,
      "orld": 1124,
      "Ġhim": 1125,
      "IT": 1126,
      "ĠCom": 1127,
      "ince": 1128,
      "Ġ8": 1129,
      "Ġlong": 1130,
      "ited": 1131,
      "Ġed": 1132,
      "opy": 1133,
      "ner": 1134,
      "Ġnumber": 1135,
      "Ġdifferent": 1136,
      "ins": 1137,
      "led": 1138,
      "assertEqual": 1139,
      "io": 1140,
      "Ġdec": 1141,
      "Ġeff": 1142,
      "imes": 1143,
      "Ġbefore": 1144,
      "Ġcre": 1145,
      "ience": 1146,
      "Ġagain": 1147,
      "uring": 1148,
      "None": 1149,
      "Ġfollow": 1150,
      "Ġgiv": 1151,
      "Ġgu": 1152,
      "not": 1153,
      "fr": 1154,
      "Ġcour": 1155,
      "Ġmin": 1156,
      "Ġbeing": 1157,
      "aking": 1158,
      "ĠPro": 1159,
      "ever": 1160,
      "Ġ20": 1161,
      "\"\"\"": 1162,
      "Ġcor": 1163,
      "ware": 1164,
      "list": 1165,
      "ek": 1166,
      "field": 1167,
      "air": 1168,
      "OR": 1169,
      "ead": 1170,
      "ons": 1171,
      "py": 1172,
      "etween": 1173,
      "Ġthose": 1174,
      "Ġarg": 1175,
      "Ġline": 1176,
      "Ġconst": 1177,
      "ature": 1178,
      "Ġserv": 1179,
      "Ġ.": 1180,
      "import": 1181,
      "sc": 1182,
      "velop": 1183,
      "Ġbel": 1184,
      "Ġown": 1185,
      "ps": 1186,
      "ray": 1187,
      "000": 1188,
      "ars": 1189,
      "Ġtype": 1190,
      "Ġinformation": 1191,
      "Ġfunction": 1192,
      "pos": 1193,
      "eb": 1194,
      "init": 1195,
      "Ġav": 1196,
      "ier": 1197,
      "Ġhand": 1198,
      "Ġprogr": 1199,
      "hen": 1200,
      "etwork": 1201,
      "dd": 1202,
      "Ġlast": 1203,
      "Ġrese": 1204,
      "Ġbetween": 1205,
      "value": 1206,
      "ife": 1207,
      "://": 1208,
      "Ġhigh": 1209,
      "Ġmat": 1210,
      "bo": 1211,
      "arn": 1212,
      "Ġ__": 1213,
      "ponse": 1214,
      "ems": 1215,
      "Ġwhile": 1216,
      "Ġ`": 1217,
      "Ġfound": 1218,
      "alk": 1219,
      "chool": 1220,
      "right": 1221,
      "ĠBut": 1222,
      "ember": 1223,
      "ĠâĢĵ": 1224,
      "Ġcount": 1225,
      "ement": 1226,
      "ww": 1227,
      "EN": 1228,
      "ument": 1229,
      "ght": 1230,
      "raph": 1231,
      "Ġsay": 1232,
      "ify": 1233,
      "module": 1234,
      "Ġsign": 1235,
      "Ġbo": 1236,
      "Ġassert": 1237,
      "Ġpost": 1238,
      "Ġ9": 1239,
      "oin": 1240,
      "ĠAl": 1241,
      "Ġvari": 1242,
      "Ġtake": 1243,
      "Ġdel": 1244,
      "Ġcr": 1245,
      "let": 1246,
      "Ġmon": 1247,
      "Ġperson": 1248,
      "ody": 1249,
      "load": 1250,
      "ĠFor": 1251,
      "requ": 1252,
      "sible": 1253,
      "ren": 1254,
      "ters": 1255,
      "Ġ)": 1256,
      "11": 1257,
      "comm": 1258,
      "Ġ('": 1259,
      "Ġkey": 1260,
      "any": 1261,
      "Ġstill": 1262,
      "Ġ@": 1263,
      "Ġquestion": 1264,
      "It": 1265,
      "Ġansw": 1266,
      "Ġgreat": 1267,
      "Ġlog": 1268,
      "Ġsur": 1269,
      "Ġer": 1270,
      "Ġfact": 1271,
      "Ġprint": 1272,
      "ists": 1273,
      "ote": 1274,
      "20": 1275,
      "fil": 1276,
      "Ġgroup": 1277,
      "inst": 1278,
      "ĠEx": 1279,
      "Ġ}": 1280,
      "Ġter": 1281,
      "ale": 1282,
      "ized": 1283,
      "ĠAr": 1284,
      "son": 1285,
      "Ġdisc": 1286,
      "ape": 1287,
      "ST": 1288,
      "atic": 1289,
      "Ġmade": 1290,
      "Ġadv": 1291,
      "Ġask": 1292,
      "ather": 1293,
      "for": 1294,
      "AN": 1295,
      "ving": 1296,
      "db": 1297,
      "part": 1298,
      "log": 1299,
      "by": 1300,
      "Ġreally": 1301,
      "ĠPh": 1302,
      "Ġpap": 1303,
      "This": 1304,
      "Ġdirect": 1305,
      "Ġmight": 1306,
      "Ġke": 1307,
      "ven": 1308,
      ".,": 1309,
      "ml": 1310,
      "Ġboth": 1311,
      "iter": 1312,
      "Ġart": 1313,
      "ery": 1314,
      "Ġsupport": 1315,
      "Ġins": 1316,
      "Ġdev": 1317,
      "ĠQ": 1318,
      "Ġprocess": 1319,
      "ision": 1320,
      "pre": 1321,
      "Ġ|": 1322,
      "gan": 1323,
      "fl": 1324,
      "arent": 1325,
      "Ġwithout": 1326,
      "'m": 1327,
      "alth": 1328,
      "cent": 1329,
      "ĠTrue": 1330,
      "Ġmust": 1331,
      "back": 1332,
      "ache": 1333,
      "19": 1334,
      "ptions": 1335,
      "AL": 1336,
      "Ġcheck": 1337,
      "akes": 1338,
      "essage": 1339,
      "ets": 1340,
      "ished": 1341,
      "way": 1342,
      "att": 1343,
      "Ġobject": 1344,
      "anc": 1345,
      "Ġopen": 1346,
      "be": 1347,
      "ĠĠĠĠĠĠĠĠĠĠĠĠĠĠĠĠĠĠĠĠĠĠĠ": 1348,
      "olum": 1349,
      "ĠAn": 1350,
      "time": 1351,
      "Ġtop": 1352,
      "Ġvi": 1353,
      "Ġ/": 1354,
      "Ġcurrent": 1355,
      "ĠNew": 1356,
      "Ġchild": 1357,
      "ider": 1358,
      "ern": 1359,
      "bl": 1360,
      "iting": 1361,
      "ession": 1362,
      "Ġcase": 1363,
      "Ġdevelop": 1364,
      "ething": 1365,
      "ton": 1366,
      "Ġexper": 1367,
      "Ġappro": 1368,
      "pert": 1369,
      "'),": 1370,
      "Ġreal": 1371,
      "ĠĠĠĠĠĠĠĠĠ": 1372,
      "lease": 1373,
      "ĠSo": 1374,
      "Ġhead": 1375,
      "user": 1376,
      "ved": 1377,
      "32": 1378,
      "Ġexpect": 1379,
      "Ġsecond": 1380,
      "miss": 1381,
      "Ġcle": 1382,
      "ĠX": 1383,
      "dir": 1384,
      "pend": 1385,
      "ention": 1386,
      "ious": 1387,
      "Ġmethod": 1388,
      "Ġmark": 1389,
      "Ġrep": 1390,
      "Ġ--": 1391,
      ",\"": 1392,
      "ric": 1393,
      "========": 1394,
      "bers": 1395,
      "iversity": 1396,
      "Ġtoo": 1397,
      "Ġweek": 1398,
      "vir": 1399,
      "erest": 1400,
      "az": 1401,
      "hip": 1402,
      "Ġchar": 1403,
      "Ġbet": 1404,
      "SE": 1405,
      "text": 1406,
      "gg": 1407,
      "meric": 1408,
      "Ġday": 1409,
      "less": 1410,
      "Ġexpl": 1411,
      "ified": 1412,
      "chn": 1413,
      "RE": 1414,
      "ases": 1415,
      "Ġpartic": 1416,
      "Ġworld": 1417,
      "oci": 1418,
      "Ġallow": 1419,
      "nect": 1420,
      "Ġiss": 1421,
      "Ġap": 1422,
      "Ġdet": 1423,
      "ĠFalse": 1424,
      "Ġsomething": 1425,
      "Ġgoing": 1426,
      "nc": 1427,
      "icense": 1428,
      "append": 1429,
      "atus": 1430,
      "over": 1431,
      "Ġos": 1432,
      "Ġresearch": 1433,
      "Ġprogram": 1434,
      "Ġraise": 1435,
      "param": 1436,
      "ann": 1437,
      "Ġexcept": 1438,
      "Ġuser": 1439,
      "ailable": 1440,
      "Ġcontin": 1441,
      "elect": 1442,
      "ĠĠĠĠĠĠ": 1443,
      "ah": 1444,
      "Ġproblem": 1445,
      "uss": 1446,
      "uthor": 1447,
      "Ġfam": 1448,
      "ĠHow": 1449,
      "ants": 1450,
      "ĠSh": 1451,
      "__(": 1452,
      "inal": 1453,
      "Ġbest": 1454,
      "ute": 1455,
      "arly": 1456,
      "25": 1457,
      "Ġmed": 1458,
      "Ġtri": 1459,
      "Ġthree": 1460,
      "Ġversion": 1461,
      "----------------": 1462,
      "Ġstudents": 1463,
      "thing": 1464,
      "Ġfr": 1465,
      "fer": 1466,
      "gy": 1467,
      "Ġmodel": 1468,
      "ĠAs": 1469,
      "Ex": 1470,
      "here": 1471,
      "url": 1472,
      "$$": 1473,
      "object": 1474,
      "lect": 1475,
      "arget": 1476,
      "li": 1477,
      "ways": 1478,
      "Ġlead": 1479,
      "ope": 1480,
      "of": 1481,
      "ond": 1482,
      "Ġlet": 1483,
      "word": 1484,
      "Ġgl": 1485,
      "Ġanother": 1486,
      "################": 1487,
      "ids": 1488,
      "Ġhapp": 1489,
      "Ġfew": 1490,
      "Ġprovid": 1491,
      "Ġsince": 1492,
      "util": 1493,
      "LE": 1494,
      "Ġsk": 1495,
      "stand": 1496,
      "Ġz": 1497,
      "uc": 1498,
      "Ġdefault": 1499,
      "([": 1500,
      "Ġcar": 1501,
      "cription": 1502,
      "ception": 1503,
      "oad": 1504,
      "lement": 1505,
      "play": 1506,
      "ness": 1507,
      "Ġproject": 1508,
      "Ġ{'": 1509,
      "ength": 1510,
      "'re": 1511,
      "ology": 1512,
      "ference": 1513,
      "ably": 1514,
      "ĠRe": 1515,
      "land": 1516,
      "ĠĠĠĠĠĠĠĠĠĠĠĠĠĠĠĠĠĠ": 1517,
      ".âĢĿ": 1518,
      "Ġinterest": 1519,
      "Ġaround": 1520,
      "Ġmem": 1521,
      "ten": 1522,
      "Ġlevel": 1523,
      "roid": 1524,
      "Ġgiven": 1525,
      "Ġprof": 1526,
      "30": 1527,
      "Ġcare": 1528,
      "Ġpublic": 1529,
      "que": 1530,
      "Ġexample": 1531,
      "If": 1532,
      "ither": 1533,
      "ared": 1534,
      "ĠAmeric": 1535,
      "Ġschool": 1536,
      "Pro": 1537,
      "iness": 1538,
      "Ġpath": 1539,
      "urs": 1540,
      "ined": 1541,
      "ially": 1542,
      "Ġmain": 1543,
      "Test": 1544,
      "ically": 1545,
      "ered": 1546,
      "Ġthings": 1547,
      "Ġsure": 1548,
      "âĢ¢": 1549,
      "Ġcourse": 1550,
      "Ġreport": 1551,
      "Ġsim": 1552,
      "rol": 1553,
      "Ġanswer": 1554,
      "Field": 1555,
      "Ch": 1556,
      "ural": 1557,
      "ma": 1558,
      "Ġ12": 1559,
      "ccess": 1560,
      "Ġbetter": 1561,
      "Ġbook": 1562,
      "Ġrequest": 1563,
      "{\\": 1564,
      "sp": 1565,
      "Ġreason": 1566,
      "Ġeas": 1567,
      "50": 1568,
      "Ġorder": 1569,
      "Ġide": 1570,
      "dict": 1571,
      "IC": 1572,
      "False": 1573,
      "Ġlot": 1574,
      "vert": 1575,
      "Ġnext": 1576,
      "'ve": 1577,
      "ouse": 1578,
      "Ġduring": 1579,
      "oh": 1580,
      "sy": 1581,
      "Ġapplic": 1582,
      "lex": 1583,
      "reg": 1584,
      "ism": 1585,
      "ret": 1586,
      "ĠThey": 1587,
      "ats": 1588,
      "orth": 1589,
      "uff": 1590,
      "Ġcommun": 1591,
      "ittle": 1592,
      "wr": 1593,
      "olution": 1594,
      "16": 1595,
      "Ġmet": 1596,
      "Ġstand": 1597,
      "Ġoper": 1598,
      "Ġtem": 1599,
      "Ġsmall": 1600,
      "Ġbuild": 1601,
      "ey": 1602,
      "ID": 1603,
      "Ġchang": 1604,
      "Ġtext": 1605,
      "Ġold": 1606,
      "ization": 1607,
      "info": 1608,
      "Ġvis": 1609,
      "''": 1610,
      "arm": 1611,
      "////": 1612,
      "ĠCon": 1613,
      "ango": 1614,
      "ves": 1615,
      "Ġequ": 1616,
      "Ġbus": 1617,
      "Ġbr": 1618,
      "Ġplace": 1619,
      "Ġgot": 1620,
      "Ġavailable": 1621,
      "ĠThere": 1622,
      "nal": 1623,
      "Ġput": 1624,
      "ĠWh": 1625,
      "ready": 1626,
      "ains": 1627,
      "Ġlife": 1628,
      "ross": 1629,
      "Ġcent": 1630,
      "ĠCl": 1631,
      "Ġpat": 1632,
      "||": 1633,
      "Ġnon": 1634,
      "We": 1635,
      "ger": 1636,
      "'):": 1637,
      "ought": 1638,
      "Ġbre": 1639,
      "Ġpaper": 1640,
      "we": 1641,
      "ypes": 1642,
      "():": 1643,
      "Ġhome": 1644,
      "me": 1645,
      "ĠĠĠĠĠĠĠĠĠĠĠĠĠĠĠĠĠĠĠĠĠĠĠĠ": 1646,
      "Ġpri": 1647,
      "Ġproduct": 1648,
      "ertain": 1649,
      "Ġ18": 1650,
      "Ġeffect": 1651,
      "ives": 1652,
      "Ġrece": 1653,
      "code": 1654,
      "Ġsimp": 1655,
      "reen": 1656,
      "ately": 1657,
      "jango": 1658,
      "count": 1659,
      "org": 1660,
      "ustom": 1661,
      "ĠZ": 1662,
      "Ġsl": 1663,
      "Ġhard": 1664,
      "bs": 1665,
      "ream": 1666,
      "Ġsuper": 1667,
      "15": 1668,
      "fe": 1669,
      "Ġdesign": 1670,
      "Ġless": 1671,
      "ency": 1672,
      "viron": 1673,
      "Ġchange": 1674,
      "Ġns": 1675,
      "ik": 1676,
      "Ġfree": 1677,
      "Ġpossible": 1678,
      "Ġkeep": 1679,
      "Ġalways": 1680,
      "Ġhtt": 1681,
      "Ġincre": 1682,
      "icle": 1683,
      "method": 1684,
      "Ġwon": 1685,
      "Ġprob": 1686,
      "sub": 1687,
      "ails": 1688,
      "mp": 1689,
      "64": 1690,
      "fun": 1691,
      "vious": 1692,
      "Ġmult": 1693,
      "lish": 1694,
      "config": 1695,
      "UT": 1696,
      "Ġcho": 1697,
      "new": 1698,
      "Ġlittle": 1699,
      "âĢľ": 1700,
      "Ġmean": 1701,
      "ĠIs": 1702,
      "itions": 1703,
      "Ġpower": 1704,
      "201": 1705,
      "riend": 1706,
      "ts": 1707,
      "ĠLicense": 1708,
      "thon": 1709,
      "[\"": 1710,
      "Ġspecific": 1711,
      "Ġmonth": 1712,
      "].": 1713,
      "ribute": 1714,
      "Ġalready": 1715,
      "comp": 1716,
      "tings": 1717,
      "Ġtechn": 1718,
      "Ġet": 1719,
      "Ġview": 1720,
      "oss": 1721,
      "99": 1722,
      "14": 1723,
      "Ġcode": 1724,
      "ĠAll": 1725,
      "oid": 1726,
      "yle": 1727,
      "13": 1728,
      "Ġnever": 1729,
      "abel": 1730,
      "Ġdoesn": 1731,
      "ublic": 1732,
      "AS": 1733,
      "itle": 1734,
      "Ġdi": 1735,
      "size": 1736,
      "Ġfollowing": 1737,
      "num": 1738,
      "Ġturn": 1739,
      "Ġpresent": 1740,
      "Ġoutput": 1741,
      "ron": 1742,
      "aj": 1743,
      "default": 1744,
      "group": 1745,
      "Ġspe": 1746,
      "mat": 1747,
      "Ġword": 1748,
      "uck": 1749,
      "\".": 1750,
      "ples": 1751,
      "med": 1752,
      "instance": 1753,
      "head": 1754,
      "Ġperform": 1755,
      "state": 1756,
      "Ġca": 1757,
      "Ġphone": 1758,
      "ole": 1759,
      "Ġlim": 1760,
      "ĠUS": 1761,
      "Ġjob": 1762,
      "ftware": 1763,
      "ived": 1764,
      "ET": 1765,
      "Ġable": 1766,
      "ĠSc": 1767,
      "Ġaccess": 1768,
      "Ġgive": 1769,
      "col": 1770,
      "ability": 1771,
      "alue": 1772,
      "net": 1773,
      "}}": 1774,
      "Ġmodule": 1775,
      "ogle": 1776,
      "arge": 1777,
      "18": 1778,
      "Ġgame": 1779,
      "Type": 1780,
      "ĠPl": 1781,
      "Ġimportant": 1782,
      "Ġest": 1783,
      "ĠSe": 1784,
      "met": 1785,
      "Ġappe": 1786,
      "Ġlaw": 1787,
      "Ġorig": 1788,
      "ining": 1789,
      "htt": 1790,
      "format": 1791,
      "Ġcalled": 1792,
      "rect": 1793,
      ".__": 1794,
      "ety": 1795,
      "ED": 1796,
      "start": 1797,
      "Ġresults": 1798,
      "ital": 1799,
      "place": 1800,
      "ird": 1801,
      "Ġincluding": 1802,
      "_{": 1803,
      "Ġsit": 1804,
      "Ġrecord": 1805,
      "ler": 1806,
      "Ġsol": 1807,
      "Ġdoc": 1808,
      "AM": 1809,
      "orn": 1810,
      "Ġwhy": 1811,
      "Ġcome": 1812,
      ",âĢĿ": 1813,
      "aps": 1814,
      "Ġnp": 1815,
      "Con": 1816,
      "AC": 1817,
      "Ġlen": 1818,
      "mb": 1819,
      "Ġfull": 1820,
      "Ġsing": 1821,
      "aces": 1822,
      "ename": 1823,
      "200": 1824,
      "ential": 1825,
      "Ġur": 1826,
      "Ġlink": 1827,
      "Ġaut": 1828,
      "face": 1829,
      "Ġcontext": 1830,
      "RO": 1831,
      "Ġplan": 1832,
      "run": 1833,
      "Ġagainst": 1834,
      "angu": 1835,
      "arning": 1836,
      "vent": 1837,
      "Ġsays": 1838,
      "Ġcond": 1839,
      "Ġfeel": 1840,
      "Ġgover": 1841,
      "aster": 1842,
      "indow": 1843,
      "Ġunderstand": 1844,
      "fields": 1845,
      "Ġbig": 1846,
      "ĠDe": 1847,
      "oot": 1848,
      "dis": 1849,
      "Ġreview": 1850,
      "itor": 1851,
      "Ġeither": 1852,
      "ploy": 1853,
      "ries": 1854,
      "You": 1855,
      "lished": 1856,
      "rel": 1857,
      "ĠFr": 1858,
      "Ġleast": 1859,
      "ables": 1860,
      "Ġpres": 1861,
      "Ġwater": 1862,
      "Ġunt": 1863,
      "ush": 1864,
      "ises": 1865,
      "Ġrequired": 1866,
      "ration": 1867,
      "Ġcou": 1868,
      "wargs": 1869,
      "Ġcopy": 1870,
      "ively": 1871,
      "ĠRes": 1872,
      "andom": 1873,
      "ION": 1874,
      "Ġcreate": 1875,
      "no": 1876,
      "ĠOr": 1877,
      "Ġbeh": 1878,
      "ality": 1879,
      "ags": 1880,
      "Ġresponse": 1881,
      "ĠThat": 1882,
      "Re": 1883,
      "idd": 1884,
      "string": 1885,
      "Ġbas": 1886,
      "Ġdevice": 1887,
      "cle": 1888,
      "raw": 1889,
      "mon": 1890,
      "math": 1891,
      "duct": 1892,
      "Ġhealth": 1893,
      "Ġevent": 1894,
      "itional": 1895,
      "Ġref": 1896,
      "Ġhum": 1897,
      "Ġvalues": 1898,
      "Ġoption": 1899,
      "ently": 1900,
      "Ġelif": 1901,
      "ches": 1902,
      "max": 1903,
      "Ġdri": 1904,
      "Ġ[]": 1905,
      "inter": 1906,
      "itive": 1907,
      "Ġopp": 1908,
      "use": 1909,
      "perty": 1910,
      "join": 1911,
      "Ġconfig": 1912,
      "\"]": 1913,
      "icy": 1914,
      "models": 1915,
      "ops": 1916,
      "Ġbelie": 1917,
      "0000": 1918,
      "Ġdat": 1919,
      "Ġgrad": 1920,
      "uture": 1921,
      "ivid": 1922,
      "ources": 1923,
      "Ġparam": 1924,
      "Ġ15": 1925,
      "my": 1926,
      "co": 1927,
      "Ġsize": 1928,
      "Ġconf": 1929,
      "Ġpur": 1930,
      "Ġcal": 1931,
      "'}": 1932,
      "illion": 1933,
      "Ġ**": 1934,
      "ĠInd": 1935,
      "Ġdone": 1936,
      "Ġrange": 1937,
      "Ġlocal": 1938,
      "nection": 1939,
      "ty": 1940,
      "osed": 1941,
      "ots": 1942,
      "Ġleft": 1943,
      "ards": 1944,
      "ules": 1945,
      "Ġinput": 1946,
      "Ġteam": 1947,
      "17": 1948,
      "For": 1949,
      "loc": 1950,
      "ĠWhat": 1951,
      "rem": 1952,
      "Ġlik": 1953,
      "Ġthing": 1954,
      "ised": 1955,
      "Ġbased": 1956,
      "24": 1957,
      "ored": 1958,
      "Ġtalk": 1959,
      "ott": 1960,
      "Ġfour": 1961,
      "ral": 1962,
      "ured": 1963,
      "Ġ2012": 1964,
      "Ġrest": 1965,
      "Ġsource": 1966,
      "und": 1967,
      "Ġpop": 1968,
      "ium": 1969,
      "To": 1970,
      "ister": 1971,
      "Ġnetwork": 1972,
      "Ġinclude": 1973,
      "oogle": 1974,
      "Ġworking": 1975,
      "Ġorgan": 1976,
      "Ġbusiness": 1977,
      "ager": 1978,
      "const": 1979,
      "Ġdistribut": 1980,
      "())": 1981,
      "attr": 1982,
      "Ġinstall": 1983,
      "ging": 1984,
      "plit": 1985,
      "ateg": 1986,
      "Ġpay": 1987,
      "empt": 1988,
      "ulation": 1989,
      "ands": 1990,
      "Ġenough": 1991,
      "adem": 1992,
      "Ġleg": 1993,
      "Ġpage": 1994,
      "Ġwithin": 1995,
      "Ġoften": 1996,
      "ering": 1997,
      "As": 1998,
      "most": 1999,
      "Ġhist": 2000,
      "eturn": 2001,
      "ances": 2002,
      "Ġcls": 2003,
      "Ġkind": 2004,
      "'],": 2005,
      "mission": 2006,
      "pped": 2007,
      "ĠSp": 2008,
      "Ġarea": 2009,
      "âĢĶ": 2010,
      "ling": 2011,
      "Ġstring": 2012,
      "uild": 2013,
      "Ġtimes": 2014,
      "Ġbro": 2015,
      "Ġstudent": 2016,
      "plic": 2017,
      "ete": 2018,
      "Ġelect": 2019,
      "roll": 2020,
      "Ġdict": 2021,
      "Ġpack": 2022,
      "Ġaff": 2023,
      "aut": 2024,
      "Com": 2025,
      "Ġenc": 2026,
      "md": 2027,
      "action": 2028,
      "ĠTo": 2029,
      "Ġwhether": 2030,
      "Ġexpected": 2031,
      "hes": 2032,
      "Ġgovern": 2033,
      "rec": 2034,
      "Ġocc": 2035,
      "Ġsum": 2036,
      "Ġcomput": 2037,
      "Ġaccount": 2038,
      "ĠâĢĶ": 2039,
      "Ġaddress": 2040,
      "Ġport": 2041,
      "aterial": 2042,
      "tain": 2043,
      "Ġcharact": 2044,
      "22": 2045,
      "ideo": 2046,
      "Ġdidn": 2047,
      "vironment": 2048,
      "Ġservice": 2049,
      "Ġ...": 2050,
      "Ġ+=": 2051,
      "ights": 2052,
      "Ġ##": 2053,
      "ression": 2054,
      "Ġuntil": 2055,
      "Ġactually": 2056,
      "'ll": 2057,
      "Ġthough": 2058,
      "ibr": 2059,
      "wh": 2060,
      "create": 2061,
      "cript": 2062,
      "call": 2063,
      "used": 2064,
      "check": 2065,
      "ours": 2066,
      "Ġ[],": 2067,
      "Ġ$$": 2068,
      "valid": 2069,
      "Ġ16": 2070,
      "atures": 2071,
      "rop": 2072,
      "omen": 2073,
      "Ġgrow": 2074,
      "Ġident": 2075,
      "write": 2076,
      "Ġfriend": 2077,
      "ension": 2078,
      "Ġcost": 2079,
      "Ġtell": 2080,
      "Ġsw": 2081,
      "Ġfar": 2082,
      "Ġmax": 2083,
      "Ġve": 2084,
      "IS": 2085,
      "40": 2086,
      "ensor": 2087,
      ">>": 2088,
      "yn": 2089,
      "Cl": 2090,
      "ormal": 2091,
      "index": 2092,
      "Ġexperience": 2093,
      "amb": 2094,
      "request": 2095,
      "ĠOn": 2096,
      "cur": 2097,
      "Ġprot": 2098,
      "Ġfiles": 2099,
      "Ġmeans": 2100,
      "Get": 2101,
      "del": 2102,
      "Ġinit": 2103,
      "Ġsugg": 2104,
      "Ġdays": 2105,
      "Ġabove": 2106,
      "Ġsuggest": 2107,
      "Ġ{}": 2108,
      "Ġexist": 2109,
      "DE": 2110,
      "Ġbit": 2111,
      "bin": 2112,
      "Ġhaving": 2113,
      "Ġauthor": 2114,
      "serv": 2115,
      "What": 2116,
      "Ġmove": 2117,
      "Ġprovide": 2118,
      "outh": 2119,
      "****": 2120,
      "Ġanal": 2121,
      "ortun": 2122,
      "ks": 2123,
      "ories": 2124,
      "Ġshort": 2125,
      "Ġsite": 2126,
      "Ġchildren": 2127,
      "Ġerror": 2128,
      "anguage": 2129,
      "host": 2130,
      "Ġdoing": 2131,
      "(),": 2132,
      "Ġcertain": 2133,
      "Ġrespon": 2134,
      "Ġsuccess": 2135,
      "eters": 2136,
      "Ġlater": 2137,
      "Ġ,": 2138,
      "OT": 2139,
      "off": 2140,
      "Ġbody": 2141,
      "array": 2142,
      "Ġstudy": 2143,
      "Ġparticular": 2144,
      "UR": 2145,
      "Ġes": 2146,
      "cher": 2147,
      "ended": 2148,
      "Ġcontrol": 2149,
      "len": 2150,
      "ĠNo": 2151,
      "Ġcolle": 2152,
      "ides": 2153,
      "conom": 2154,
      "ĠUniversity": 2155,
      "oney": 2156,
      "fix": 2157,
      "Ġinc": 2158,
      "Ġactiv": 2159,
      "frac": 2160,
      "with": 2161,
      "Ġcustom": 2162,
      "Ġstep": 2163,
      "Ġlarge": 2164,
      "Ġfail": 2165,
      "Ġ!": 2166,
      "Ġfamily": 2167,
      "ique": 2168,
      "Ġhost": 2169,
      "ĠWhen": 2170,
      "ĠMay": 2171,
      "Ġeng": 2172,
      "How": 2173,
      "Ġsever": 2174,
      "ING": 2175,
      "por": 2176,
      "upp": 2177,
      "Ġ['": 2178,
      "iod": 2179,
      "rain": 2180,
      "Ġcontain": 2181,
      "Ġ11": 2182,
      "ane": 2183,
      "Ġparent": 2184,
      "cer": 2185,
      "Ġaction": 2186,
      "ĠBe": 2187,
      "odes": 2188,
      "Ġcommon": 2189,
      "ĠCol": 2190,
      "rist": 2191,
      "Ġquestions": 2192,
      "ording": 2193,
      "ĠAd": 2194,
      "ĠBl": 2195,
      "Ġthought": 2196,
      "Ġconnect": 2197,
      "Ġcap": 2198,
      "ched": 2199,
      "ification": 2200,
      "plate": 2201,
      "Ġspecial": 2202,
      "ĠShe": 2203,
      "ajor": 2204,
      "Ġconsider": 2205,
      "ators": 2206,
      ".)": 2207,
      "Ġ30": 2208,
      "ournal": 2209,
      "Ġalong": 2210,
      "}{": 2211,
      "Ġpast": 2212,
      "Ġimage": 2213,
      "HE": 2214,
      "ĠBr": 2215,
      "Ġpoints": 2216,
      "Is": 2217,
      "Ġmessage": 2218,
      "ilar": 2219,
      "Ġpercent": 2220,
      "Ġdepend": 2221,
      "Add": 2222,
      "ta": 2223,
      "Name": 2224,
      "ding": 2225,
      ".\"\"\"": 2226,
      "gin": 2227,
      "Ġcontent": 2228,
      "Ġprobably": 2229,
      "side": 2230,
      "Ġtarget": 2231,
      "Ġseveral": 2232,
      "result": 2233,
      "loat": 2234,
      "www": 2235,
      "work": 2236,
      "Ġhttp": 2237,
      "80": 2238,
      "uation": 2239,
      "Ġfac": 2240,
      "Ġpract": 2241,
      "Ġsingle": 2242,
      "des": 2243,
      "Ġann": 2244,
      "doc": 2245,
      "ĠAN": 2246,
      "itut": 2247,
      "aim": 2248,
      "IL": 2249,
      "Ġpy": 2250,
      "utils": 2251,
      "And": 2252,
      "AP": 2253,
      "Ġseason": 2254,
      "obj": 2255,
      "Ġmiss": 2256,
      "Ġroot": 2257,
      "Cont": 2258,
      "ayer": 2259,
      "34": 2260,
      "Ġwrite": 2261,
      "Ġmus": 2262,
      "context": 2263,
      "da": 2264,
      "alf": 2265,
      "oved": 2266,
      "ift": 2267,
      "return": 2268,
      "Ġside": 2269,
      "OM": 2270,
      "inc": 2271,
      "ending": 2272,
      "60": 2273,
      "Ġexc": 2274,
      "Ġdr": 2275,
      "Ġmaking": 2276,
      "ctor": 2277,
      "Ġlearn": 2278,
      "acy": 2279,
      "Ġdesc": 2280,
      "Ġtot": 2281,
      "amples": 2282,
      "Ġdiscuss": 2283,
      "AB": 2284,
      "</": 2285,
      "uro": 2286,
      "obal": 2287,
      "ĠHowever": 2288,
      "ĠTr": 2289,
      "Ġimpro": 2290,
      "ĠEng": 2291,
      "Ġgeneral": 2292,
      "http": 2293,
      "Ġmaterial": 2294,
      "Ġothers": 2295,
      "Ġlow": 2296,
      "Ġoptions": 2297,
      "ait": 2298,
      "Ġmeet": 2299,
      "ref": 2300,
      "point": 2301,
      "Ġaccept": 2302,
      "Ġmeas": 2303,
      "Ġseems": 2304,
      "``": 2305,
      "Ġpot": 2306,
      "ĠCent": 2307,
      "Ġaway": 2308,
      "uments": 2309,
      "Res": 2310,
      "Ġ14": 2311,
      "Ġissue": 2312,
      "'])": 2313,
      "gs": 2314,
      "Ġinstance": 2315,
      "mitt": 2316,
      "olume": 2317,
      "Ġblock": 2318,
      "lete": 2319,
      "Set": 2320,
      "ĠMy": 2321,
      "Ġlooking": 2322,
      "omet": 2323,
      "Ġben": 2324,
      "Ġtrue": 2325,
      "Ġwin": 2326,
      "print": 2327,
      "Un": 2328,
      "cul": 2329,
      "Ġprom": 2330,
      "Ġtable": 2331,
      "Ġmakes": 2332,
      "ients": 2333,
      "Ġsomeone": 2334,
      "Ġinvest": 2335,
      "Ġlove": 2336,
      "Ġemail": 2337,
      "Ġsearch": 2338,
      "Ġoffic": 2339,
      "Ġnode": 2340,
      "ones": 2341,
      "ĠGener": 2342,
      "ina": 2343,
      "Ġcorrect": 2344,
      "An": 2345,
      "Al": 2346,
      "iple": 2347,
      "Ġid": 2348,
      "arr": 2349,
      "Ġ17": 2350,
      "Ġselect": 2351,
      "ged": 2352,
      "ox": 2353,
      "Ġspace": 2354,
      "ocial": 2355,
      "params": 2356,
      "There": 2357,
      "CT": 2358,
      "Ġsoftware": 2359,
      "Ġmen": 2360,
      "Ġrepresent": 2361,
      "vis": 2362,
      "Ġknown": 2363,
      "^{": 2364,
      "Ġopt": 2365,
      "ĠApp": 2366,
      "Ġair": 2367,
      "verse": 2368,
      "Ġcompany": 2369,
      "aff": 2370,
      "Ġcontact": 2371,
      "Ġlight": 2372,
      "atter": 2373,
      "Ġbreak": 2374,
      "Ġphot": 2375,
      "Ġcountry": 2376,
      "ero": 2377,
      "resh": 2378,
      "aring": 2379,
      "Ġ$\\": 2380,
      "Ġposition": 2381,
      "django": 2382,
      "Ġmajor": 2383,
      "âĢ¦": 2384,
      "rix": 2385,
      "Ġhappen": 2386,
      "Ġdiff": 2387,
      "Ġtoday": 2388,
      "Ġgetting": 2389,
      "Wh": 2390,
      "anks": 2391,
      "Ġbase": 2392,
      "ump": 2393,
      "ĠAmerican": 2394,
      "Ġ2013": 2395,
      "33": 2396,
      "Mod": 2397,
      "ior": 2398,
      "heck": 2399,
      "But": 2400,
      "ences": 2401,
      "book": 2402,
      "Ġ199": 2403,
      "ffic": 2404,
      "Ġfood": 2405,
      "Ġanything": 2406,
      "Ġrequire": 2407,
      "ĠAt": 2408,
      "Ġener": 2409,
      "imal": 2410,
      "Ġworks": 2411,
      "Ġcell": 2412,
      "Ġ100": 2413,
      "ury": 2414,
      "node": 2415,
      "pper": 2416,
      "ĠĠĠĠĠĠĠĠĠĠĠĠĠĠĠĠĠĠĠĠĠĠĠĠĠĠĠ": 2417,
      "kwargs": 2418,
      "ĠSy": 2419,
      "fect": 2420,
      "'d": 2421,
      "Ġmatch": 2422,
      "ividual": 2423,
      "ĠNot": 2424,
      "IM": 2425,
      "Ġredu": 2426,
      "Ġonce": 2427,
      "}$": 2428,
      "Ġinvol": 2429,
      "Ġphys": 2430,
      "Ġsimilar": 2431,
      "ĠAndroid": 2432,
      "iving": 2433,
      "ctions": 2434,
      "Ġdeter": 2435,
      "Ġ!=": 2436,
      "Ġcannot": 2437,
      "model": 2438,
      "ĠMan": 2439,
      "status": 2440,
      "ites": 2441,
      "Ġred": 2442,
      "Ġidea": 2443,
      "error": 2444,
      "Ġhig": 2445,
      "Ġfields": 2446,
      "isk": 2447,
      "Ġsal": 2448,
      "Ġproblems": 2449,
      "input": 2450,
      "urther": 2451,
      "ENT": 2452,
      "Ġhold": 2453,
      "Ġlikely": 2454,
      "Ġcommand": 2455,
      "Ġdescription": 2456,
      "Ġstruct": 2457,
      "ĠÂ": 2458,
      "Ġabs": 2459,
      "pri": 2460,
      "pping": 2461,
      "etime": 2462,
      "Ġ25": 2463,
      "ecut": 2464,
      "Ġyet": 2465,
      "oding": 2466,
      "fact": 2467,
      "Ġmarket": 2468,
      "Ġ13": 2469,
      "Ġcontinue": 2470,
      "ĠCan": 2471,
      "Ġrather": 2472,
      "Ġseen": 2473,
      "Ġetc": 2474,
      "Ġtreat": 2475,
      "br": 2476,
      "ike": 2477,
      "ley": 2478,
      "Ġgovernment": 2479,
      "update": 2480,
      "IG": 2481,
      "itch": 2482,
      "ĠDo": 2483,
      "Ġrele": 2484,
      "nces": 2485,
      "uate": 2486,
      "verage": 2487,
      "spec": 2488,
      "Ġcomplet": 2489,
      "Ġmodels": 2490,
      "Ġbecome": 2491,
      "dev": 2492,
      "ĠTe": 2493,
      "ires": 2494,
      "ĠJoh": 2495,
      "aken": 2496,
      "Ġneeds": 2497,
      "ĠTest": 2498,
      "rap": 2499,
      "Ġstrong": 2500,
      "mit": 2501,
      "arl": 2502,
      "ibility": 2503,
      "Ġpress": 2504,
      "une": 2505,
      "UL": 2506,
      "So": 2507,
      "Ġbad": 2508,
      "api": 2509,
      "ĠLe": 2510,
      "Ġdeg": 2511,
      "Ar": 2512,
      "ising": 2513,
      "Ġ->": 2514,
      "Ġoriginal": 2515,
      "Ġsys": 2516,
      "Ġfuture": 2517,
      "Ġcreat": 2518,
      "Ġseem": 2519,
      "imate": 2520,
      "Ġeduc": 2521,
      "Ġfore": 2522,
      "do": 2523,
      "itical": 2524,
      "Ġtoget": 2525,
      "Ġhuman": 2526,
      "lib": 2527,
      "Ġnames": 2528,
      "Ġtogether": 2529,
      "ple": 2530,
      "Ġsent": 2531,
      "mark": 2532,
      "tem": 2533,
      "ony": 2534,
      "Ġmoney": 2535,
      "ĠCont": 2536,
      "Ġmembers": 2537,
      "Ġever": 2538,
      "ograph": 2539,
      "dat": 2540,
      "ilt": 2541,
      "AD": 2542,
      "json": 2543,
      "CH": 2544,
      "itten": 2545,
      "idence": 2546,
      "Ġcommunity": 2547,
      "Ġbelow": 2548,
      "output": 2549,
      "Ġenergy": 2550,
      "27": 2551,
      "client": 2552,
      "Ġmanag": 2553,
      "Ġeconom": 2554,
      "ills": 2555,
      "ĠGoogle": 2556,
      "23": 2557,
      "Ġgen": 2558,
      "Ġlab": 2559,
      "Ġindividual": 2560,
      "though": 2561,
      "âĢĵ": 2562,
      "Ġemploy": 2563,
      "Ġ2011": 2564,
      "Ġcame": 2565,
      "().": 2566,
      "Ġcir": 2567,
      "================": 2568,
      "'\\": 2569,
      "ips": 2570,
      "tes": 2571,
      "Value": 2572,
      "Ġtrying": 2573,
      "erc": 2574,
      "wards": 2575,
      "Ġcur": 2576,
      "Ġprevious": 2577,
      "Ġenvironment": 2578,
      "Ġdest": 2579,
      "parse": 2580,
      "Ġmil": 2581,
      "order": 2582,
      "eral": 2583,
      "ĠRep": 2584,
      "core": 2585,
      "Ġago": 2586,
      "bug": 2587,
      "'.": 2588,
      "left": 2589,
      "Ġdom": 2590,
      "length": 2591,
      "Ġtool": 2592,
      "sg": 2593,
      "____": 2594,
      "!!": 2595,
      "ĠPhD": 2596,
      "Ġitem": 2597,
      "Ġfoc": 2598,
      "ĠMar": 2599,
      "icult": 2600,
      "mber": 2601,
      "ds": 2602,
      "List": 2603,
      "Ġinstead": 2604,
      "Ġonline": 2605,
      "Ġpublished": 2606,
      "Ġdou": 2607,
      "Ġrecomm": 2608,
      "Ġisn": 2609,
      "Ġurl": 2610,
      "ĠSee": 2611,
      "Ġearly": 2612,
      "avor": 2613,
      "Ġterms": 2614,
      "Ġnecess": 2615,
      "Ġsound": 2616,
      "Ġdescrib": 2617,
      "wise": 2618,
      "ĠChrist": 2619,
      "html": 2620,
      "Ġload": 2621,
      "Not": 2622,
      "Ġsimple": 2623,
      "map": 2624,
      "Ġ``": 2625,
      "egr": 2626,
      "ĠOne": 2627,
      "network": 2628,
      "cr": 2629,
      "osp": 2630,
      "tty": 2631,
      "ination": 2632,
      "Ġla": 2633,
      "ĠThese": 2634,
      "uration": 2635,
      "Ġassum": 2636,
      "hand": 2637,
      "AG": 2638,
      "ney": 2639,
      "root": 2640,
      "Ġpred": 2641,
      "Ġmillion": 2642,
      "Ġperiod": 2643,
      "Ġvalid": 2644,
      "On": 2645,
      "sel": 2646,
      "item": 2647,
      "hing": 2648,
      "Ġindex": 2649,
      "Ġpo": 2650,
      "idth": 2651,
      "Ġwebs": 2652,
      "ians": 2653,
      "Ġstory": 2654,
      "Ġclear": 2655,
      "Ġapplication": 2656,
      "imum": 2657,
      "Ġcomment": 2658,
      "Ġprovided": 2659,
      "((": 2660,
      "trans": 2661,
      "29": 2662,
      "Ġsort": 2663,
      "oms": 2664,
      "Ġamount": 2665,
      "Ġmag": 2666,
      "Ġseries": 2667,
      "Ġnight": 2668,
      "ĠState": 2669,
      "ĠAss": 2670,
      "Ġtask": 2671,
      "uid": 2672,
      "Ġdue": 2673,
      "Ġdeal": 2674,
      "nter": 2675,
      "ux": 2676,
      "Ġlarg": 2677,
      "Ġvideo": 2678,
      "Ġargs": 2679,
      "split": 2680,
      "ĠCal": 2681,
      "ama": 2682,
      "Ġrad": 2683,
      "enn": 2684,
      "af": 2685,
      "Ġwriting": 2686,
      "},": 2687,
      "Id": 2688,
      "Ġerr": 2689,
      "Ġindust": 2690,
      "Ġver": 2691,
      "Ġapply": 2692,
      "avi": 2693,
      "US": 2694,
      "Ġdetails": 2695,
      "base": 2696,
      "Ġtook": 2697,
      "})": 2698,
      "Ġclose": 2699,
      "Ġlanguage": 2700,
      "ĠUnited": 2701,
      "ĠâĢĺ": 2702,
      "Ġhope": 2703,
      "Ġprofess": 2704,
      "ung": 2705,
      "amed": 2706,
      "Ġadded": 2707,
      "}\\": 2708,
      "pack": 2709,
      "All": 2710,
      "Ġquite": 2711,
      "body": 2712,
      "Sh": 2713,
      "Ġcut": 2714,
      "orage": 2715,
      "28": 2716,
      "Ġsubject": 2717,
      "Ġdocument": 2718,
      "year": 2719,
      "Ġtotal": 2720,
      "Ġfix": 2721,
      "Ġacadem": 2722,
      "Ġisinstance": 2723,
      "irm": 2724,
      "Ġwhole": 2725,
      "Ġbegin": 2726,
      "Ġpriv": 2727,
      "ison": 2728,
      "oll": 2729,
      "Ġrunning": 2730,
      "Ġcharacter": 2731,
      "raft": 2732,
      "sum": 2733,
      "35": 2734,
      "pass": 2735,
      "Ġrelated": 2736,
      "ĠIm": 2737,
      "Ġsix": 2738,
      "icro": 2739,
      "Ġwomen": 2740,
      "inary": 2741,
      "ilities": 2742,
      "26": 2743,
      "msg": 2744,
      "Par": 2745,
      "ements": 2746,
      "Ġ>>>": 2747,
      "Ġformat": 2748,
      "Ġbelieve": 2749,
      "OL": 2750,
      "70": 2751,
      "utes": 2752,
      "rc": 2753,
      "////////": 2754,
      "ogn": 2755,
      "Ġeasy": 2756,
      "ĠGr": 2757,
      "ĠIntern": 2758,
      "Ġhalf": 2759,
      "Ġlo": 2760,
      "Ġmonths": 2761,
      "Ġfig": 2762,
      "ken": 2763,
      "iff": 2764,
      "100": 2765,
      "ĠĠĠĠĠĠĠĠĠĠĠĠ": 2766,
      "equal": 2767,
      "Ġservices": 2768,
      "ĠIN": 2769,
      "Ġhistory": 2770,
      "Ġpick": 2771,
      "Ġexact": 2772,
      "Ġmind": 2773,
      "Ġtre": 2774,
      "change": 2775,
      "Ġusually": 2776,
      "Ġmot": 2777,
      "ibrary": 2778,
      "aching": 2779,
      "IP": 2780,
      "opt": 2781,
      "process": 2782,
      "ĠQu": 2783,
      "gl": 2784,
      "Ġmode": 2785,
      "ĠWith": 2786,
      "Ġstre": 2787,
      "ysis": 2788,
      "response": 2789,
      "Ġassoci": 2790,
      "Ġupdate": 2791,
      "oken": 2792,
      "....": 2793,
      "ĠMed": 2794,
      "ĠInst": 2795,
      "Ġland": 2796,
      "ĠPr": 2797,
      "Ġdevelopment": 2798,
      "Ġwent": 2799,
      "Ġcreated": 2800,
      "istic": 2801,
      "ued": 2802,
      "Ġchanges": 2803,
      "fully": 2804,
      "Ġstarted": 2805,
      "ĠGeneral": 2806,
      "Ġcamp": 2807,
      "flow": 2808,
      "arth": 2809,
      "Ġneeded": 2810,
      "down": 2811,
      "ai": 2812,
      "Ġindic": 2813,
      "Ġhours": 2814,
      "Ġacross": 2815,
      "Ġbenef": 2816,
      "err": 2817,
      "Ġ2010": 2818,
      "box": 2819,
      "shape": 2820,
      "Ġnothing": 2821,
      "rip": 2822,
      "oo": 2823,
      "quest": 2824,
      "File": 2825,
      "atural": 2826,
      "Ġtold": 2827,
      "'))": 2828,
      "21": 2829,
      "ached": 2830,
      "Ġarray": 2831,
      "Ġhowever": 2832,
      "ĠPublic": 2833,
      "Ġfive": 2834,
      "Ġentire": 2835,
      "Ġquick": 2836,
      "irt": 2837,
      "pecially": 2838,
      "Ġmom": 2839,
      "Ġasked": 2840,
      "\"),": 2841,
      "Ġrandom": 2842,
      "Ġdate": 2843,
      "Ġ24": 2844,
      "gress": 2845,
      "eger": 2846,
      "Ġextra": 2847,
      "Ġyoung": 2848,
      "Ġquality": 2849,
      "No": 2850,
      "He": 2851,
      "mand": 2852,
      "Ġamong": 2853,
      "Ġcomes": 2854,
      "Ġimplement": 2855,
      "Ġserver": 2856,
      "Ġarticle": 2857,
      "Ġwords": 2858,
      "75": 2859,
      "Ġissues": 2860,
      "ges": 2861,
      "oice": 2862,
      "Ġge": 2863,
      "ĠGod": 2864,
      "Ġmention": 2865,
      "Ġsimply": 2866,
      "Ġalmost": 2867,
      "Ġstandard": 2868,
      "ament": 2869,
      "Ġclaim": 2870,
      "Ġwor": 2871,
      "OS": 2872,
      "reed": 2873,
      "dom": 2874,
      "Ġcred": 2875,
      "ourse": 2876,
      "UN": 2877,
      "Ġinde": 2878,
      "Ġfinal": 2879,
      "Ġposs": 2880,
      "ledge": 2881,
      "Ġhot": 2882,
      "earch": 2883,
      "Ġâ": 2884,
      "ambda": 2885,
      "ude": 2886,
      "Ġtax": 2887,
      "TER": 2888,
      "ĠPer": 2889,
      "Ġsolution": 2890,
      "Ġlearning": 2891,
      "04": 2892,
      "names": 2893,
      "cal": 2894,
      "ball": 2895,
      "OP": 2896,
      "36": 2897,
      "Ġsend": 2898,
      "Ġpain": 2899,
      "Ġscreen": 2900,
      "Ġsignific": 2901,
      "Ġant": 2902,
      "rew": 2903,
      "lim": 2904,
      "Ġweb": 2905,
      "ĠOF": 2906,
      "table": 2907,
      "Ġpretty": 2908,
      "Ġpersonal": 2909,
      "88": 2910,
      "grad": 2911,
      "ĠCo": 2912,
      "EX": 2913,
      "ĉĉĉ": 2914,
      "ĠFl": 2915,
      "values": 2916,
      "bit": 2917,
      "Ġmusic": 2918,
      "Ġlimit": 2919,
      "Ġreceived": 2920,
      "unch": 2921,
      "ĠĠĠĠĠĠĠĠĠĠĠĠĠ": 2922,
      "Ġlength": 2923,
      "Ġtw": 2924,
      "uly": 2925,
      "iver": 2926,
      "mbol": 2927,
      "When": 2928,
      "Ġinf": 2929,
      "ocol": 2930,
      "xy": 2931,
      "where": 2932,
      "Ġcases": 2933,
      "Ġlines": 2934,
      "Ġcard": 2935,
      "Ġfurther": 2936,
      "ĠMon": 2937,
      "Ġfall": 2938,
      "aced": 2939,
      "Ġeverything": 2940,
      "ival": 2941,
      "like": 2942,
      "build": 2943,
      "Ġrespect": 2944,
      "Ġoffer": 2945,
      "iddle": 2946,
      "ML": 2947,
      "My": 2948,
      "Ġsocial": 2949,
      "iment": 2950,
      "ocket": 2951,
      "mail": 2952,
      "lood": 2953,
      "ĠYork": 2954,
      "block": 2955,
      "Ġtaking": 2956,
      "option": 2957,
      "Ġdifficult": 2958,
      "message": 2959,
      "bar": 2960,
      "Ġplease": 2961,
      "Ġey": 2962,
      "][": 2963,
      "Ġrate": 2964,
      "ional": 2965,
      "illed": 2966,
      "ĠPar": 2967,
      "45": 2968,
      "open": 2969,
      "By": 2970,
      "ground": 2971,
      "Ġstatus": 2972,
      "Ġtaken": 2973,
      "sl": 2974,
      "Ġcity": 2975,
      "Ġwrong": 2976,
      "ANT": 2977,
      "Ġpolicy": 2978,
      "ĠReturn": 2979,
      "39": 2980,
      "Ġlive": 2981,
      "Ġ50": 2982,
      "Ġmatter": 2983,
      "pen": 2984,
      "ĠStates": 2985,
      "Ob": 2986,
      "Ġrelations": 2987,
      "Ġthird": 2988,
      "Ġnormal": 2989,
      "orts": 2990,
      "irl": 2991,
      "abled": 2992,
      "Ġsettings": 2993,
      "urope": 2994,
      "su": 2995,
      "Ġcollect": 2996,
      "################################": 2997,
      "EM": 2998,
      "Ġconc": 2999,
      "ene": 3000,
      "Ġmov": 3001,
      "Key": 3002,
      "quence": 3003,
      "ĠGe": 3004,
      "Ġgraph": 3005,
      "exp": 3006,
      "Ġnumbers": 3007,
      "eta": 3008,
      "Ġmar": 3009,
      "Ġtrad": 3010,
      "Ġremain": 3011,
      "sq": 3012,
      "link": 3013,
      "label": 3014,
      "ĠOR": 3015,
      "Ġitself": 3016,
      "Ġtraining": 3017,
      "Ġtrack": 3018,
      "Ġvol": 3019,
      "LO": 3020,
      "Ġconnection": 3021,
      "Ġopportun": 3022,
      "Ġtried": 3023,
      "aries": 3024,
      "lab": 3025,
      "Ġsense": 3026,
      "Ġwebsite": 3027,
      "Ġtitle": 3028,
      "Ġsection": 3029,
      "Ġvisit": 3030,
      "Ġneg": 3031,
      "asing": 3032,
      "37": 3033,
      "ili": 3034,
      "cret": 3035,
      "rm": 3036,
      "atform": 3037,
      "Ġbi": 3038,
      "opyright": 3039,
      "ĠJan": 3040,
      "oper": 3041,
      "Ġsepar": 3042,
      "Ġloss": 3043,
      "df": 3044,
      "Ġuseful": 3045,
      "rodu": 3046,
      "Ġespecially": 3047,
      "--------------------------------": 3048,
      "types": 3049,
      "older": 3050,
      "gor": 3051,
      "top": 3052,
      "Ġ]": 3053,
      "Ġhouse": 3054,
      "Ġminutes": 3055,
      "Ġwritten": 3056,
      "Ġshows": 3057,
      "Data": 3058,
      "member": 3059,
      "izer": 3060,
      "content": 3061,
      "ĠDep": 3062,
      "uthors": 3063,
      "clus": 3064,
      "Ġhigher": 3065,
      "HO": 3066,
      "Ġrow": 3067,
      "cs": 3068,
      "Ġvia": 3069,
      "ceed": 3070,
      "Ġaccording": 3071,
      "ĠCar": 3072,
      "Ġfeatures": 3073,
      "Ġuniversity": 3074,
      "ĠJohn": 3075,
      "Ġshare": 3076,
      "ĠAdd": 3077,
      "ĠNational": 3078,
      "curity": 3079,
      "Ġcomplete": 3080,
      "Ġcolor": 3081,
      "Ġdisplay": 3082,
      "apt": 3083,
      "TP": 3084,
      "server": 3085,
      "indows": 3086,
      "objects": 3087,
      "Ġtyp": 3088,
      "selves": 3089,
      "unk": 3090,
      "nown": 3091,
      "ĠCount": 3092,
      "Ġpie": 3093,
      "options": 3094,
      "joy": 3095,
      "iday": 3096,
      "Ġproducts": 3097,
      "Ġsystems": 3098,
      "\\\\": 3099,
      "ĠPy": 3100,
      "ze": 3101,
      "medi": 3102,
      "38": 3103,
      "ruction": 3104,
      "Att": 3105,
      "Ġcomputer": 3106,
      "Int": 3107,
      "Ġexplain": 3108,
      "gorith": 3109,
      "source": 3110,
      "Ġbuy": 3111,
      "Ġ'''": 3112,
      "Ġep": 3113,
      "ses": 3114,
      "urch": 3115,
      "Ġupd": 3116,
      "ensive": 3117,
      "adata": 3118,
      "pace": 3119,
      "05": 3120,
      "Ġtypes": 3121,
      "Ġdepart": 3122,
      "Ġsignificant": 3123,
      "tx": 3124,
      "perties": 3125,
      "Ġprim": 3126,
      "Ġdig": 3127,
      "Ġroom": 3128,
      "Ġjournal": 3129,
      "pol": 3130,
      "aid": 3131,
      "Ġbar": 3132,
      "oud": 3133,
      "Ġclos": 3134,
      "Ġcolum": 3135,
      "Ġmass": 3136,
      "lock": 3137,
      "Ġmor": 3138,
      "tra": 3139,
      "Ġnear": 3140,
      "Ġrisk": 3141,
      "ĠBy": 3142,
      "Ġobtain": 3143,
      "NU": 3144,
      "Ġconditions": 3145,
      "annel": 3146,
      "Time": 3147,
      "atur": 3148,
      "ores": 3149,
      "files": 3150,
      "Ġdownload": 3151,
      "Ġheart": 3152,
      "ried": 3153,
      "haps": 3154,
      "abase": 3155,
      "ĠSome": 3156,
      "Ġnews": 3157,
      "Ġlower": 3158,
      "Ġcult": 3159,
      "ĠĠĠĠĠĠĠĠĠĠ": 3160,
      "hemat": 3161,
      "Ġpict": 3162,
      "65": 3163,
      "Ġmultiple": 3164,
      ");": 3165,
      "ĠEurope": 3166,
      "idget": 3167,
      "level": 3168,
      "ided": 3169,
      "Ġapps": 3170,
      "ructor": 3171,
      "TR": 3172,
      "ĠWest": 3173,
      "items": 3174,
      "np": 3175,
      "Ġclient": 3176,
      "Ġrecommend": 3177,
      "Ġflow": 3178,
      "Ġmo": 3179,
      "Ġstop": 3180,
      "Ġclean": 3181,
      "gen": 3182,
      "Ġinitial": 3183,
      "Ġanyone": 3184,
      "Ġface": 3185,
      "ĠServ": 3186,
      "ille": 3187,
      "###": 3188,
      "abs": 3189,
      "Ġbring": 3190,
      "Ġ2009": 3191,
      "Ġperformance": 3192,
      "Ġgroups": 3193,
      "67": 3194,
      "find": 3195,
      "Ġrole": 3196,
      "HT": 3197,
      "aged": 3198,
      "ivity": 3199,
      "Ġengine": 3200,
      "fail": 3201,
      "zz": 3202,
      "ternal": 3203,
      "Ġwalk": 3204,
      "Ġsqu": 3205,
      "oman": 3206,
      "Ġcause": 3207,
      "Ġsche": 3208,
      "address": 3209,
      "last": 3210,
      "sing": 3211,
      "but": 3212,
      "Ġfocus": 3213,
      "Ġq": 3214,
      "Ġgames": 3215,
      "Ġperfect": 3216,
      "Ġ(\"": 3217,
      "Ġglobal": 3218,
      "Ġmsg": 3219,
      "filter": 3220,
      "Ġexpress": 3221,
      "ĠIS": 3222,
      "Ġimprove": 3223,
      "ĠPol": 3224,
      "Ġtakes": 3225,
      "Ġforce": 3226,
      "minist": 3227,
      "ication": 3228,
      "oph": 3229,
      "pose": 3230,
      "sk": 3231,
      "ĠEd": 3232,
      "Ġautom": 3233,
      "Ġaddition": 3234,
      "Ġelement": 3235,
      "Ġevents": 3236,
      "ributes": 3237,
      "Ġfeed": 3238,
      "Ġcalcul": 3239,
      "With": 3240,
      "acher": 3241,
      "Ġcompet": 3242,
      "Ġhom": 3243,
      "Ġvarious": 3244,
      "Ġaud": 3245,
      "ĠAfter": 3246,
      "ĠInt": 3247,
      "tag": 3248,
      "Ġchanged": 3249,
      "amer": 3250,
      "Ġreading": 3251,
      "ming": 3252,
      "ĠMc": 3253,
      "Ġage": 3254,
      "Ġprofession": 3255,
      "parent": 3256,
      "chie": 3257,
      "Ġrecent": 3258,
      "Ġproperty": 3259,
      "48": 3260,
      "Ġregard": 3261,
      "Ġblack": 3262,
      "=[": 3263,
      "ĠOb": 3264,
      "Ġpotential": 3265,
      "Ġusers": 3266,
      "Ġscient": 3267,
      "Ph": 3268,
      "ĠDr": 3269,
      "90": 3270,
      "ĠComp": 3271,
      "ĠWorld": 3272,
      "Ġareas": 3273,
      "Ġrights": 3274,
      "ESS": 3275,
      "ological": 3276,
      "[:": 3277,
      "Ġways": 3278,
      "Ġax": 3279,
      "page": 3280,
      "target": 3281,
      "Ġcomplex": 3282,
      "PE": 3283,
      "Ġofficial": 3284,
      "Ġwanted": 3285,
      "rown": 3286,
      "Ġtag": 3287,
      "board": 3288,
      "foo": 3289,
      "OD": 3290,
      "Ġmedia": 3291,
      "Ġapproach": 3292,
      "connect": 3293,
      "rate": 3294,
      "Ġappear": 3295,
      "go": 3296,
      "Ġconsum": 3297,
      "Ġmember": 3298,
      "Ġmath": 3299,
      "Ġshape": 3300,
      "close": 3301,
      "Ġir": 3302,
      "Ġfront": 3303,
      "Do": 3304,
      "bed": 3305,
      "cast": 3306,
      "lines": 3307,
      "ĠAm": 3308,
      "Ġchall": 3309,
      "ners": 3310,
      "Ġadditional": 3311,
      "ĠNow": 3312,
      "Qu": 3313,
      "Ġintegr": 3314,
      "filename": 3315,
      "Up": 3316,
      "project": 3317,
      "Ġcurrently": 3318,
      "tim": 3319,
      "ĠSun": 3320,
      "mitted": 3321,
      "Ġjoin": 3322,
      "Ġattempt": 3323,
      "iction": 3324,
      "Ġmach": 3325,
      "pected": 3326,
      "Ġconv": 3327,
      "Ġsituation": 3328,
      "ĠWill": 3329,
      "style": 3330,
      "ĠAb": 3331,
      "function": 3332,
      "Ġinfl": 3333,
      "olumn": 3334,
      "Ġlonger": 3335,
      "ster": 3336,
      "Ġbehavi": 3337,
      "Ġprior": 3338,
      "Ġobj": 3339,
      "Ġparts": 3340,
      "come": 3341,
      "Ġmock": 3342,
      "Ġargument": 3343,
      "55": 3344,
      "ĠMin": 3345,
      "ashing": 3346,
      "Case": 3347,
      "'}),": 3348,
      "Ġeval": 3349,
      "post": 3350,
      "uple": 3351,
      "PL": 3352,
      "lied": 3353,
      "Ġregular": 3354,
      "ĠDis": 3355,
      "main": 3356,
      "oring": 3357,
      "Ġterm": 3358,
      "Ġdiv": 3359,
      "ferences": 3360,
      "Ġdegree": 3361,
      "title": 3362,
      "Ã©": 3363,
      "Ġprograms": 3364,
      "Ġindustry": 3365,
      "Ġparticip": 3366,
      "Ġdirectly": 3367,
      "Ġprovides": 3368,
      "Ġpropos": 3369,
      "Ġstay": 3370,
      "Ġoutside": 3371,
      "Ġstore": 3372,
      "Ġpapers": 3373,
      "Ġstates": 3374,
      "ĠPres": 3375,
      "Ġmethods": 3376,
      "anced": 3377,
      "based": 3378,
      "FF": 3379,
      "just": 3380,
      "rs": 3381,
      "iew": 3382,
      "Ġenjoy": 3383,
      "Ġaffect": 3384,
      "Pl": 3385,
      "44": 3386,
      "Ġknowledge": 3387,
      "Ġrecogn": 3388,
      "Ġblog": 3389,
      "Ġincrease": 3390,
      "à¤": 3391,
      "Tr": 3392,
      "Ġlocation": 3393,
      "Ġcompl": 3394,
      "ĠThen": 3395,
      "Ġeveryone": 3396,
      "ĠValue": 3397,
      "idered": 3398,
      "icles": 3399,
      "ĠCenter": 3400,
      "Ġitems": 3401,
      "erman": 3402,
      "overed": 3403,
      "keys": 3404,
      "ĠTHE": 3405,
      "Ġupon": 3406,
      "respon": 3407,
      "Ġwonder": 3408,
      "ariable": 3409,
      "Ġdistributed": 3410,
      "Ġcy": 3411,
      "Ġ},": 3412,
      "ĠReg": 3413,
      "Or": 3414,
      "Ġstyle": 3415,
      "Ġ2008": 3416,
      "Ġsat": 3417,
      "Ġnatural": 3418,
      "ease": 3419,
      "Ġcontribut": 3420,
      "Ġexecut": 3421,
      "Ġarch": 3422,
      "ĠCity": 3423,
      "image": 3424,
      "Ġground": 3425,
      "Ġuses": 3426,
      "mode": 3427,
      "ools": 3428,
      "Ġens": 3429,
      "python": 3430,
      "ouch": 3431,
      "icode": 3432,
      "apter": 3433,
      "rest": 3434,
      "ĠBo": 3435,
      "Ġattack": 3436,
      "Ġfeature": 3437,
      "float": 3438,
      "ĠMe": 3439,
      "Ġreturned": 3440,
      "bt": 3441,
      "Ġmix": 3442,
      "Ġstat": 3443,
      "ategory": 3444,
      "PO": 3445,
      "Ġfunctions": 3446,
      "Ġcomb": 3447,
      "elt": 3448,
      "Ġnecessary": 3449,
      "na": 3450,
      "child": 3451,
      "Ġ40": 3452,
      "Ġdeath": 3453,
      "Ġwar": 3454,
      "String": 3455,
      "Ġcomments": 3456,
      "Ġavoid": 3457,
      "Ġdifference": 3458,
      "std": 3459,
      "izing": 3460,
      "Ġequal": 3461,
      "(\\": 3462,
      "Ġcirc": 3463,
      "Ġconsidered": 3464,
      "Ġcand": 3465,
      "igned": 3466,
      "obile": 3467,
      "func": 3468,
      "ica": 3469,
      "Ġprofessor": 3470,
      "essages": 3471,
      "Ġrelationship": 3472,
      "Ġfast": 3473,
      "nes": 3474,
      "Ġprotect": 3475,
      "Ġhy": 3476,
      "ĠNorth": 3477,
      "enses": 3478,
      "Ġbox": 3479,
      "Ġincluded": 3480,
      "Ġprice": 3481,
      "Im": 3482,
      "missions": 3483,
      "Ġfriends": 3484,
      "Ġeducation": 3485,
      "Ġill": 3486,
      "ĠGu": 3487,
      "Ġbuilding": 3488,
      "Base": 3489,
      "Ġwatch": 3490,
      "Ġ21": 3491,
      "related": 3492,
      "Ġsample": 3493,
      "Ġweight": 3494,
      "Ġbound": 3495,
      "ĠAlso": 3496,
      "aises": 3497,
      "elling": 3498,
      "ĠOct": 3499,
      "Ġlat": 3500,
      "IR": 3501,
      "lin": 3502,
      "aging": 3503,
      "xml": 3504,
      "cache": 3505,
      "66": 3506,
      "auth": 3507,
      "Ġscience": 3508,
      "ĠSchool": 3509,
      "vant": 3510,
      "Ġyield": 3511,
      "Ġhon": 3512,
      "ATE": 3513,
      "CL": 3514,
      "77": 3515,
      "(_": 3516,
      "Ġaverage": 3517,
      "Ġforward": 3518,
      "atory": 3519,
      "Ġign": 3520,
      "Ġste": 3521,
      "From": 3522,
      "Ġsym": 3523,
      "ĠApr": 3524,
      "ĠPart": 3525,
      "Ġdim": 3526,
      "ĠJust": 3527,
      "One": 3528,
      "ĠStud": 3529,
      "Ġincludes": 3530,
      "Ġrev": 3531,
      "Ġcover": 3532,
      "aker": 3533,
      "Ġsoon": 3534,
      "Ġnote": 3535,
      "Ġbehind": 3536,
      "Ġremove": 3537,
      "ĠSm": 3538,
      "EST": 3539,
      "ĠAmerica": 3540,
      "Ġentry": 3541,
      "pi": 3542,
      "Ġfire": 3543,
      "ĠAct": 3544,
      "Ġexam": 3545,
      "stream": 3546,
      "Ġsave": 3547,
      "ĠDes": 3548,
      "EL": 3549,
      "Ġworth": 3550,
      "Ġestab": 3551,
      "rt": 3552,
      "Ġcoming": 3553,
      "App": 3554,
      "Ġmeasure": 3555,
      "Ġlate": 3556,
      "arily": 3557,
      "Ġanalysis": 3558,
      "Ġtim": 3559,
      "Ġintrodu": 3560,
      "Ġobserv": 3561,
      "example": 3562,
      "leep": 3563,
      "Ġinstitut": 3564,
      "eed": 3565,
      "Ġproper": 3566,
      "active": 3567,
      "mun": 3568,
      "95": 3569,
      "Ġinside": 3570,
      "02": 3571,
      "Ġobjects": 3572,
      "ifier": 3573,
      "ĠMod": 3574,
      "ĠSu": 3575,
      "Ġachie": 3576,
      "Ġsn": 3577,
      "search": 3578,
      "etimes": 3579,
      "aving": 3580,
      "pha": 3581,
      "ĠAP": 3582,
      "Ġdam": 3583,
      "Ġleave": 3584,
      "Ġspeed": 3585,
      "ĠRed": 3586,
      "ĠSet": 3587,
      "Ġworked": 3588,
      "Ġdecision": 3589,
      "Ġfavor": 3590,
      "Ġdraw": 3591,
      "gram": 3592,
      "clude": 3593,
      "ĠSouth": 3594,
      "Ġtemper": 3595,
      "Ġlooks": 3596,
      "ĠInc": 3597,
      "Ġ'%": 3598,
      "Ġfoot": 3599,
      "anch": 3600,
      "idge": 3601,
      "Ġframe": 3602,
      "Ġactual": 3603,
      "Ġbott": 3604,
      "augh": 3605,
      "Ġunique": 3606,
      "Ġrecently": 3607,
      "pty": 3608,
      "Ġcompan": 3609,
      "ĠAug": 3610,
      "erved": 3611,
      "Ġtests": 3612,
      "chang": 3613,
      "Ġimpact": 3614,
      "reate": 3615,
      "Ġexactly": 3616,
      "ĠFeb": 3617,
      "Ġfrequ": 3618,
      "session": 3619,
      "ĠMore": 3620,
      "Ġtechnology": 3621,
      "Ġintern": 3622,
      "Ġlabel": 3623,
      "Ġlay": 3624,
      "itting": 3625,
      "aves": 3626,
      "Ġsession": 3627,
      "Ġbuilt": 3628,
      "Ġcompon": 3629,
      "ĠĠĠĠĠĠĠĠĠĠĠĠĠĠ": 3630,
      "********": 3631,
      "ynam": 3632,
      "ĠĠĠĠčĊ": 3633,
      "bb": 3634,
      "Ġ23": 3635,
      "utf": 3636,
      "Ġ22": 3637,
      "Ġder": 3638,
      "Ġones": 3639,
      "range": 3640,
      "Ġgets": 3641,
      "Ġfit": 3642,
      "Ġadvis": 3643,
      "Address": 3644,
      "Object": 3645,
      "Ġreference": 3646,
      "Ġsubst": 3647,
      "Ġclick": 3648,
      "uses": 3649,
      "Ġang": 3650,
      "Ġthemselves": 3651,
      "ague": 3652,
      "ometry": 3653,
      ")))": 3654,
      "Ġhit": 3655,
      "Ġweeks": 3656,
      "Ġess": 3657,
      "airs": 3658,
      "copy": 3659,
      "can": 3660,
      "ĠEnglish": 3661,
      "eff": 3662,
      "ender": 3663,
      "astic": 3664,
      "Ġspecified": 3665,
      "\">": 3666,
      "MS": 3667,
      "That": 3668,
      "Ġalgorith": 3669,
      "query": 3670,
      "Ind": 3671,
      "ĠMat": 3672,
      "itation": 3673,
      "Ġtravel": 3674,
      "Ġfine": 3675,
      "Ġsometimes": 3676,
      "event": 3677,
      "arter": 3678,
      "rote": 3679,
      "env": 3680,
      "ester": 3681,
      "~~": 3682,
      "ĠRob": 3683,
      "task": 3684,
      "Check": 3685,
      "Ġsem": 3686,
      "Ġmoment": 3687,
      "86": 3688,
      "oun": 3689,
      "chan": 3690,
      "ector": 3691,
      "Ġball": 3692,
      "Ġmaybe": 3693,
      "ĠCor": 3694,
      "Ġconstant": 3695,
      "ends": 3696,
      "light": 3697,
      "Ġrule": 3698,
      "Ġsecurity": 3699,
      "Ġsaying": 3700,
      "ees": 3701,
      "ĠMark": 3702,
      "Return": 3703,
      "ĠLa": 3704,
      "irection": 3705,
      "coming": 3706,
      "Ġpractice": 3707,
      "ederal": 3708,
      "Ġappropri": 3709,
      "ĠHis": 3710,
      "command": 3711,
      "ĠYour": 3712,
      "mm": 3713,
      "ube": 3714,
      "ief": 3715,
      "ĠDav": 3716,
      "Ġpurch": 3717,
      "Ġallowed": 3718,
      "Ġimpl": 3719,
      "Ġgoal": 3720,
      "uary": 3721,
      "Ġinteresting": 3722,
      "oke": 3723,
      "Ġdjango": 3724,
      "Ġdistribution": 3725,
      "ĠHT": 3726,
      "ĠSer": 3727,
      "Ġslow": 3728,
      "Ġheld": 3729,
      "display": 3730,
      "Ġoffice": 3731,
      "Ġfund": 3732,
      "Ġinfo": 3733,
      "ully": 3734,
      "Ġformer": 3735,
      "Ġresources": 3736,
      "ociety": 3737,
      "89": 3738,
      "Ġprivate": 3739,
      "ĠGet": 3740,
      ")]": 3741,
      "Ġdirectory": 3742,
      "ancial": 3743,
      "Ġshown": 3744,
      "Ġsus": 3745,
      "unt": 3746,
      "see": 3747,
      "umber": 3748,
      "ĠGNU": 3749,
      "artment": 3750,
      "olutions": 3751,
      "Ġtheory": 3752,
      "Ġnational": 3753,
      "Ġprec": 3754,
      "istics": 3755,
      "Ġletter": 3756,
      ":`": 3757,
      "Ġgoes": 3758,
      "ese": 3759,
      "dist": 3760,
      "85": 3761,
      "Ġimages": 3762,
      "Ġblood": 3763,
      "ordin": 3764,
      "ias": 3765,
      "delete": 3766,
      "ellow": 3767,
      "Ġgives": 3768,
      "Ġwhite": 3769,
      "Ġpositive": 3770,
      "Ġassist": 3771,
      "ocr": 3772,
      "Ġdecl": 3773,
      "inally": 3774,
      "Ġthread": 3775,
      "Ġdevices": 3776,
      ")$": 3777,
      "select": 3778,
      "Ġstaff": 3779,
      "ailed": 3780,
      "Ġresource": 3781,
      "({": 3782,
      "VER": 3783,
      "match": 3784,
      "Ġmemory": 3785,
      "Ġpassword": 3786,
      "rict": 3787,
      "03": 3788,
      "Ġdeep": 3789,
      "Ġcountries": 3790,
      "ĠFound": 3791,
      "CON": 3792,
      "Ġdefined": 3793,
      "Ġexception": 3794,
      "settings": 3795,
      "encies": 3796,
      "Ġlevels": 3797,
      "aul": 3798,
      "debug": 3799,
      "Ġcareer": 3800,
      "istry": 3801,
      "Ġcouple": 3802,
      "Ġquery": 3803,
      "ĠĠĠĠĠĠĠĠĠĠĠĠĠĠĠĠĠĠĠĠĠĠĠĠĠĠĠĠĠĠĠ": 3804,
      "Ġund": 3805,
      "Ġstructure": 3806,
      "ĠEn": 3807,
      "49": 3808,
      "assertR": 3809,
      "itute": 3810,
      "ĠCounty": 3811,
      "ĠCON": 3812,
      "Model": 3813,
      "Char": 3814,
      "mock": 3815,
      "gn": 3816,
      "overy": 3817,
      "local": 3818,
      "entry": 3819,
      "At": 3820,
      "Text": 3821,
      "ino": 3822,
      "Ġdb": 3823,
      "has": 3824,
      "CE": 3825,
      "Ġrules": 3826,
      "Ġlost": 3827,
      "Ġyourself": 3828,
      "Ġdetermin": 3829,
      "assertTrue": 3830,
      "Ġguess": 3831,
      "token": 3832,
      "Ġgirl": 3833,
      "Ġparameters": 3834,
      "Ġprevent": 3835,
      "Ġcontains": 3836,
      "FA": 3837,
      "Ġserious": 3838,
      "Ġcompletely": 3839,
      "Ġrout": 3840,
      "mine": 3841,
      "Ġwa": 3842,
      "bor": 3843,
      "Ġvolume": 3844,
      "Ġallows": 3845,
      "Ġliter": 3846,
      "Form": 3847,
      "Ġmis": 3848,
      "Ġchoice": 3849,
      "ugin": 3850,
      "Ġacademic": 3851,
      "upport": 3852,
      "hood": 3853,
      "Ġaw": 3854,
      "cing": 3855,
      "ĠValueError": 3856,
      "course": 3857,
      "ĠCopyright": 3858,
      "Ġround": 3859,
      "Ġmap": 3860,
      "iqu": 3861,
      "td": 3862,
      "cmd": 3863,
      "inition": 3864,
      "known": 3865,
      "Ġassociated": 3866,
      "Ġvariable": 3867,
      "Ġstarting": 3868,
      "ĠFree": 3869,
      "fort": 3870,
      "ĠReturns": 3871,
      "gener": 3872,
      "more": 3873,
      "Ġsaw": 3874,
      "Ġfair": 3875,
      "apping": 3876,
      "Ġapplications": 3877,
      "Ġboard": 3878,
      "Ġpassed": 3879,
      "river": 3880,
      "ĠBar": 3881,
      "ecause": 3882,
      "Ġresear": 3883,
      "Ġcook": 3884,
      "hib": 3885,
      "Ġwrote": 3886,
      "Ġinvolved": 3887,
      "Ġstock": 3888,
      "ĠPe": 3889,
      "Ġbroad": 3890,
      "GL": 3891,
      "={": 3892,
      "ĠMarch": 3893,
      "Ġprep": 3894,
      "Ġstatement": 3895,
      "Ġsex": 3896,
      "Ġtreatment": 3897,
      "Ġmanagement": 3898,
      "ecute": 3899,
      "ĉĉĉĉ": 3900,
      "property": 3901,
      "Ġchance": 3902,
      "Ġsetting": 3903,
      "win": 3904,
      "Ġinterested": 3905,
      "ĠANY": 3906,
      "current": 3907,
      "Ġviol": 3908,
      "Ġimmedi": 3909,
      "Ġparams": 3910,
      "Ġbeaut": 3911,
      "ersion": 3912,
      "ula": 3913,
      "rep": 3914,
      "ensions": 3915,
      "chers": 3916,
      "uel": 3917,
      "Ġcommitt": 3918,
      "only": 3919,
      "ii": 3920,
      "yl": 3921,
      "PS": 3922,
      "which": 3923,
      "vey": 3924,
      "Ġaccom": 3925,
      "31": 3926,
      "Ġchoose": 3927,
      "using": 3928,
      "Ġability": 3929,
      "aches": 3930,
      "Ġreceive": 3931,
      "Ġunit": 3932,
      "Ġideas": 3933,
      "Ġbooks": 3934,
      "ĠJune": 3935,
      "Ġpackage": 3936,
      "atives": 3937,
      "Ġcharg": 3938,
      "Ġproduction": 3939,
      "Ġten": 3940,
      "TestCase": 3941,
      "Ġvers": 3942,
      "Ġsuff": 3943,
      "Ġabsolut": 3944,
      "47": 3945,
      "Ġcompanies": 3946,
      "Ġexisting": 3947,
      "Ġflo": 3948,
      "Ġrelease": 3949,
      "description": 3950,
      "Ġrefer": 3951,
      "Ġclasses": 3952,
      "Ġindepend": 3953,
      "ĠDef": 3954,
      "ĠAg": 3955,
      "Def": 3956,
      "Ġcontract": 3957,
      "Ġpredict": 3958,
      "Ġden": 3959,
      "ada": 3960,
      "ĠAust": 3961,
      "ĠVal": 3962,
      "Ġmatrix": 3963,
      "Ġcondition": 3964,
      "Ġjud": 3965,
      "Ġbed": 3966,
      "assertRaises": 3967,
      "ĠĠĠĠĠĠĠĠĠĠĠĠĠĠĠĠĠ": 3968,
      "cd": 3969,
      "Ġelements": 3970,
      "Ġwait": 3971,
      "ĠWar": 3972,
      "Ġcross": 3973,
      "Ġestim": 3974,
      "ibly": 3975,
      "Ġparty": 3976,
      "xf": 3977,
      "Ġremember": 3978,
      "Ġoccur": 3979,
      "var": 3980,
      "Ġevidence": 3981,
      "Ġstuff": 3982,
      "hern": 3983,
      "Ġcenter": 3984,
      "Ġtel": 3985,
      "uous": 3986,
      "atically": 3987,
      "patch": 3988,
      "Ġteacher": 3989,
      "Ġeasily": 3990,
      "Ġfilter": 3991,
      "Ġpolitical": 3992,
      "Ġhor": 3993,
      "IV": 3994,
      "Ġquant": 3995,
      "Ġregion": 3996,
      "User": 3997,
      "Ġliving": 3998,
      "cut": 3999,
      "Ġfinally": 4000,
      "Ġmulti": 4001,
      "Ġwasn": 4002,
      "Ġlib": 4003,
      "Ser": 4004,
      "Ġwhose": 4005,
      "apan": 4006,
      "comes": 4007,
      "ourn": 4008,
      "Ġconsist": 4009,
      "ym": 4010,
      "ĠWIT": 4011,
      "Ġsil": 4012,
      "Ġnice": 4013,
      "ĠPresident": 4014,
      "ales": 4015,
      "uster": 4016,
      "Ġvot": 4017,
      "ĠDepartment": 4018,
      "Ġ2007": 4019,
      "fs": 4020,
      "ĠDon": 4021,
      "uge": 4022,
      "Ġcat": 4023,
      "Ġanswers": 4024,
      "izes": 4025,
      "Ġuid": 4026,
      "SS": 4027,
      "Ġauthors": 4028,
      "uk": 4029,
      "ITY": 4030,
      "empty": 4031,
      "rad": 4032,
      "Ġshall": 4033,
      "ĠSch": 4034,
      "DF": 4035,
      "Ġcandid": 4036,
      "pload": 4037,
      "itude": 4038,
      "Ġlayer": 4039,
      "Ġreported": 4040,
      "Ġdead": 4041,
      "Ġfilename": 4042,
      "xx": 4043,
      "pth": 4044,
      "Ġdiag": 4045,
      "Ġdepartment": 4046,
      "Ġopin": 4047,
      "ĠĠĠĠĠĠĠĠĠĠĠĠĠĠĠĠĠĠĠĠĠ": 4048,
      "Ġiter": 4049,
      "iences": 4050,
      "Ġnamed": 4051,
      "ĠPark": 4052,
      "ĠHealth": 4053,
      "CC": 4054,
      "ĠApril": 4055,
      "Ġoffers": 4056,
      "Ġbecame": 4057,
      "force": 4058,
      "asc": 4059,
      "Ġexpert": 4060,
      "ana": 4061,
      "Ġmer": 4062,
      "irth": 4063,
      "pop": 4064,
      "ĠGerman": 4065,
      "ĠHere": 4066,
      "Ġcorrespon": 4067,
      ")),": 4068,
      "pat": 4069,
      "Ġaltern": 4070,
      "Exception": 4071,
      "]:": 4072,
      "aily": 4073,
      "Ġinvestig": 4074,
      "Ġhttps": 4075,
      "conf": 4076,
      "ĠPost": 4077,
      "system": 4078,
      "Ġdefinit": 4079,
      "Ġparser": 4080,
      "Ġcollection": 4081,
      "Ġsurface": 4082,
      "replace": 4083,
      "ufact": 4084,
      "ĠHar": 4085,
      "Ġbasic": 4086,
      "Ġpers": 4087,
      "Man": 4088,
      "template": 4089,
      "device": 4090,
      "Ġdesigned": 4091,
      "Ġthinking": 4092,
      "Se": 4093,
      "Ġoil": 4094,
      "vie": 4095,
      "Ġagree": 4096,
      "Ġpopular": 4097,
      "ĠMich": 4098,
      "Ġsaf": 4099,
      "Ġtransl": 4100,
      "87": 4101,
      "width": 4102,
      "ĠSept": 4103,
      "ram": 4104,
      "ĠCheck": 4105,
      "SC": 4106,
      "Ġconcept": 4107,
      "angle": 4108,
      "Ġconference": 4109,
      "attle": 4110,
      "Ġreturns": 4111,
      "ĠPM": 4112,
      "Ġgave": 4113,
      "iven": 4114,
      "hel": 4115,
      "ARR": 4116,
      "room": 4117,
      "II": 4118,
      "Reg": 4119,
      "osing": 4120,
      "iam": 4121,
      "Ġmyself": 4122,
      "Ġcolumn": 4123,
      "Ġtopic": 4124,
      "*-": 4125,
      "step": 4126,
      "ĠColle": 4127,
      "ittest": 4128,
      "expected": 4129,
      "Ġdouble": 4130,
      "dim": 4131,
      "Ġtree": 4132,
      "Fr": 4133,
      "ĠRec": 4134,
      "Ġappropriate": 4135,
      "ript": 4136,
      "author": 4137,
      "IB": 4138,
      "Ġhandle": 4139,
      "Ġdisease": 4140,
      "stract": 4141,
      "MA": 4142,
      "ober": 4143,
      "Ġrequires": 4144,
      "idden": 4145,
      "Des": 4146,
      "isher": 4147,
      "icon": 4148,
      "otal": 4149,
      "Ġfilm": 4150,
      "Ġerrors": 4151,
      "ĠLet": 4152,
      "âĪ": 4153,
      "char": 4154,
      "store": 4155,
      "ĠSystem": 4156,
      "ĠĠĠĠĠĠĠĠčĊ": 4157,
      "reet": 4158,
      "install": 4159,
      "Ip": 4160,
      "ĠĠĠĠĠĠĠĠĠĠĠĠĠĠĠĠĠĠĠĠĠĠĠĠĠ": 4161,
      "Ġpublish": 4162,
      "59": 4163,
      "Ġplayers": 4164,
      "ius": 4165,
      "AME": 4166,
      "Ġplayer": 4167,
      "Ġeffic": 4168,
      "Ġroad": 4169,
      "aa": 4170,
      "itter": 4171,
      "ĠOther": 4172,
      "Ġ'\\": 4173,
      "egin": 4174,
      "Ġscript": 4175,
      "iles": 4176,
      "oe": 4177,
      "Ġtoken": 4178,
      "UP": 4179,
      "sequ": 4180,
      "Ġactive": 4181,
      "Ġasking": 4182,
      "TH": 4183,
      "Ġdru": 4184,
      "Ġlogging": 4185,
      "Ġparents": 4186,
      "imple": 4187,
      "Ġgenerally": 4188,
      "Ġmedical": 4189,
      "AA": 4190,
      "Now": 4191,
      "itable": 4192,
      "Ġsurpr": 4193,
      "Ġphysical": 4194,
      "New": 4195,
      "Ġsens": 4196,
      "42": 4197,
      "cell": 4198,
      "itary": 4199,
      "lick": 4200,
      "ĠAND": 4201,
      "sys": 4202,
      "first": 4203,
      "Ġotherwise": 4204,
      "ĠPython": 4205,
      "Ġeditor": 4206,
      "ĠWhile": 4207,
      "06": 4208,
      "ãģ": 4209,
      "dered": 4210,
      "Ġvariables": 4211,
      "uint": 4212,
      "FI": 4213,
      "actions": 4214,
      "except": 4215,
      "ĠArt": 4216,
      "Ġip": 4217,
      "Ġsong": 4218,
      "arlier": 4219,
      "Ġreplace": 4220,
      "aur": 4221,
      "Ġbal": 4222,
      "Ġgrowth": 4223,
      "acing": 4224,
      "hem": 4225,
      "Can": 4226,
      "Ġmeeting": 4227,
      "cp": 4228,
      "Ġstorage": 4229,
      "ipe": 4230,
      "Read": 4231,
      "Ġpan": 4232,
      "umb": 4233,
      "Ġconduct": 4234,
      "Ġfigure": 4235,
      "header": 4236,
      "Ġprinc": 4237,
      "ĠTrans": 4238,
      "Ġprojects": 4239,
      "Ġgra": 4240,
      "Ġheav": 4241,
      "Ġpull": 4242,
      "ĠHouse": 4243,
      "Ġkids": 4244,
      "Ġ26": 4245,
      "Ġbegan": 4246,
      "lying": 4247,
      "Ġstra": 4248,
      "Ġstudies": 4249,
      "Ġmount": 4250,
      "Ġdem": 4251,
      "ÂłÂł": 4252,
      "Ġstream": 4253,
      "Ġ-*-": 4254,
      "ĠOpen": 4255,
      "Ġaccur": 4256,
      "aly": 4257,
      "ĠEl": 4258,
      "Ġadminist": 4259,
      "rought": 4260,
      "ĠJuly": 4261,
      "Ġinterview": 4262,
      "Ġcool": 4263,
      "ashington": 4264,
      "ĠAcc": 4265,
      "frame": 4266,
      "Ġinstalled": 4267,
      "mary": 4268,
      "Ġopportunity": 4269,
      "rees": 4270,
      "Ġconvert": 4271,
      "Ġhol": 4272,
      "ĠHigh": 4273,
      "nov": 4274,
      "Ġ27": 4275,
      "Ġlack": 4276,
      "aign": 4277,
      "ĠAc": 4278,
      "Ġattention": 4279,
      "ha": 4280,
      "Ġquickly": 4281,
      "RL": 4282,
      "Ġensure": 4283,
      "ĠFirst": 4284,
      "ĠMr": 4285,
      "Ġlock": 4286,
      "election": 4287,
      "Ġgiving": 4288,
      "').": 4289,
      "ALL": 4290,
      "Ġprofessional": 4291,
      "Ġfailed": 4292,
      "ĠFoundation": 4293,
      "olar": 4294,
      "Out": 4295,
      "Ġeffects": 4296,
      "ĠAny": 4297,
      "atively": 4298,
      "ĠGl": 4299,
      "ĠCou": 4300,
      "eline": 4301,
      "cls": 4302,
      "Ġconcern": 4303,
      "Ġ28": 4304,
      "ĠAssoci": 4305,
      "Ġlatest": 4306,
      "aught": 4307,
      "Ġ60": 4308,
      "iet": 4309,
      "(*": 4310,
      "ĠWeb": 4311,
      "ĠNe": 4312,
      "bu": 4313,
      "rypt": 4314,
      "Ġplaying": 4315,
      "ovember": 4316,
      "eleb": 4317,
      "Inst": 4318,
      "46": 4319,
      "account": 4320,
      "Ġpressure": 4321,
      "Ġreasons": 4322,
      "Ġpresident": 4323,
      "ĠRead": 4324,
      "Ġunderstanding": 4325,
      "Call": 4326,
      "ĠBro": 4327,
      "make": 4328,
      "Ġparameter": 4329,
      "Ġprogress": 4330,
      "Ġmathemat": 4331,
      "ĠJapan": 4332,
      "cember": 4333,
      "Ġinflu": 4334,
      "Ġcmd": 4335,
      "number": 4336,
      "Ġdatabase": 4337,
      "Ġfight": 4338,
      "Ġarguments": 4339,
      "aturday": 4340,
      "Ġ'/": 4341,
      "Col": 4342,
      "ifi": 4343,
      "Ġschools": 4344,
      "ĠOur": 4345,
      "Ġmachine": 4346,
      "xim": 4347,
      "Ġheard": 4348,
      "ĠID": 4349,
      "ĠBrit": 4350,
      "ĠOf": 4351,
      "ĠOff": 4352,
      "Ġmeaning": 4353,
      "oto": 4354,
      "Ġjson": 4355,
      "ĠFrom": 4356,
      "ui": 4357,
      "ĠAfr": 4358,
      "prefix": 4359,
      "Ġinternational": 4360,
      "bf": 4361,
      "Ġlimited": 4362,
      "Ġperhaps": 4363,
      "illing": 4364,
      "Ġbehavior": 4365,
      "ivil": 4366,
      "strip": 4367,
      "Ġcert": 4368,
      "Ġobvious": 4369,
      "static": 4370,
      "ĠĠĠĠĠĠĠĠĠĠĠĠĠĠĠĠĠĠĠĠ": 4371,
      "Ġnet": 4372,
      "ĠCalif": 4373,
      "service": 4374,
      "Ġrepl": 4375,
      "Ġfinancial": 4376,
      "isions": 4377,
      "oon": 4378,
      "ĠHol": 4379,
      "ening": 4380,
      "ĠAtt": 4381,
      "Ġpopulation": 4382,
      "atever": 4383,
      "Ġvict": 4384,
      "ham": 4385,
      "Ġdecided": 4386,
      "Ġdomain": 4387,
      "ĠNote": 4388,
      "Ġmother": 4389,
      "Ġtools": 4390,
      "Ġstri": 4391,
      "Ġspeak": 4392,
      "Ġcredit": 4393,
      "uffer": 4394,
      "IO": 4395,
      "ĠSw": 4396,
      "[-": 4397,
      "ART": 4398,
      "07": 4399,
      "email": 4400,
      "Del": 4401,
      "Ġhimself": 4402,
      "ounds": 4403,
      "boot": 4404,
      "Ġdrive": 4405,
      "ĠNOT": 4406,
      "Ġregister": 4407,
      "ares": 4408,
      "','": 4409,
      "save": 4410,
      "Sub": 4411,
      "Ġnotice": 4412,
      "password": 4413,
      "Ġenter": 4414,
      "Ġactivities": 4415,
      "men": 4416,
      "ĠSan": 4417,
      "urt": 4418,
      "Ġchem": 4419,
      "Attribute": 4420,
      "Ġmid": 4421,
      "Ġunivers": 4422,
      "$.": 4423,
      "ĠDay": 4424,
      "Ġteaching": 4425,
      "Ġgas": 4426,
      "Ġbackground": 4427,
      "Ġsteps": 4428,
      "Ġbutton": 4429,
      "08": 4430,
      "ris": 4431,
      "Ġthroughout": 4432,
      "color": 4433,
      "show": 4434,
      "Ġled": 4435,
      "Log": 4436,
      "ĠWindows": 4437,
      "Ġalthough": 4438,
      "09": 4439,
      "virt": 4440,
      "Ġtemplate": 4441,
      "Ġadvice": 4442,
      "Ġcourt": 4443,
      "After": 4444,
      "Ġready": 4445,
      "sis": 4446,
      "ael": 4447,
      "Ġanim": 4448,
      "Ġcapt": 4449,
      "Ġcharacters": 4450,
      "Ġsymbol": 4451,
      "Ġsources": 4452,
      "Ġskills": 4453,
      "Path": 4454,
      "aper": 4455,
      "Ġeconomic": 4456,
      "agement": 4457,
      "XX": 4458,
      "Ġtensor": 4459,
      "ĠUse": 4460,
      "ĠAM": 4461,
      "Node": 4462,
      "iful": 4463,
      "Ġcertainly": 4464,
      "Ġheat": 4465,
      "Ġdirection": 4466,
      "Ġheader": 4467,
      "mult": 4468,
      "Ġturned": 4469,
      "Ġdtype": 4470,
      "Ġmaintain": 4471,
      "ĠJanuary": 4472,
      "FT": 4473,
      "swith": 4474,
      "ĠSoftware": 4475,
      "erve": 4476,
      "Ġoperation": 4477,
      "admin": 4478,
      "Ġarri": 4479,
      "Post": 4480,
      "Ġwall": 4481,
      "asy": 4482,
      "Ġdeveloped": 4483,
      "Ġattr": 4484,
      "Ġcells": 4485,
      "iring": 4486,
      "Ġboot": 4487,
      "Ġment": 4488,
      "Ġsafe": 4489,
      "Config": 4490,
      "Sc": 4491,
      "edia": 4492,
      "Ġsomew": 4493,
      "Ġ''": 4494,
      "ny": 4495,
      "Ġlibrary": 4496,
      "Ġzero": 4497,
      "Ġmechan": 4498,
      "Ġequation": 4499,
      "Ġbrow": 4500,
      "ĠCons": 4501,
      "Ġactivity": 4502,
      "Ġanaly": 4503,
      "Hand": 4504,
      "ĠPlease": 4505,
      "Ġencour": 4506,
      "ĠAre": 4507,
      "Ġtouch": 4508,
      "Ġpages": 4509,
      "look": 4510,
      "Ġsummer": 4511,
      "ncil": 4512,
      "Ġaware": 4513,
      "Ġhappy": 4514,
      "icit": 4515,
      "Ġleaders": 4516,
      "Ġbeginning": 4517,
      "alt": 4518,
      "ĠAns": 4519,
      "TY": 4520,
      "roy": 4521,
      "erg": 4522,
      "ARRANT": 4523,
      "Ġsites": 4524,
      "Ġeffort": 4525,
      "ruary": 4526,
      "Ġnature": 4527,
      "Ġdemon": 4528,
      "Ġcancer": 4529,
      "ĠTV": 4530,
      "strict": 4531,
      "Ġempty": 4532,
      "web": 4533,
      "Ġgain": 4534,
      "aset": 4535,
      "iance": 4536,
      "ĠWARRANT": 4537,
      "Ġproperties": 4538,
      "Ġplaces": 4539,
      "Ġlegal": 4540,
      "ĠSen": 4541,
      "ifying": 4542,
      "Ed": 4543,
      "amera": 4544,
      "Ġapplied": 4545,
      "fficient": 4546,
      "ĠAng": 4547,
      "ls": 4548,
      "Request": 4549,
      "ursor": 4550,
      "etch": 4551,
      "Ġplatform": 4552,
      "69": 4553,
      "Ġinj": 4554,
      "Ġmentioned": 4555,
      "uto": 4556,
      "Ġkwargs": 4557,
      "ĠKey": 4558,
      "Ġ?": 4559,
      "Ġfalse": 4560,
      "ĠWork": 4561,
      "Ġscore": 4562,
      "pk": 4563,
      "Ġearlier": 4564,
      "lambda": 4565,
      "Ġimag": 4566,
      "datetime": 4567,
      "entially": 4568,
      "Ġtransfer": 4569,
      "Ġleading": 4570,
      "pite": 4571,
      "bon": 4572,
      "Ġtalking": 4573,
      "Ġmaster": 4574,
      "pm": 4575,
      "OC": 4576,
      "ae": 4577,
      "ĠFriday": 4578,
      "pool": 4579,
      "Ġthus": 4580,
      "Ġmissing": 4581,
      "Ad": 4582,
      "ĠWashington": 4583,
      "Ġhear": 4584,
      "Ġmaterials": 4585,
      "fit": 4586,
      "Ġdistance": 4587,
      "Â·": 4588,
      "Ġforms": 4589,
      "ĠTra": 4590,
      "Ġtemperature": 4591,
      "ded": 4592,
      "Ġprimary": 4593,
      "Ġplayed": 4594,
      "lor": 4595,
      "ĠFOR": 4596,
      "Ġimm": 4597,
      "84": 4598,
      "Ġwouldn": 4599,
      "Ġcharge": 4600,
      "Ġproduce": 4601,
      "View": 4602,
      "Ipv": 4603,
      "olean": 4604,
      "sign": 4605,
      "how": 4606,
      "Ġnorm": 4607,
      "=\\": 4608,
      "Ġgrant": 4609,
      "iation": 4610,
      "visor": 4611,
      "Ġband": 4612,
      "Ġeffective": 4613,
      "Ġfactor": 4614,
      "Ġpatients": 4615,
      "Ġlives": 4616,
      "Ġswe": 4617,
      "ĠNews": 4618,
      "Ġfloat": 4619,
      "sych": 4620,
      "Ġgreen": 4621,
      "Ġinternal": 4622,
      "enge": 4623,
      "Ġord": 4624,
      "ornia": 4625,
      "ulate": 4626,
      "Ġ29": 4627,
      "Ġspecies": 4628,
      "ĠScience": 4629,
      ")(": 4630,
      "umer": 4631,
      "ulations": 4632,
      "Class": 4633,
      "ography": 4634,
      "anger": 4635,
      "aby": 4636,
      "Ġdetermine": 4637,
      "pid": 4638,
      "xc": 4639,
      "Ġlarger": 4640,
      "ades": 4641,
      "ava": 4642,
      "Ġmorning": 4643,
      "unction": 4644,
      "Ġtrain": 4645,
      "ĠEven": 4646,
      "Ġsequence": 4647,
      "plot": 4648,
      "ionary": 4649,
      "Ġcosts": 4650,
      "mem": 4651,
      "Ġhighly": 4652,
      "Ġdescribed": 4653,
      "ports": 4654,
      "?\"": 4655,
      "ĠSub": 4656,
      "Ġmanufact": 4657,
      "ĠDel": 4658,
      "ooth": 4659,
      "long": 4660,
      "req": 4661,
      "ĠInternational": 4662,
      "bra": 4663,
      "Ġcalls": 4664,
      "Ġreduce": 4665,
      "Ġrepe": 4666,
      "Ġqual": 4667,
      "position": 4668,
      "Ġ'.": 4669,
      "Ġpoor": 4670,
      "57": 4671,
      "Ġrelig": 4672,
      "Ġgreater": 4673,
      "random": 4674,
      "Ġnumer": 4675,
      "AY": 4676,
      "ened": 4677,
      "Ġmiddle": 4678,
      "ĠType": 4679,
      "Ġhappens": 4680,
      "Ġrelevant": 4681,
      "ils": 4682,
      "BC": 4683,
      "enced": 4684,
      "ATION": 4685,
      "ĠDec": 4686,
      "Ġsec": 4687,
      "Ġ2006": 4688,
      "ishing": 4689,
      "Ġsignal": 4690,
      "Ġprefer": 4691,
      "Ġdog": 4692,
      "ĠPre": 4693,
      "Ġpurpose": 4694,
      "mt": 4695,
      "ĠPC": 4696,
      "Ġpattern": 4697,
      "ĠSince": 4698,
      "________": 4699,
      "Ġ',": 4700,
      "band": 4701,
      "Ġ$$\\": 4702,
      "Date": 4703,
      "ĠMus": 4704,
      "Ġnegative": 4705,
      "arrow": 4706,
      "Ġ[\"": 4707,
      "Ġsold": 4708,
      "Ġnation": 4709,
      "Be": 4710,
      "Ġpiece": 4711,
      "Ġbatter": 4712,
      "cor": 4713,
      "ĠAugust": 4714,
      "Ġaren": 4715,
      "irit": 4716,
      "iler": 4717,
      "zer": 4718,
      "Ġcollege": 4719,
      "ulty": 4720,
      "ĠTw": 4721,
      "ĠĠĠĠĠĠĠĠĠĠĠĠĠĠĠĠĠĠĠĠĠĠ": 4722,
      "section": 4723,
      "ĠMost": 4724,
      "Ġsupported": 4725,
      "Ġhands": 4726,
      "Ġalgorithm": 4727,
      "https": 4728,
      "ords": 4729,
      "ĠHer": 4730,
      "Ġfully": 4731,
      "KE": 4732,
      "Ġtransform": 4733,
      "ĠObama": 4734,
      "ĠDavid": 4735,
      "ĠRel": 4736,
      "Ġcache": 4737,
      "CO": 4738,
      "Ġplant": 4739,
      "ancy": 4740,
      "raint": 4741,
      "lication": 4742,
      "Ġlooked": 4743,
      "product": 4744,
      "Ġunless": 4745,
      "remove": 4746,
      "Ġparticularly": 4747,
      "Ġneigh": 4748,
      "ĠGroup": 4749,
      "raction": 4750,
      "ĠST": 4751,
      "Ġmicro": 4752,
      "Ġbud": 4753,
      "Ġgraduate": 4754,
      "aint": 4755,
      "Tag": 4756,
      "Ġul": 4757,
      "Ġscale": 4758,
      "ĠResearch": 4759,
      "]]": 4760,
      "term": 4761,
      "ernel": 4762,
      "Ġcit": 4763,
      "pc": 4764,
      "ĠSeptember": 4765,
      "Ġnearly": 4766,
      "NS": 4767,
      "hent": 4768,
      "Ġvirt": 4769,
      "Ġdemonstr": 4770,
      "Ġpicture": 4771,
      "ĠUp": 4772,
      "CharField": 4773,
      "overn": 4774,
      "Ġvac": 4775,
      "PR": 4776,
      "Ġsun": 4777,
      "Ġstreng": 4778,
      "Ġfirm": 4779,
      "iate": 4780,
      "Dict": 4781,
      "Ġreleased": 4782,
      "ĠSpec": 4783,
      "Ġrock": 4784,
      "Ġwants": 4785,
      "mar": 4786,
      "Ġmoving": 4787,
      "Ġdiscussion": 4788,
      "ĠDem": 4789,
      "ĠAnt": 4790,
      "ressed": 4791,
      "ĠSk": 4792,
      "ospital": 4793,
      "labor": 4794,
      "Ġappears": 4795,
      "Here": 4796,
      "Ġeight": 4797,
      "Ġpolice": 4798,
      "ĠRem": 4799,
      "ialize": 4800,
      "ech": 4801,
      "stack": 4802,
      "det": 4803,
      "ĠPat": 4804,
      "Ġ..": 4805,
      "ĠDist": 4806,
      "urg": 4807,
      "Ġexists": 4808,
      "Ġexperiment": 4809,
      "Ġhappened": 4810,
      "Ġexamples": 4811,
      "Ġskin": 4812,
      "En": 4813,
      "Ġple": 4814,
      "Ġbasis": 4815,
      "allow": 4816,
      "Ġhistor": 4817,
      "Ġinterface": 4818,
      "Ġbottom": 4819,
      "ĠCommun": 4820,
      "null": 4821,
      "ĠOctober": 4822,
      "56": 4823,
      "ĠIP": 4824,
      "iding": 4825,
      "ĠCalifornia": 4826,
      "ults": 4827,
      "Ġdro": 4828,
      "Ġwide": 4829,
      "ĠBlack": 4830,
      "olve": 4831,
      "iced": 4832,
      "Ġrat": 4833,
      "itic": 4834,
      "Ġstage": 4835,
      "Ġsen": 4836,
      "Le": 4837,
      "Ġjobs": 4838,
      "ĠNovember": 4839,
      "CS": 4840,
      "duc": 4841,
      "Ġreach": 4842,
      "Ġoptim": 4843,
      "yond": 4844,
      "cos": 4845,
      "Ġmodern": 4846,
      "ĠSaturday": 4847,
      "true": 4848,
      "Ġhour": 4849,
      "ounced": 4850,
      "UM": 4851,
      "Ġsolutions": 4852,
      "79": 4853,
      "Ġadvant": 4854,
      "Dis": 4855,
      "ĠDecember": 4856,
      "istory": 4857,
      "eted": 4858,
      "send": 4859,
      "Ġinterpre": 4860,
      "Ġfresh": 4861,
      "Ġhaven": 4862,
      "Item": 4863,
      "ĠOS": 4864,
      "fn": 4865,
      "ĠException": 4866,
      "ĠOP": 4867,
      "ĠInter": 4868,
      "oes": 4869,
      "Ġstru": 4870,
      "OW": 4871,
      "Ġmanager": 4872,
      "$,": 4873,
      "pute": 4874,
      "ĠData": 4875,
      "ĠPlay": 4876,
      "Ġexpand": 4877,
      "ĠDirect": 4878,
      "bose": 4879,
      "Ġarr": 4880,
      "Ġwindow": 4881,
      "}$$": 4882,
      "Ġsuccessful": 4883,
      "ĠCour": 4884,
      "Ġregist": 4885,
      "Ġroll": 4886,
      "Ġclosed": 4887,
      "ULT": 4888,
      "isf": 4889,
      "State": 4890,
      "xb": 4891,
      "igr": 4892,
      "Ġslight": 4893,
      "och": 4894,
      "dtype": 4895,
      "Ġwoman": 4896,
      "Ġknew": 4897,
      "Ġincreasing": 4898,
      "Ġselected": 4899,
      "Ġ65": 4900,
      "Ġedit": 4901,
      "Ġattribute": 4902,
      "ship": 4903,
      "cap": 4904,
      "Ġcampaign": 4905,
      "ĠMag": 4906,
      "Ġceleb": 4907,
      "rench": 4908,
      "sets": 4909,
      "next": 4910,
      "ystem": 4911,
      "void": 4912,
      "Ġstar": 4913,
      "prot": 4914,
      "ĠRepublic": 4915,
      ")\\": 4916,
      "real": 4917,
      "src": 4918,
      "Ġadvisor": 4919,
      "hold": 4920,
      "78": 4921,
      "Ġtick": 4922,
      "fortun": 4923,
      "Ġbeyond": 4924,
      "Ġ\"%": 4925,
      "uit": 4926,
      "Ġconfiguration": 4927,
      "uesday": 4928,
      "lear": 4929,
      "Some": 4930,
      "sm": 4931,
      "ĠOut": 4932,
      "Ġstraight": 4933,
      "Ġreflect": 4934,
      "Ġreve": 4935,
      "het": 4936,
      "Ġhop": 4937,
      "connection": 4938,
      "arnings": 4939,
      "Ġremoved": 4940,
      "ĠWed": 4941,
      "\"))": 4942,
      "Ġpark": 4943,
      "Ġvariety": 4944,
      "Ġswitch": 4945,
      "Ġcompared": 4946,
      "ensity": 4947,
      "Val": 4948,
      "Ġfunding": 4949,
      "68": 4950,
      "bre": 4951,
      "rics": 4952,
      "Ġreports": 4953,
      "Ġeth": 4954,
      "Ġmessages": 4955,
      "Ġmoved": 4956,
      "Ġtherefore": 4957,
      "graph": 4958,
      "txt": 4959,
      "ios": 4960,
      "////////////////": 4961,
      "Per": 4962,
      "urance": 4963,
      "Ġ\"\\": 4964,
      "Pr": 4965,
      "common": 4966,
      "Ġcreating": 4967,
      "DB": 4968,
      "Ġeasier": 4969,
      "Ġcombin": 4970,
      "Ġeyes": 4971,
      "Ġdatetime": 4972,
      "Ġ),": 4973,
      "ilies": 4974,
      "ursday": 4975,
      "(-": 4976,
      "ĠLaw": 4977,
      "Ġvector": 4978,
      "Ġdetect": 4979,
      "Ġbrought": 4980,
      "location": 4981,
      "hest": 4982,
      "soft": 4983,
      "Ġlocated": 4984,
      "Ġchalleng": 4985,
      "Ġimmediately": 4986,
      "enty": 4987,
      "Ġmist": 4988,
      "ĠEm": 4989,
      "Ġincreased": 4990,
      "Ġproced": 4991,
      "Ġhuge": 4992,
      "Ġdefinition": 4993,
      "Ġexerc": 4994,
      "ĠKing": 4995,
      "lower": 4996,
      "Ġlinks": 4997,
      "Ġassign": 4998,
      "Ġconnected": 4999,
      "Ġtesting": 5000,
      "Ġtown": 5001,
      "Ġfollowed": 5002,
      "usion": 5003,
      "struct": 5004,
      "Ġthreat": 5005,
      "meta": 5006,
      "Ġsets": 5007,
      "Ġseparate": 5008,
      "Ġyes": 5009,
      "Ġpaid": 5010,
      "oday": 5011,
      "'''": 5012,
      "aling": 5013,
      "begin": 5014,
      "Ġhelps": 5015,
      "osition": 5016,
      "Ġexpression": 5017,
      "Ġdoctor": 5018,
      "sche": 5019,
      "resource": 5020,
      "FL": 5021,
      "ĠCong": 5022,
      "Ġassess": 5023,
      "Ġseek": 5024,
      "Ġdelete": 5025,
      "weight": 5026,
      "ĠCollege": 5027,
      "\"],": 5028,
      "Ġrank": 5029,
      "Ġdrop": 5030,
      "ĠAustral": 5031,
      "ĠWhy": 5032,
      "sqrt": 5033,
      "outer": 5034,
      "ĠUK": 5035,
      "Wr": 5036,
      "volume": 5037,
      "Ġachieve": 5038,
      "QU": 5039,
      "Ġson": 5040,
      "Ġaxis": 5041,
      "Ġwish": 5042,
      "`.": 5043,
      "ĠSunday": 5044,
      "Ġfeet": 5045,
      "Ab": 5046,
      "changed": 5047,
      "ĠClass": 5048,
      "tests": 5049,
      "alax": 5050,
      "Ġdark": 5051,
      "Ġcopyright": 5052,
      "Ġopinion": 5053,
      "non": 5054,
      "she": 5055,
      "Ġplans": 5056,
      "Ġproof": 5057,
      "Ġactions": 5058,
      "ĠInternet": 5059,
      "Ġgenerate": 5060,
      "Ġpython": 5061,
      "ĠService": 5062,
      "EC": 5063,
      "Ġassume": 5064,
      "41": 5065,
      "gment": 5066,
      "Rec": 5067,
      "Ġveh": 5068,
      "Ġfather": 5069,
      "orge": 5070,
      "Ġspent": 5071,
      "Ġfelt": 5072,
      "ĠChina": 5073,
      "icate": 5074,
      "Ġthesis": 5075,
      "stop": 5076,
      "Ġfixed": 5077,
      "RA": 5078,
      "Ġupdated": 5079,
      "---": 5080,
      "Ġinform": 5081,
      "ocal": 5082,
      "Ġfederal": 5083,
      "QL": 5084,
      "Ġmovie": 5085,
      "column": 5086,
      "Ġoverall": 5087,
      "Acc": 5088,
      "parser": 5089,
      "access": 5090,
      "Ġorganization": 5091,
      "Ġfactors": 5092,
      "sed": 5093,
      "Ġbool": 5094,
      "ĠFebruary": 5095,
      "Ġalone": 5096,
      "ategy": 5097,
      "Ġextrem": 5098,
      "Ġmobile": 5099,
      "ĠÂł": 5100,
      "ican": 5101,
      "Ġoperations": 5102,
      "ocation": 5103,
      "ros": 5104,
      "bas": 5105,
      "ulated": 5106,
      "Ġseconds": 5107,
      "They": 5108,
      "Ġcouldn": 5109,
      "Ġcontroll": 5110,
      "Ġimplied": 5111,
      "xe": 5112,
      "Ġdir": 5113,
      "ĠPaul": 5114,
      "Ġcarry": 5115,
      "Ġchoices": 5116,
      "nesday": 5117,
      "gest": 5118,
      "Ġpair": 5119,
      "Ġspect": 5120,
      "Ġaspect": 5121,
      "43": 5122,
      "ql": 5123,
      "Ġsales": 5124,
      "Ġtowards": 5125,
      "vention": 5126,
      "wood": 5127,
      "izations": 5128,
      "Ġshot": 5129,
      "Ġ2005": 5130,
      "Ġsell": 5131,
      "ĠLin": 5132,
      "Ġparse": 5133,
      "Ġresearchers": 5134,
      "Ġsleep": 5135,
      "ĠMonday": 5136,
      "ĠJew": 5137,
      "Ġcop": 5138,
      "Ġcourses": 5139,
      "Ġwind": 5140,
      "aled": 5141,
      "Ġbank": 5142,
      "PA": 5143,
      "Ġmilitary": 5144,
      "Ġclearly": 5145,
      "flict": 5146,
      "Of": 5147,
      "ĠSte": 5148,
      "Ġcomfort": 5149,
      "Ġmaximum": 5150,
      "ĠURL": 5151,
      "Ġepis": 5152,
      "hy": 5153,
      "Ġtrust": 5154,
      "xd": 5155,
      "Ġaccepted": 5156,
      "Ġcoordin": 5157,
      "Ġcontaining": 5158,
      "De": 5159,
      "undred": 5160,
      "Ġsolve": 5161,
      "ondon": 5162,
      "inner": 5163,
      "alpha": 5164,
      "Ġproviding": 5165,
      "Ġwhatever": 5166,
      "'].": 5167,
      "metadata": 5168,
      "Inter": 5169,
      "=(": 5170,
      "rial": 5171,
      "pir": 5172,
      "Ġbirth": 5173,
      "ĠRuss": 5174,
      "Ġsurv": 5175,
      "acity": 5176,
      "Ġcentury": 5177,
      "iled": 5178,
      "rief": 5179,
      "olic": 5180,
      "lection": 5181,
      "Ġquot": 5182,
      "Ġruns": 5183,
      "eval": 5184,
      "Ġdrink": 5185,
      "ado": 5186,
      "rupt": 5187,
      "ronic": 5188,
      "Ġcompar": 5189,
      "ago": 5190,
      "ainer": 5191,
      "Ġthous": 5192,
      "Ġbenefits": 5193,
      "Ġpush": 5194,
      "ĠStreet": 5195,
      "ville": 5196,
      "NAME": 5197,
      "Ġdu": 5198,
      "rael": 5199,
      "OK": 5200,
      "ĠWell": 5201,
      "Ġbur": 5202,
      "ĠFace": 5203,
      "ouble": 5204,
      "ĠĠĠĠĠĠĠĠĠĠĠĠĠĠĠĠĠĠĠĠĠĠĠĠĠĠ": 5205,
      "abilities": 5206,
      "wer": 5207,
      "Ġ>=": 5208,
      "sa": 5209,
      "constructor": 5210,
      "Ġoptional": 5211,
      "ĠĠĠĠĠĠĠĠĠĠĠĠĠĠĠĠĠĠĠĠĠĠĠĠĠĠĠĠ": 5212,
      "Ġwarm": 5213,
      "nodes": 5214,
      "bum": 5215,
      "Ġfavorite": 5216,
      "Ġkeys": 5217,
      "ĠTechn": 5218,
      "space": 5219,
      "estamp": 5220,
      "elcome": 5221,
      "headers": 5222,
      "ĠMac": 5223,
      "Ġutil": 5224,
      "IES": 5225,
      "isl": 5226,
      "Ġtheore": 5227,
      "ipment": 5228,
      "house": 5229,
      "PRO": 5230,
      "EE": 5231,
      "domain": 5232,
      "Ġapproxim": 5233,
      "Ġflag": 5234,
      "exists": 5235,
      "Ġindependent": 5236,
      "ipl": 5237,
      "ipped": 5238,
      "Ġdemand": 5239,
      "iny": 5240,
      "Why": 5241,
      "Ġapprec": 5242,
      "Ġtrou": 5243,
      "Ġcollabor": 5244,
      "ran": 5245,
      "direct": 5246,
      "Ġheaders": 5247,
      "ncy": 5248,
      "cy": 5249,
      "Ġrequirements": 5250,
      "times": 5251,
      "Ġbillion": 5252,
      "exit": 5253,
      "mas": 5254,
      "Group": 5255,
      ")/": 5256,
      "icks": 5257,
      "Ġgeometry": 5258,
      "wide": 5259,
      "Ġdepends": 5260,
      ".'": 5261,
      "site": 5262,
      "Ġconstruct": 5263,
      "fg": 5264,
      "case": 5265,
      "Ġsafety": 5266,
      "Ġtuple": 5267,
      "Trans": 5268,
      "acket": 5269,
      "Info": 5270,
      "this": 5271,
      "Ġrelative": 5272,
      "\"):": 5273,
      "Ġbrain": 5274,
      "cons": 5275,
      "ĠGL": 5276,
      "itect": 5277,
      "oul": 5278,
      "Ġscientific": 5279,
      "Ġfinding": 5280,
      "96": 5281,
      "Run": 5282,
      "prec": 5283,
      "Ġquarter": 5284,
      "ĠJournal": 5285,
      "Ġpow": 5286,
      "DS": 5287,
      "itory": 5288,
      "Count": 5289,
      "Size": 5290,
      "vest": 5291,
      "ORT": 5292,
      "Ġtermin": 5293,
      "Ġrecovery": 5294,
      "Ġcustomers": 5295,
      "ĠMor": 5296,
      "evice": 5297,
      "script": 5298,
      "Ġcoll": 5299,
      "Ġdep": 5300,
      "cel": 5301,
      "Ġpen": 5302,
      "Ġded": 5303,
      "76": 5304,
      "Ġlambda": 5305,
      "uing": 5306,
      "58": 5307,
      "Ġlinear": 5308,
      "Ġheight": 5309,
      "orter": 5310,
      "Ġagreed": 5311,
      "inger": 5312,
      "Ġ32": 5313,
      "ously": 5314,
      "Ġrates": 5315,
      "ĠEast": 5316,
      "ico": 5317,
      "idents": 5318,
      "Ġdirector": 5319,
      "Ġrecords": 5320,
      "zy": 5321,
      "ether": 5322,
      "ĠSim": 5323,
      "Ġadding": 5324,
      "('/": 5325,
      "Ġnor": 5326,
      "ĠAir": 5327,
      "================================": 5328,
      "Ġrace": 5329,
      "ĠGreen": 5330,
      ")):": 5331,
      "required": 5332,
      "Ġproduced": 5333,
      "Ġrare": 5334,
      "amsung": 5335,
      "porary": 5336,
      "imin": 5337,
      "Ġtend": 5338,
      "ĠPress": 5339,
      "ILITY": 5340,
      "Ġseven": 5341,
      "Ġdefinitely": 5342,
      "Ġbenefit": 5343,
      "ĠMany": 5344,
      "HOUT": 5345,
      "ara": 5346,
      "that": 5347,
      "Pre": 5348,
      "_(": 5349,
      "android": 5350,
      "pective": 5351,
      "Ġunits": 5352,
      "Ġtour": 5353,
      "axis": 5354,
      "Ġraw": 5355,
      "Ġbeautiful": 5356,
      "âĢī": 5357,
      "Please": 5358,
      "Ġprop": 5359,
      "Ġspend": 5360,
      "ifest": 5361,
      "ĠUser": 5362,
      "Ġrespons": 5363,
      "ĠThanks": 5364,
      "Ġexcell": 5365,
      "blank": 5366,
      "pan": 5367,
      "Ġfaculty": 5368,
      "ĠSuper": 5369,
      "FOR": 5370,
      "ipping": 5371,
      "arant": 5372,
      "Ġreject": 5373,
      "arrant": 5374,
      "zone": 5375,
      "Ġnotes": 5376,
      "ĠTex": 5377,
      "Ġbecomes": 5378,
      "Ġprofile": 5379,
      "Ġconcer": 5380,
      "Ġenv": 5381,
      "Ġviews": 5382,
      "vm": 5383,
      "Ġcommit": 5384,
      "Ġgenerated": 5385,
      "SD": 5386,
      "ialog": 5387,
      "Ġarticles": 5388,
      "Ġsquare": 5389,
      "ä¸": 5390,
      "future": 5391,
      "Ġadjust": 5392,
      "Ġacqu": 5393,
      "Ġsmaller": 5394,
      "ĠMiss": 5395,
      "Ġblue": 5396,
      "iki": 5397,
      "ĠBook": 5398,
      "UB": 5399,
      "Ġrot": 5400,
      "ctors": 5401,
      "Ġmeant": 5402,
      "Ġ31": 5403,
      "Response": 5404,
      "ying": 5405,
      "ĠÎ": 5406,
      "ida": 5407,
      "cat": 5408,
      "NA": 5409,
      "Ġfinished": 5410,
      "ifications": 5411,
      "54": 5412,
      "ĠList": 5413,
      "Ġphotos": 5414,
      ",'": 5415,
      "EXT": 5416,
      "urity": 5417,
      "ications": 5418,
      "More": 5419,
      "ĠWITHOUT": 5420,
      "Ġplot": 5421,
      "oreign": 5422,
      "ĠEvery": 5423,
      "username": 5424,
      "Ġhair": 5425,
      "ĠCr": 5426,
      "Ġwww": 5427,
      "Fact": 5428,
      "bound": 5429,
      "Ġspread": 5430,
      "Ġfill": 5431,
      "iling": 5432,
      "Ġmodify": 5433,
      "BA": 5434,
      "Ġculture": 5435,
      "words": 5436,
      "bool": 5437,
      "ĠOver": 5438,
      "While": 5439,
      "tree": 5440,
      "Ġautomatically": 5441,
      "vere": 5442,
      "inct": 5443,
      "Ġvert": 5444,
      "Ġstd": 5445,
      "Ġaward": 5446,
      "orry": 5447,
      "{{": 5448,
      "azing": 5449,
      "Ġequival": 5450,
      "ĠSD": 5451,
      "Ġcategory": 5452,
      "Ġsounds": 5453,
      "gar": 5454,
      "Ġscen": 5455,
      "ĠEarth": 5456,
      "rier": 5457,
      "Ġnull": 5458,
      "rd": 5459,
      "ĠDevelop": 5460,
      "Ġexternal": 5461,
      "Ġlargest": 5462,
      "Ġprefix": 5463,
      "reement": 5464,
      "Ġcaused": 5465,
      "Thanks": 5466,
      "dule": 5467,
      "ĠNetwork": 5468,
      "Ġselection": 5469,
      "500": 5470,
      "Ġhyp": 5471,
      "ellig": 5472,
      "Ġknows": 5473,
      "Ġdaily": 5474,
      "Ġtrade": 5475,
      "Ġposted": 5476,
      "pub": 5477,
      "execute": 5478,
      "Ġvs": 5479,
      "argument": 5480,
      "Ġpublication": 5481,
      "ups": 5482,
      "Ġfamilies": 5483,
      "Ġmail": 5484,
      "Ġincor": 5485,
      "derr": 5486,
      "ĠCourt": 5487,
      "Ġcounter": 5488,
      "encode": 5489,
      "matrix": 5490,
      "']['": 5491,
      "Ġolder": 5492,
      "Ġwild": 5493,
      "ĠProf": 5494,
      "Ġhundred": 5495,
      "Ġlearned": 5496,
      "She": 5497,
      "iques": 5498,
      "aith": 5499,
      "Ġgrowing": 5500,
      "Ġdynam": 5501,
      "ĠWhite": 5502,
      "icens": 5503,
      "groups": 5504,
      "fortunately": 5505,
      "97": 5506,
      "even": 5507,
      "ĠEuropean": 5508,
      "onal": 5509,
      "icated": 5510,
      "licenses": 5511,
      "lisher": 5512,
      "igration": 5513,
      "Ġbudget": 5514,
      "iant": 5515,
      "ĠKe": 5516,
      "Ġtf": 5517,
      "Ġconvers": 5518,
      "oder": 5519,
      "Ġshoot": 5520,
      "ABLE": 5521,
      "Message": 5522,
      "element": 5523,
      "bytes": 5524,
      "urb": 5525,
      "ruit": 5526,
      "amily": 5527,
      "grade": 5528,
      "Ġfem": 5529,
      "]))": 5530,
      "Ġindividuals": 5531,
      "ĠBen": 5532,
      "Ġpromot": 5533,
      "alaxy": 5534,
      "Ġpermission": 5535,
      "Ġdictionary": 5536,
      "mask": 5537,
      "98": 5538,
      "try": 5539,
      "prov": 5540,
      "Ġresponsible": 5541,
      "inn": 5542,
      "cape": 5543,
      "Ġpool": 5544,
      "Ġwife": 5545,
      "ipp": 5546,
      "dest": 5547,
      "free": 5548,
      "normal": 5549,
      "Ġcapital": 5550,
      "Ġeat": 5551,
      "amma": 5552,
      "omb": 5553,
      "Ġtraditional": 5554,
      "Ġcore": 5555,
      "results": 5556,
      "Ġdeb": 5557,
      "alog": 5558,
      "rome": 5559,
      "Ġearth": 5560,
      "Ġsecret": 5561,
      "ĠLondon": 5562,
      "Ġeye": 5563,
      "ford": 5564,
      "ĠTuesday": 5565,
      "allel": 5566,
      "Ġbuff": 5567,
      "Ġthrow": 5568,
      "Ġedge": 5569,
      "Last": 5570,
      "Te": 5571,
      "Param": 5572,
      "orial": 5573,
      "Ġtransport": 5574,
      "Ġnumpy": 5575,
      "ĠIsrael": 5576,
      "ĠJack": 5577,
      "Ġraised": 5578,
      "Ġeconomy": 5579,
      "ĠÃ": 5580,
      "rapper": 5581,
      "Ġdoll": 5582,
      "Ġpresented": 5583,
      "Ġsatisf": 5584,
      "la": 5585,
      "ĠĠĠĠĠĠĠĠĠĠĠĠĠĠĠĠĠĠĠĠĠĠĠĠĠĠĠĠĠĠĠĠĠĠĠ": 5586,
      "aughter": 5587,
      "ario": 5588,
      "ĠMake": 5589,
      "hash": 5590,
      "Rep": 5591,
      "help": 5592,
      "Ġchannel": 5593,
      "Ġ;": 5594,
      "Yes": 5595,
      "Ġteams": 5596,
      "Ġdamage": 5597,
      "ĠProgram": 5598,
      "')])": 5599,
      "Ġaim": 5600,
      "Ġshell": 5601,
      "51": 5602,
      "Ġcamera": 5603,
      "ĠII": 5604,
      "Ġsto": 5605,
      "acter": 5606,
      "igma": 5607,
      "ĠTime": 5608,
      "under": 5609,
      "ĠGovern": 5610,
      "uuid": 5611,
      "ĠRE": 5612,
      "Ġguy": 5613,
      "Note": 5614,
      "Ġregarding": 5615,
      "virtual": 5616,
      "sort": 5617,
      "Ġmenu": 5618,
      "ĠEr": 5619,
      "ĠAssociation": 5620,
      "ĠEach": 5621,
      "vari": 5622,
      "fin": 5623,
      "icies": 5624,
      "Ġsoft": 5625,
      "Ġ2004": 5626,
      "ĠThursday": 5627,
      "Ġgone": 5628,
      "greg": 5629,
      "Ġinterpret": 5630,
      "Ġresist": 5631,
      "Event": 5632,
      "Ġsch": 5633,
      "Ġdry": 5634,
      "ĠInstitute": 5635,
      "called": 5636,
      "usiness": 5637,
      "cho": 5638,
      "shot": 5639,
      "IST": 5640,
      "Ġcritical": 5641,
      "52": 5642,
      "ota": 5643,
      "Ġbattery": 5644,
      "ĠAp": 5645,
      "Many": 5646,
      "Ġefforts": 5647,
      "ounce": 5648,
      "TE": 5649,
      "Ġ{\"": 5650,
      "sql": 5651,
      "Ġserve": 5652,
      "oving": 5653,
      "ĠFacebook": 5654,
      "ervation": 5655,
      "ĠChurch": 5656,
      "Ġminimum": 5657,
      "Ġhar": 5658,
      "usr": 5659,
      "eds": 5660,
      "Ġcommerc": 5661,
      "Index": 5662,
      "However": 5663,
      "compile": 5664,
      "Ġsess": 5665,
      "SP": 5666,
      "ĠBecause": 5667,
      "ĠRun": 5668,
      "ĠEduc": 5669,
      "Ġrob": 5670,
      "ĠJames": 5671,
      "Ġ80": 5672,
      "lay": 5673,
      "Ġexplicit": 5674,
      "you": 5675,
      "Ġinstruct": 5676,
      "Ġsetup": 5677,
      "ĠDan": 5678,
      "lies": 5679,
      "ĠPal": 5680,
      "Ġlisted": 5681,
      "URL": 5682,
      "mathrm": 5683,
      "Ġfarm": 5684,
      "Ġstories": 5685,
      "Let": 5686,
      "Handler": 5687,
      "Ġ'-": 5688,
      "Ġcast": 5689,
      "uman": 5690,
      "ribe": 5691,
      "Ġpositions": 5692,
      "sn": 5693,
      "crete": 5694,
      "Ġdoor": 5695,
      "ĠâĢ¦": 5696,
      "Ġattend": 5697,
      "second": 5698,
      "Ġut": 5699,
      "icine": 5700,
      "Ġdied": 5701,
      "Ġcivil": 5702,
      "reme": 5703,
      "ĠMo": 5704,
      "Ġdriver": 5705,
      "Ġmostly": 5706,
      "IONS": 5707,
      "pred": 5708,
      "etic": 5709,
      "inder": 5710,
      "Ġplanning": 5711,
      "Ġguys": 5712,
      "iliar": 5713,
      "osure": 5714,
      "Ġcoding": 5715,
      "Ġhous": 5716,
      "ĠRich": 5717,
      "eting": 5718,
      "53": 5719,
      "Ġnut": 5720,
      "Gener": 5721,
      "olec": 5722,
      "flags": 5723,
      "anned": 5724,
      "Ġextremely": 5725,
      "EO": 5726,
      "$\\": 5727,
      "Ġannounced": 5728,
      "Ġvoice": 5729,
      "icip": 5730,
      "ĠWr": 5731,
      "Ġfans": 5732,
      "Ġthanks": 5733,
      "Ġstack": 5734,
      "DA": 5735,
      "Ġgold": 5736,
      "Ġsplit": 5737,
      "Ġstarts": 5738,
      "exception": 5739,
      "Ġadvantage": 5740,
      "Ġlicense": 5741,
      "ume": 5742,
      "Ġlogger": 5743,
      "=%": 5744,
      "Ġtypically": 5745,
      "sd": 5746,
      "Ġok": 5747,
      "Ġimplementation": 5748,
      "ĠMem": 5749,
      "useum": 5750,
      "Ġnovel": 5751,
      "cles": 5752,
      "Ġgrand": 5753,
      "ĠRobert": 5754,
      "Ġestablished": 5755,
      "ĠString": 5756,
      "ĠGreat": 5757,
      "Ġminor": 5758,
      "Ġsubs": 5759,
      "ustr": 5760,
      "yan": 5761,
      "amin": 5762,
      "Ġwarrant": 5763,
      "timeout": 5764,
      "Ġextension": 5765,
      "Ġfollows": 5766,
      "Ġfinish": 5767,
      "gu": 5768,
      "Ġshowing": 5769,
      "Ġkn": 5770,
      "Element": 5771,
      "ĠMichael": 5772,
      "well": 5773,
      "Ġwidth": 5774,
      "Ġbul": 5775,
      "ĠIndian": 5776,
      "ĠPhil": 5777,
      "Ġlect": 5778,
      "ĠUSB": 5779,
      "Ġmiles": 5780,
      "ĠFrench": 5781,
      "ĠBritish": 5782,
      "Module": 5783,
      "63": 5784,
      "ĠOh": 5785,
      "tmp": 5786,
      "Ġcentral": 5787,
      "74": 5788,
      "Ġdebug": 5789,
      "Ġshared": 5790,
      "Ġletters": 5791,
      "Ġsupervisor": 5792,
      "']:": 5793,
      "full": 5794,
      "Serv": 5795,
      "creen": 5796,
      "IND": 5797,
      "rian": 5798,
      "ĠMart": 5799,
      "omin": 5800,
      "oded": 5801,
      "ĠTH": 5802,
      "aste": 5803,
      "Ġtimeout": 5804,
      "thread": 5805,
      "Ġluck": 5806,
      "Ġprices": 5807,
      "Ġprobability": 5808,
      "Ġbill": 5809,
      "obs": 5810,
      "Ġoffered": 5811,
      "Ġspot": 5812,
      "Ġcompleted": 5813,
      "Ġinteger": 5814,
      "Ġhelpful": 5815,
      "ĠVer": 5816,
      "den": 5817,
      "ride": 5818,
      "Ġkept": 5819,
      "Ġenable": 5820,
      "Fl": 5821,
      "onym": 5822,
      "Ġremains": 5823,
      "Ġcommands": 5824,
      "Ġfeeling": 5825,
      "ĠChar": 5826,
      "Ġhelped": 5827,
      ".\")": 5828,
      "Ġrestrict": 5829,
      "ABILITY": 5830,
      "ĠEv": 5831,
      "ĠWednesday": 5832,
      "orig": 5833,
      "mes": 5834,
      "SA": 5835,
      "Ġmovement": 5836,
      "Ġattract": 5837,
      "ĠĠĠĠĠĠĠĠĠĠĠĠĠĠĠĠĠĠĠĠĠĠĠĠĠĠĠĠĠ": 5838,
      "Ġtruth": 5839,
      "Ġdigital": 5840,
      "ĠHel": 5841,
      "Pol": 5842,
      "72": 5843,
      "Ġsociety": 5844,
      "Ġvoid": 5845,
      "while": 5846,
      "(?": 5847,
      "2013": 5848,
      "Ġphoto": 5849,
      "Ġextract": 5850,
      "Ġtoward": 5851,
      "uri": 5852,
      "startswith": 5853,
      "iber": 5854,
      "za": 5855,
      "82": 5856,
      "orrow": 5857,
      "ĠPhys": 5858,
      "Ġonto": 5859,
      "Ġvote": 5860,
      "Ġmonitor": 5861,
      "Ġnodes": 5862,
      "Ġdisable": 5863,
      "ĠCouncil": 5864,
      "Ġfear": 5865,
      "Ġcomponent": 5866,
      "NE": 5867,
      "]),": 5868,
      "ĠGood": 5869,
      "ournals": 5870,
      "><": 5871,
      "Ġconstruction": 5872,
      "Ġchanging": 5873,
      "ĠTexas": 5874,
      "osh": 5875,
      "Ġemb": 5876,
      "Ġelectric": 5877,
      "Ġfailure": 5878,
      "CP": 5879,
      "Ġbinary": 5880,
      "iform": 5881,
      "Ġgoals": 5882,
      "Ġclub": 5883,
      "Ġannual": 5884,
      "umps": 5885,
      "Ġplaced": 5886,
      "Ġ90": 5887,
      "Ġwood": 5888,
      "ĠGo": 5889,
      "Ġweak": 5890,
      "errors": 5891,
      "Ġsmart": 5892,
      "tk": 5893,
      "Ġbytes": 5894,
      "ĠThom": 5895,
      "dec": 5896,
      "Ġdecide": 5897,
      "Comp": 5898,
      "81": 5899,
      "Ġ],": 5900,
      "AGE": 5901,
      "Ġabsolute": 5902,
      "Ġslightly": 5903,
      "ĠMicro": 5904,
      "ĠCreate": 5905,
      "Ġgetattr": 5906,
      "Source": 5907,
      "ĠName": 5908,
      "May": 5909,
      "lands": 5910,
      "Ġreset": 5911,
      "Ġapart": 5912,
      "Ġsolid": 5913,
      "tered": 5914,
      "Ġdecre": 5915,
      "ĠDE": 5916,
      "ETTER": 5917,
      "Ġproposed": 5918,
      "Ġshowed": 5919,
      "73": 5920,
      "Ġforeign": 5921,
      "Ġbackup": 5922,
      "First": 5923,
      "Ġstrategy": 5924,
      "ests": 5925,
      "Ġpreviously": 5926,
      "Ġversions": 5927,
      "Ġpossibly": 5928,
      "Ġdoubt": 5929,
      "Ġstrugg": 5930,
      "Ġearn": 5931,
      "Ġplus": 5932,
      "ĠPort": 5933,
      "Ġguid": 5934,
      "Ġbaby": 5935,
      "2012": 5936,
      "ca": 5937,
      "Ġfat": 5938,
      "Ġremote": 5939,
      "ĠBay": 5940,
      "Ġtechnical": 5941,
      "Down": 5942,
      "Ġequipment": 5943,
      "ij": 5944,
      "ĠProject": 5945,
      "asure": 5946,
      "See": 5947,
      "Our": 5948,
      "Integer": 5949,
      "Ġopening": 5950,
      "Ġformula": 5951,
      "dro": 5952,
      "Head": 5953,
      "Ġpermissions": 5954,
      "ossible": 5955,
      "Ġupper": 5956,
      "Ġuniversities": 5957,
      "Ġproperly": 5958,
      "ĠChe": 5959,
      "Ġattributes": 5960,
      "These": 5961,
      "uce": 5962,
      "Ġinternet": 5963,
      "ĠAnsible": 5964,
      "Ġgun": 5965,
      "Ġstandards": 5966,
      "ĠOffice": 5967,
      "Py": 5968,
      "imary": 5969,
      "ĠCanada": 5970,
      "ĠChristian": 5971,
      "ĠSec": 5972,
      "pay": 5973,
      "Ġ<=": 5974,
      "inese": 5975,
      "Ġri": 5976,
      "ĠAPI": 5977,
      "61": 5978,
      "Ġundergrad": 5979,
      "Ġ2000": 5980,
      "osen": 5981,
      "gebra": 5982,
      "ĠTO": 5983,
      "manager": 5984,
      "ATA": 5985,
      "Ġcorresponding": 5986,
      "ĠServices": 5987,
      "Ġseeing": 5988,
      "ĠForm": 5989,
      "ĠLETTER": 5990,
      "support": 5991,
      "Ġpsych": 5992,
      "Ġencoding": 5993,
      "83": 5994,
      "Ġbeg": 5995,
      "Ġkill": 5996,
      "Ġequations": 5997,
      "Ġalternative": 5998,
      "Create": 5999,
      "oma": 6000,
      "produ": 6001,
      "Ġflash": 6002,
      "Ġserved": 6003,
      "Ġtemp": 6004,
      "Ġdetail": 6005,
      "Your": 6006,
      "ĠPower": 6007,
      "Ġstrength": 6008,
      "card": 6009,
      "UD": 6010,
      "ĠIndia": 6011,
      "clusion": 6012,
      "Ġchallenge": 6013,
      "Ref": 6014,
      "Ġconflict": 6015,
      "Ns": 6016,
      "Ġtrip": 6017,
      "Any": 6018,
      "Ġagent": 6019,
      "Ġstatic": 6020,
      "xa": 6021,
      "ulf": 6022,
      "queue": 6023,
      "Ġmask": 6024,
      "Ġpartners": 6025,
      "ĠSmith": 6026,
      ".')": 6027,
      "Ġcommercial": 6028,
      "Ġdefine": 6029,
      "Ġsupposed": 6030,
      "Ġcomponents": 6031,
      "Ġexperi": 6032,
      "ĠUSA": 6033,
      "ideos": 6034,
      "ologies": 6035,
      "ĠRet": 6036,
      "Ġoccas": 6037,
      "ky": 6038,
      "ATH": 6039,
      "ture": 6040,
      "Ġcontinued": 6041,
      "IA": 6042,
      "offset": 6043,
      "batch": 6044,
      "Ġsett": 6045,
      "road": 6046,
      "Ġprem": 6047,
      "00000000": 6048,
      "profile": 6049,
      "Ġstick": 6050,
      "Ġlots": 6051,
      "Ġexcellent": 6052,
      "Ptr": 6053,
      "Ġxml": 6054,
      "ifies": 6055,
      "Ġfan": 6056,
      "Ġconver": 6057,
      "Ġtrig": 6058,
      "rical": 6059,
      "Ġowners": 6060,
      "Ġhealthy": 6061,
      ")[": 6062,
      "Ġdegrees": 6063,
      "Ġstrateg": 6064,
      "register": 6065,
      "othing": 6066,
      "Ġoffset": 6067,
      "Ġsched": 6068,
      "Ġpurchase": 6069,
      "Ġsamples": 6070,
      "igation": 6071,
      "Ġopportunities": 6072,
      "Ġ\\\\": 6073,
      "Ġahead": 6074,
      "inv": 6075,
      "ACK": 6076,
      "Ġhighest": 6077,
      "ĠLog": 6078,
      "ĠFind": 6079,
      "Ġbrand": 6080,
      "{}": 6081,
      "Ġfunc": 6082,
      "ĠHome": 6083,
      "displaystyle": 6084,
      "Rem": 6085,
      "Ġborn": 6086,
      "Ġfolder": 6087,
      "ĠIM": 6088,
      "Ġpros": 6089,
      "ĠYes": 6090,
      "equ": 6091,
      "Ġwilling": 6092,
      "else": 6093,
      "??": 6094,
      "Ġdeveloping": 6095,
      "Ġmill": 6096,
      "Ġworkers": 6097,
      "osis": 6098,
      "tab": 6099,
      "erry": 6100,
      "Ġ70": 6101,
      "uled": 6102,
      "Ġspirit": 6103,
      "Ġsupply": 6104,
      "ĠVersion": 6105,
      "berg": 6106,
      "Ġthank": 6107,
      "ĠâĪ": 6108,
      "Ġconcent": 6109,
      "ĠAlthough": 6110,
      "Ġweekend": 6111,
      "ĠĠčĊ": 6112,
      "Ġgrade": 6113,
      "fast": 6114,
      "iency": 6115,
      "Ġcircum": 6116,
      "sv": 6117,
      "Ġdocuments": 6118,
      "leg": 6119,
      "olf": 6120,
      "Ġrequests": 6121,
      "Ġbug": 6122,
      "ĠFin": 6123,
      "Imp": 6124,
      "Ġofficials": 6125,
      "Ġsenior": 6126,
      "ĠUN": 6127,
      "Ġsupports": 6128,
      "rule": 6129,
      "ĠCongress": 6130,
      "loader": 6131,
      "BU": 6132,
      "Ġcontr": 6133,
      "ĠBig": 6134,
      "public": 6135,
      "cert": 6136,
      "ĠAnn": 6137,
      "Ġorigin": 6138,
      "exc": 6139,
      "temp": 6140,
      "stain": 6141,
      "Ġbrother": 6142,
      "\").": 6143,
      "eph": 6144,
      "AND": 6145,
      "Ġpet": 6146,
      "package": 6147,
      "Ġspecifically": 6148,
      "Ġstress": 6149,
      "Ġpictures": 6150,
      "Ġpartner": 6151,
      "Ġnuc": 6152,
      "Ġmut": 6153,
      "vals": 6154,
      "Ġdivision": 6155,
      "Ġcalling": 6156,
      "Ġandroid": 6157,
      "div": 6158,
      "reedom": 6159,
      "ificate": 6160,
      "Ġwat": 6161,
      "ashion": 6162,
      "Sp": 6163,
      "Line": 6164,
      "classes": 6165,
      "Ġnetworks": 6166,
      "}^{": 6167,
      "Manager": 6168,
      "¿½": 6169,
      "ĠĠĠĠĠĠĠĠĠĠĠĠĠĠĠĠĠĠĠĠĠĠĠĠĠĠĠĠĠĠ": 6170,
      "Ġadvance": 6171,
      "Ġglass": 6172,
      "SH": 6173,
      "Ġharm": 6174,
      "ĠReview": 6175,
      "Ġguide": 6176,
      "Ġcold": 6177,
      "Ġlabor": 6178,
      "Ġlabels": 6179,
      "ĠFlor": 6180,
      "train": 6181,
      "Ġloop": 6182,
      "Ġguarant": 6183,
      "faces": 6184,
      "Ġwhom": 6185,
      "ĠOnly": 6186,
      "agon": 6187,
      "Ġdrug": 6188,
      "Ġidentify": 6189,
      "Ġtit": 6190,
      "Ġ~": 6191,
      "Ġadapt": 6192,
      "Ġanimals": 6193,
      "Ġestablish": 6194,
      "rie": 6195,
      "Ġexplan": 6196,
      "ĠAR": 6197,
      "Rel": 6198,
      "Ġignore": 6199,
      "Ġalbum": 6200,
      "Ġtags": 6201,
      "Ġpurs": 6202,
      "ĠMary": 6203,
      "arian": 6204,
      "ĠTem": 6205,
      "ancing": 6206,
      "Ġmathematics": 6207,
      "Ġburn": 6208,
      ")\"": 6209,
      "IZ": 6210,
      "scope": 6211,
      "ĠChild": 6212,
      "Ġemployees": 6213,
      "Ġdocumentation": 6214,
      "ĠCall": 6215,
      "Ġids": 6216,
      ".*": 6217,
      "hens": 6218,
      "Ġpowerful": 6219,
      "Ġclin": 6220,
      "Ġapparent": 6221,
      "Ġinsert": 6222,
      "Ġdistrict": 6223,
      "oves": 6224,
      "outhern": 6225,
      "Ġchemical": 6226,
      "aming": 6227,
      "Ġlaws": 6228,
      "Ġcovered": 6229,
      "Ġadvert": 6230,
      "Ġnone": 6231,
      "PC": 6232,
      "points": 6233,
      "Ġfeat": 6234,
      "Ġowner": 6235,
      "62": 6236,
      "Ġcommittee": 6237,
      "Ġapplicable": 6238,
      "Ġreserved": 6239,
      "google": 6240,
      "Ġcatch": 6241,
      "Ġreq": 6242,
      "ampl": 6243,
      "akers": 6244,
      "Ġ--------": 6245,
      "Ġspring": 6246,
      "Ġanti": 6247,
      "Ġefficient": 6248,
      "uations": 6249,
      "++": 6250,
      "oles": 6251,
      "Ġbatch": 6252,
      "amm": 6253,
      "phas": 6254,
      "Ġradio": 6255,
      "Back": 6256,
      "Ġdiagn": 6257,
      "Ġdepth": 6258,
      "TYPE": 6259,
      "Ġ:)": 6260,
      "Ġprocesses": 6261,
      "ERS": 6262,
      "Ġsurround": 6263,
      "logger": 6264,
      "idx": 6265,
      "Ġmajority": 6266,
      "scale": 6267,
      "ĠDemocr": 6268,
      "ĠNov": 6269,
      "Ġpieces": 6270,
      "uated": 6271,
      "ï¿½": 6272,
      "FC": 6273,
      "clear": 6274,
      "Also": 6275,
      "handle": 6276,
      "aked": 6277,
      "Ġindeed": 6278,
      "ĠAmericans": 6279,
      "handler": 6280,
      "Ġunicode": 6281,
      "iated": 6282,
      "Ġcombination": 6283,
      "ban": 6284,
      "94": 6285,
      "Ġanc": 6286,
      "Ġopened": 6287,
      "rey": 6288,
      "Ġusage": 6289,
      "Ġenh": 6290,
      "]['": 6291,
      "Ġinstitution": 6292,
      "ĠPri": 6293,
      "Ġeventually": 6294,
      "COM": 6295,
      "Ġdescribe": 6296,
      "Ġpure": 6297,
      "di": 6298,
      "Ġsea": 6299,
      "Ġclimate": 6300,
      "rid": 6301,
      "antic": 6302,
      "itics": 6303,
      "Ġjournals": 6304,
      "bal": 6305,
      "mathbf": 6306,
      "Point": 6307,
      "Ġcitiz": 6308,
      "ĠLab": 6309,
      "othes": 6310,
      "total": 6311,
      "Ġdefense": 6312,
      "Ġcompat": 6313,
      "Me": 6314,
      "icago": 6315,
      "Ġprotocol": 6316,
      "eless": 6317,
      "Ġequivalent": 6318,
      "Ġcorpor": 6319,
      "Ġ2003": 6320,
      "FO": 6321,
      "Ġincome": 6322,
      "Ġupdates": 6323,
      "ĠYear": 6324,
      "Ġlegisl": 6325,
      "ĠTom": 6326,
      ",\\": 6327,
      "abet": 6328,
      "wd": 6329,
      "standing": 6330,
      "Ġsimpl": 6331,
      "ĠSamsung": 6332,
      "Build": 6333,
      "Ġproceed": 6334,
      "stdout": 6335,
      "Ġamazing": 6336,
      "Ġlose": 6337,
      "Ġenvironmental": 6338,
      "Ġforces": 6339,
      "Ġpolicies": 6340,
      "Ent": 6341,
      "endar": 6342,
      "unte": 6343,
      "Ġconsult": 6344,
      "Ġcandidate": 6345,
      "Ġemot": 6346,
      "FAULT": 6347,
      "irc": 6348,
      "Ġreasonable": 6349,
      "Ġoperator": 6350,
      "uzz": 6351,
      "Ġ'__": 6352,
      "Ġfloor": 6353,
      "Ġsustain": 6354,
      "Ġauto": 6355,
      "clean": 6356,
      "Ġfeedback": 6357,
      "Ġarchitect": 6358,
      "Ġsufficient": 6359,
      "riev": 6360,
      "Ġbrief": 6361,
      "Ġvir": 6362,
      "beta": 6363,
      "Ġperformed": 6364,
      "illa": 6365,
      "Ġhasattr": 6366,
      "eno": 6367,
      "Ġinstr": 6368,
      "Ġcru": 6369,
      "Default": 6370,
      "Factory": 6371,
      "ĠCO": 6372,
      "Ġprove": 6373,
      "Ġfamiliar": 6374,
      "Ġpatient": 6375,
      "ĠWhe": 6376,
      "itution": 6377,
      "%(": 6378,
      "ĠInformation": 6379,
      "claim": 6380,
      "Ġsubmit": 6381,
      "ĠBoard": 6382,
      "ERR": 6383,
      "Ġcustomer": 6384,
      "policy": 6385,
      "oses": 6386,
      "ribution": 6387,
      "}_{": 6388,
      "Ġteach": 6389,
      "WAR": 6390,
      "ĠSM": 6391,
      "arden": 6392,
      "addr": 6393,
      "Ġreverse": 6394,
      "press": 6395,
      "record": 6396,
      "Ġsympt": 6397,
      "Ġdanger": 6398,
      "assertEquals": 6399,
      "ĠBase": 6400,
      "initial": 6401,
      "Ġsect": 6402,
      "Ġchurch": 6403,
      "Content": 6404,
      "icensed": 6405,
      "Ġpoly": 6406,
      "ummy": 6407,
      "theta": 6408,
      "Ġweather": 6409,
      "ROM": 6410,
      "kw": 6411,
      "Ġdepending": 6412,
      "ston": 6413,
      "Ġ35": 6414,
      "Ġkilled": 6415,
      "clusive": 6416,
      "ĠRiver": 6417,
      "Ġreached": 6418,
      "ivery": 6419,
      "Ġprocessing": 6420,
      "Ġsurvey": 6421,
      "Ġutf": 6422,
      "Ġphase": 6423,
      "eration": 6424,
      "Ġsocket": 6425,
      "omial": 6426,
      "Ġwaiting": 6427,
      "Ġscene": 6428,
      "ĠLear": 6429,
      "ĠParam": 6430,
      "ĠSO": 6431,
      "Are": 6432,
      "Ġplants": 6433,
      "BS": 6434,
      "Ġtab": 6435,
      "ĠJes": 6436,
      "Ġque": 6437,
      "ĠMath": 6438,
      "zip": 6439,
      "annels": 6440,
      "Ġrestaur": 6441,
      "Ġstored": 6442,
      "zen": 6443,
      "track": 6444,
      "Ġapi": 6445,
      "iers": 6446,
      "ady": 6447,
      "Ġcontents": 6448,
      "Ġcommunication": 6449,
      "after": 6450,
      "Ġleaving": 6451,
      "****************": 6452,
      "ãĤ": 6453,
      "ĠEducation": 6454,
      "race": 6455,
      "variable": 6456,
      "Ġstation": 6457,
      "ĠUs": 6458,
      "Just": 6459,
      "buffer": 6460,
      "Ġgeneration": 6461,
      "Ġtechniques": 6462,
      "img": 6463,
      "Ġvisual": 6464,
      "ows": 6465,
      "login": 6466,
      "Device": 6467,
      "ntax": 6468,
      "ette": 6469,
      "'},": 6470,
      "93": 6471,
      "Ġupload": 6472,
      "Ġmarker": 6473,
      "ker": 6474,
      "children": 6475,
      "Ġcauses": 6476,
      "setup": 6477,
      "ĠPeople": 6478,
      "ICEN": 6479,
      "]+": 6480,
      "Ġ'_": 6481,
      "255": 6482,
      "ĠLou": 6483,
      "ĠVir": 6484,
      "ented": 6485,
      "tensor": 6486,
      "ĠConst": 6487,
      "apshot": 6488,
      "vate": 6489,
      "Ġhash": 6490,
      "Ġjump": 6491,
      "oom": 6492,
      "Ġheavy": 6493,
      "Ġreader": 6494,
      "Ġfactory": 6495,
      "olved": 6496,
      "ĠBel": 6497,
      "ĠMult": 6498,
      "Ġintended": 6499,
      "Ġhospital": 6500,
      "Ġflat": 6501,
      "Ġfish": 6502,
      "reshold": 6503,
      "ĠAngel": 6504,
      "Â°": 6505,
      "Ġprote": 6506,
      "aud": 6507,
      "Ġ'<": 6508,
      "Ġclaims": 6509,
      "Ġseemed": 6510,
      "Input": 6511,
      "Ġfaith": 6512,
      "rout": 6513,
      "west": 6514,
      "Ġmanage": 6515,
      "ingu": 6516,
      "insert": 6517,
      "evision": 6518,
      ").__": 6519,
      "Â·Â·": 6520,
      "Spec": 6521,
      "unit": 6522,
      "Ġcoach": 6523,
      "late": 6524,
      "Ġprotection": 6525,
      "Table": 6526,
      "Ġexhib": 6527,
      "_{\\": 6528,
      "itness": 6529,
      "Ġforum": 6530,
      "ĠFe": 6531,
      "ka": 6532,
      "Ġfab": 6533,
      "~~~~": 6534,
      "ĠArch": 6535,
      "ĠImport": 6536,
      "Ġscope": 6537,
      "oreignKey": 6538,
      "GET": 6539,
      "Ġsrc": 6540,
      "Client": 6541,
      "Ġended": 6542,
      "ACT": 6543,
      "estion": 6544,
      "reek": 6545,
      "Ġshut": 6546,
      "Ġbond": 6547,
      "Ġclar": 6548,
      "Ġdraft": 6549,
      "eps": 6550,
      "Ġsuggested": 6551,
      "bert": 6552,
      "Ġrender": 6553,
      "Ġsigned": 6554,
      "ission": 6555,
      "poses": 6556,
      "ounter": 6557,
      "Start": 6558,
      "Ġwest": 6559,
      "Ġrespond": 6560,
      "âĪĴ": 6561,
      "ano": 6562,
      "Ġzip": 6563,
      "ĠAL": 6564,
      "resents": 6565,
      "?âĢĿ": 6566,
      "plicate": 6567,
      "ĠOnce": 6568,
      "mean": 6569,
      "Ġbrowser": 6570,
      "Box": 6571,
      "Ġstated": 6572,
      "Ġfol": 6573,
      "Ġphysics": 6574,
      "Ġpartition": 6575,
      "Ġremaining": 6576,
      "ĠSum": 6577,
      "semb": 6578,
      "Part": 6579,
      "ategories": 6580,
      "conn": 6581,
      "ested": 6582,
      "depend": 6583,
      "Ġrelatively": 6584,
      "Page": 6585,
      "nergy": 6586,
      "venue": 6587,
      "ĠAff": 6588,
      "IGHT": 6589,
      "rev": 6590,
      "IF": 6591,
      "ĠEngland": 6592,
      "ishes": 6593,
      "Ġice": 6594,
      "Ġunknown": 6595,
      "report": 6596,
      "atin": 6597,
      "Ġ64": 6598,
      "Ġdimension": 6599,
      "CONF": 6600,
      "ĠAT": 6601,
      "dt": 6602,
      "GB": 6603,
      "vars": 6604,
      "Ġarm": 6605,
      "Ġdetermined": 6606,
      "ĠAcadem": 6607,
      "Ġresp": 6608,
      "ĠChinese": 6609,
      "Ġprepared": 6610,
      "dr": 6611,
      "ï¼": 6612,
      "ĠField": 6613,
      "Net": 6614,
      "Ġteachers": 6615,
      "stats": 6616,
      "Ġpp": 6617,
      "ĠGold": 6618,
      ":]": 6619,
      "Ġshift": 6620,
      "ĠÂ»": 6621,
      "IX": 6622,
      "Ġlin": 6623,
      "Ġtrend": 6624,
      "=['": 6625,
      "71": 6626,
      "ĠHot": 6627,
      "azine": 6628,
      "Ass": 6629,
      "ĠSociety": 6630,
      "ĠComput": 6631,
      "inf": 6632,
      "Â®": 6633,
      "Ġwire": 6634,
      "Ġsouth": 6635,
      "Ġmetadata": 6636,
      "Ġexercise": 6637,
      "Ġhus": 6638,
      "Ġapplying": 6639,
      "itche": 6640,
      "mathbb": 6641,
      "cean": 6642,
      "ĠTwo": 6643,
      "Ġreferences": 6644,
      "Ġchapter": 6645,
      "ĠTop": 6646,
      "ĠEX": 6647,
      "arp": 6648,
      "HTTP": 6649,
      "Ġcorrectly": 6650,
      "platform": 6651,
      "ĠCommission": 6652,
      "Ġentirely": 6653,
      "Ġcapacity": 6654,
      "ona": 6655,
      "anging": 6656,
      "Ġbalance": 6657,
      "ĠMet": 6658,
      "Ġdifferences": 6659,
      "ĠMaybe": 6660,
      "Ġobtained": 6661,
      "Ġcommunities": 6662,
      "cluding": 6663,
      "ICENSE": 6664,
      "Ġhab": 6665,
      "friend": 6666,
      "Ġ500": 6667,
      "Ġadvanced": 6668,
      "Ġdespite": 6669,
      "Ġsale": 6670,
      "ĠSE": 6671,
      "ãĥ": 6672,
      "osite": 6673,
      "Ġring": 6674,
      "Ġleader": 6675,
      "Ġreality": 6676,
      "Ġ%(": 6677,
      "fake": 6678,
      "ponent": 6679,
      "Ġmac": 6680,
      "Ġinnov": 6681,
      "methods": 6682,
      "Mult": 6683,
      "asters": 6684,
      "Ġhonest": 6685,
      "ĠBack": 6686,
      "Ġprovider": 6687,
      "Bo": 6688,
      "Ġspending": 6689,
      "Ġsides": 6690,
      "sec": 6691,
      "ĠFrank": 6692,
      "Dec": 6693,
      "Ġfaster": 6694,
      "Ġbird": 6695,
      "secut": 6696,
      "ga": 6697,
      "Ġfrequency": 6698,
      "Ġdestroy": 6699,
      "Ġdiss": 6700,
      "Ġ'--": 6701,
      "92": 6702,
      "ĠSur": 6703,
      "Ġdelay": 6704,
      "Service": 6705,
      "big": 6706,
      "Ġchain": 6707,
      "Over": 6708,
      "HER": 6709,
      "Ġstrings": 6710,
      "Tem": 6711,
      "Ġdecisions": 6712,
      "blem": 6713,
      "Parser": 6714,
      "Act": 6715,
      "ĠMal": 6716,
      "ĠTimes": 6717,
      "ĠBre": 6718,
      ":%": 6719,
      "elines": 6720,
      "ĠMex": 6721,
      "exist": 6722,
      "Ġnecessarily": 6723,
      "Ġnoted": 6724,
      "ĠFig": 6725,
      "CD": 6726,
      "ĠCompany": 6727,
      "âĢĿ.": 6728,
      "ĠMont": 6729,
      "ĠPRO": 6730,
      "Ġbelong": 6731,
      "(['": 6732,
      "dated": 6733,
      "Ġdivid": 6734,
      "eek": 6735,
      "lass": 6736,
      "include": 6737,
      "lements": 6738,
      "Ġinfluence": 6739,
      "Ġflags": 6740,
      "Ġpresence": 6741,
      "extra": 6742,
      "cknow": 6743,
      "riage": 6744,
      "IE": 6745,
      "rows": 6746,
      "cluded": 6747,
      "ampions": 6748,
      "Ġappoint": 6749,
      "ĠThus": 6750,
      "ĠWARRANTIES": 6751,
      "lik": 6752,
      "sey": 6753,
      "Ġinsurance": 6754,
      "Ġprofessors": 6755,
      "coh": 6756,
      "night": 6757,
      "sole": 6758,
      "Ġaudience": 6759,
      "ĠFlorida": 6760,
      "callback": 6761,
      "CA": 6762,
      "anta": 6763,
      "opping": 6764,
      "Ġreduced": 6765,
      "Ġepisode": 6766,
      "Ġanyway": 6767,
      "Ġflu": 6768,
      "Ġtables": 6769,
      "ini": 6770,
      "Ġtopics": 6771,
      ":\\": 6772,
      "ĠHTTP": 6773,
      "Ġtruly": 6774,
      "ĠCommitt": 6775,
      "Ġreviews": 6776,
      "ĠGeorge": 6777,
      "apped": 6778,
      "Ġtrial": 6779,
      "dy": 6780,
      "OG": 6781,
      "Image": 6782,
      "Ġfake": 6783,
      "unittest": 6784,
      "ĠUnion": 6785,
      "tf": 6786,
      "ODO": 6787,
      "\"])": 6788,
      "Ġmanufacture": 6789,
      "asp": 6790,
      "ĠFranc": 6791,
      "Ġinputs": 6792,
      "ĠStand": 6793,
      "Ġmanaged": 6794,
      "Ġscientists": 6795,
      "Ġegg": 6796,
      "Since": 6797,
      "Ġbeat": 6798,
      "tags": 6799,
      "Ġprepar": 6800,
      "Ġmeasures": 6801,
      "KEY": 6802,
      "Ġkernel": 6803,
      "Ġtal": 6804,
      "ĠCD": 6805,
      "Ġvary": 6806,
      "driver": 6807,
      "Ġputting": 6808,
      "added": 6809,
      "Ġfourth": 6810,
      "ĠHall": 6811,
      "Ġpeace": 6812,
      "Ġthousands": 6813,
      "!\"": 6814,
      "Ġlists": 6815,
      "Su": 6816,
      "mac": 6817,
      "Ġminute": 6818,
      "CK": 6819,
      "Ġodd": 6820,
      "Ġkeeping": 6821,
      "Ġnative": 6822,
      "Number": 6823,
      "Ġdataset": 6824,
      "criptor": 6825,
      "Ġunittest": 6826,
      "iments": 6827,
      "Ġorganizations": 6828,
      "Ġauth": 6829,
      "Bl": 6830,
      "environ": 6831,
      "ĠLike": 6832,
      "></": 6833,
      "features": 6834,
      "onic": 6835,
      "Ext": 6836,
      "parameters": 6837,
      "Ġagreement": 6838,
      "ĠTim": 6839,
      "Ġnorth": 6840,
      "going": 6841,
      "Ġdisk": 6842,
      "tml": 6843,
      "Ġforget": 6844,
      ")?": 6845,
      "ĠTwitter": 6846,
      "rand": 6847,
      "Ġplug": 6848,
      "Ġoperating": 6849,
      "oston": 6850,
      "ĠChicago": 6851,
      "life": 6852,
      "Well": 6853,
      "\",\"": 6854,
      "Ġwave": 6855,
      "Ġtraffic": 6856,
      "ĠFile": 6857,
      "orph": 6858,
      "ĠROM": 6859,
      "Ġworry": 6860,
      "craft": 6861,
      "diff": 6862,
      "ĠPlan": 6863,
      "Ġboy": 6864,
      "Ġcarbon": 6865,
      "got": 6866,
      "nel": 6867,
      "ander": 6868,
      "llib": 6869,
      "ASS": 6870,
      "Ġcards": 6871,
      "repr": 6872,
      "anges": 6873,
      "Ġcompetition": 6874,
      "Ġtasks": 6875,
      "ĠLine": 6876,
      "ĠGermany": 6877,
      "Ġleaves": 6878,
      "Ġsequ": 6879,
      "asket": 6880,
      "urrency": 6881,
      "Ġwriter": 6882,
      "rum": 6883,
      "ĠSam": 6884,
      "Ġgift": 6885,
      "Ġfuel": 6886,
      "Ġinvestment": 6887,
      "Ġ45": 6888,
      "Ġposts": 6889,
      "ĠShow": 6890,
      "Ġcup": 6891,
      "Ġcreation": 6892,
      "Ġworse": 6893,
      "igen": 6894,
      "Ġconcerned": 6895,
      "ometimes": 6896,
      "olumns": 6897,
      "Ġtwice": 6898,
      "ĠSal": 6899,
      "entials": 6900,
      "Ġreaction": 6901,
      "MB": 6902,
      "Ġmotion": 6903,
      "Implement": 6904,
      "Ġlaunch": 6905,
      "PT": 6906,
      "ĠRad": 6907,
      "ICE": 6908,
      "ĠEngine": 6909,
      "Ġrid": 6910,
      "Ġcombined": 6911,
      "INE": 6912,
      "ĠApple": 6913,
      "INT": 6914,
      "}^": 6915,
      "document": 6916,
      "mo": 6917,
      "Ġpatch": 6918,
      "Context": 6919,
      "Ġhelping": 6920,
      "peed": 6921,
      "sin": 6922,
      "ĠArgs": 6923,
      "Ġphil": 6924,
      "Ġhotel": 6925,
      "ĠFire": 6926,
      "rive": 6927,
      "Ġjoint": 6928,
      "extend": 6929,
      "Ġ\"\"": 6930,
      "ste": 6931,
      "Ġrich": 6932,
      "Ġdeliver": 6933,
      "ĠCS": 6934,
      "Ġsubstant": 6935,
      "Ġpurposes": 6936,
      "ĠĠĠĠĠĠĠĠĠĠĠĠĠĠĠĠĠĠĠĠĠĠĠĠĠĠĠĠĠĠĠĠĠ": 6937,
      "Ġtensorflow": 6938,
      "Ġengineering": 6939,
      "ĠDet": 6940,
      "Ġrefere": 6941,
      "isation": 6942,
      "anguages": 6943,
      "Ġhardware": 6944,
      "attributes": 6945,
      "Ġblank": 6946,
      "Ġpm": 6947,
      "Ġmolec": 6948,
      "Ġlimitations": 6949,
      "Output": 6950,
      "ĠDoes": 6951,
      "Ġangle": 6952,
      "ĠPART": 6953,
      "Ġintroduced": 6954,
      "Does": 6955,
      "Ġratio": 6956,
      "}{\\": 6957,
      "lam": 6958,
      "CR": 6959,
      "Ġdetailed": 6960,
      "Callback": 6961,
      "sim": 6962,
      "ĠBusiness": 6963,
      "ĠCarol": 6964,
      "Ġpoll": 6965,
      "dig": 6966,
      "/>": 6967,
      "contrib": 6968,
      "ĠOper": 6969,
      "nn": 6970,
      "ĠManagement": 6971,
      "wait": 6972,
      "Ġsymptoms": 6973,
      "ĠUnder": 6974,
      "Ġmess": 6975,
      "Other": 6976,
      "Open": 6977,
      "Ġreligious": 6978,
      "Ġbought": 6979,
      "Ġcompare": 6980,
      "Ġgirls": 6981,
      "inding": 6982,
      "NN": 6983,
      "layer": 6984,
      "Ġbattle": 6985,
      "unc": 6986,
      "Ġconfirm": 6987,
      "Ġ2002": 6988,
      "VE": 6989,
      "ĠCommittee": 6990,
      "otic": 6991,
      "ÃŃ": 6992,
      "stud": 6993,
      "END": 6994,
      "Ġbiggest": 6995,
      "ĠDiv": 6996,
      "ĠAustralia": 6997,
      "Ġ2001": 6998,
      "Ġserial": 6999,
      "agraph": 7000,
      "Ġreaders": 7001,
      "Ġcontinuous": 7002,
      "ĠVol": 7003,
      "ĠRock": 7004,
      "Ġsubmitted": 7005,
      "Ġmine": 7006,
      "Ġtells": 7007,
      "isms": 7008,
      "ĠBra": 7009,
      "Ġgar": 7010,
      "Ġwid": 7011,
      "Tests": 7012,
      "draw": 7013,
      "modules": 7014,
      "Ġ2014": 7015,
      "Ġsecure": 7016,
      "Phone": 7017,
      "Ġvirtual": 7018,
      "Ġlif": 7019,
      "'})": 7020,
      "ĠText": 7021,
      ")*": 7022,
      "ForeignKey": 7023,
      "Ġlaun": 7024,
      "Ġbroken": 7025,
      "netic": 7026,
      "role": 7027,
      "SON": 7028,
      "MO": 7029,
      "Ġmotiv": 7030,
      "Ġenabled": 7031,
      "Ġcompute": 7032,
      "ĠBas": 7033,
      "Ġchair": 7034,
      "auto": 7035,
      "Ġtrees": 7036,
      "ĠRights": 7037,
      "sequence": 7038,
      "Ġcontinues": 7039,
      "Ġvar": 7040,
      "Ġtreated": 7041,
      "NESS": 7042,
      "Ġicon": 7043,
      "Command": 7044,
      "Ġblocks": 7045,
      "Ġformal": 7046,
      "istan": 7047,
      "Ġlinked": 7048,
      "symbol": 7049,
      "Ġ\"/": 7050,
      "Ġrecip": 7051,
      "ĠBill": 7052,
      "Ġresulting": 7053,
      "dot": 7054,
      "Ġpaths": 7055,
      "lers": 7056,
      "ĠAlex": 7057,
      "ĠMil": 7058,
      "storage": 7059,
      "ĠDevelopment": 7060,
      "}(": 7061,
      "isco": 7062,
      "ĠAfrica": 7063,
      "ĠMS": 7064,
      "Ġinsp": 7065,
      "ructure": 7066,
      "ĠRev": 7067,
      "outs": 7068,
      "Ġprompt": 7069,
      "VAL": 7070,
      "ĠElect": 7071,
      "Ġzone": 7072,
      "Ġconcerns": 7073,
      "Ġwidget": 7074,
      "ĠRom": 7075,
      "icious": 7076,
      "Ġliterature": 7077,
      "ĠBuild": 7078,
      "itz": 7079,
      "Ġ//": 7080,
      "Ġtrace": 7081,
      "Ġmarketing": 7082,
      "Ġextended": 7083,
      "Ġcorner": 7084,
      "Ġintellig": 7085,
      "Ġobserved": 7086,
      "Ġkid": 7087,
      "Ġdiscovered": 7088,
      "apes": 7089,
      "Ġsports": 7090,
      "ĠDown": 7091,
      "Ġmission": 7092,
      "Ġpun": 7093,
      "ĠMad": 7094,
      "alar": 7095,
      "osoph": 7096,
      "interface": 7097,
      "Ġfellow": 7098,
      "ĠJapanese": 7099,
      "person": 7100,
      "Ġ</": 7101,
      "ync": 7102,
      "Ġexplained": 7103,
      "Ġmatches": 7104,
      "Don": 7105,
      "Ġneut": 7106,
      "va": 7107,
      "ura": 7108,
      "Ġweights": 7109,
      "Ġsmooth": 7110,
      "mu": 7111,
      "Ġdaughter": 7112,
      "particle": 7113,
      "Americ": 7114,
      "ĠSign": 7115,
      "Ġcolumns": 7116,
      "partial": 7117,
      "terns": 7118,
      "ĠMass": 7119,
      "Ġcolors": 7120,
      "Ġsorted": 7121,
      "Ġimpossible": 7122,
      "Ġunc": 7123,
      "Ġvictim": 7124,
      "sample": 7125,
      "isted": 7126,
      "Ġinstitutions": 7127,
      "-\\": 7128,
      "Posted": 7129,
      "control": 7130,
      "Ġallowing": 7131,
      "Ġhomes": 7132,
      "Ġsomewhat": 7133,
      "Ġ{\\": 7134,
      "Ġhusband": 7135,
      "BO": 7136,
      "channel": 7137,
      "Ġsyn": 7138,
      "gp": 7139,
      "norm": 7140,
      "Ġdecor": 7141,
      "Ġpip": 7142,
      "Ġleads": 7143,
      "mosp": 7144,
      "ĠLeg": 7145,
      "Ġtrouble": 7146,
      "Ġturns": 7147,
      "Ġrepresentation": 7148,
      "Ġshouldn": 7149,
      "orthern": 7150,
      "Widget": 7151,
      "Ġcompliance": 7152,
      "CM": 7153,
      "ployment": 7154,
      "Fil": 7155,
      "validate": 7156,
      "front": 7157,
      "decode": 7158,
      "IRE": 7159,
      "factory": 7160,
      "Ġcos": 7161,
      "Ġcrow": 7162,
      "ĠNumber": 7163,
      "compute": 7164,
      "ĠBi": 7165,
      "comment": 7166,
      "unicode": 7167,
      "Ġidentity": 7168,
      "master": 7169,
      "stat": 7170,
      "Ġusername": 7171,
      "Ġ74": 7172,
      "Server": 7173,
      "ULAR": 7174,
      "Ġaudio": 7175,
      "Ġinterests": 7176,
      "iller": 7177,
      "Ġfont": 7178,
      "Ġschedule": 7179,
      "TO": 7180,
      "ĠVis": 7181,
      "Ġ>>": 7182,
      "Ġadopt": 7183,
      "primary": 7184,
      "Mat": 7185,
      "ĠJul": 7186,
      "Ġacknow": 7187,
      "estic": 7188,
      "Ġrepresents": 7189,
      "Ġbow": 7190,
      "ographic": 7191,
      "Ġsurg": 7192,
      "Ġcontainer": 7193,
      "raise": 7194,
      "height": 7195,
      "Ġvehicle": 7196,
      "Ġton": 7197,
      "ĠHTML": 7198,
      "encoding": 7199,
      "Ġredist": 7200,
      "Ġfunds": 7201,
      "ĠBrown": 7202,
      "Ġweap": 7203,
      "Ġanimal": 7204,
      "Str": 7205,
      "ooks": 7206,
      "VD": 7207,
      "Ġfamous": 7208,
      "Ġimportance": 7209,
      "Ġcomplic": 7210,
      ",,": 7211,
      "ya": 7212,
      "Ġdie": 7213,
      "################################################################": 7214,
      "ĠTer": 7215,
      "Ġauthent": 7216,
      "yes": 7217,
      "ĠFIT": 7218,
      "double": 7219,
      "onom": 7220,
      "Ġideal": 7221,
      "gal": 7222,
      "ho": 7223,
      "Ġcallback": 7224,
      "ĠMount": 7225,
      "#!": 7226,
      "ĠGen": 7227,
      "ĠMain": 7228,
      "users": 7229,
      "bi": 7230,
      "rf": 7231,
      "End": 7232,
      "Ġentries": 7233,
      "ĠAS": 7234,
      "aks": 7235,
      "Ġperspective": 7236,
      "LA": 7237,
      "Ġexperienced": 7238,
      "Ġnormally": 7239,
      "iters": 7240,
      "phone": 7241,
      "Cons": 7242,
      "POSE": 7243,
      "okes": 7244,
      "Ġfundament": 7245,
      "unique": 7246,
      "Ġflex": 7247,
      "Ġconven": 7248,
      "Iter": 7249,
      "eries": 7250,
      "Ġclients": 7251,
      "Ġuns": 7252,
      "skip": 7253,
      "ĠPUR": 7254,
      "Ġessential": 7255,
      "ĠBer": 7256,
      "Ġspaces": 7257,
      "Ġbecoming": 7258,
      "uries": 7259,
      "desc": 7260,
      "brow": 7261,
      "power": 7262,
      "Ġing": 7263,
      "Ġexchange": 7264,
      "Ġsty": 7265,
      "Ġresponsibility": 7266,
      "Code": 7267,
      "ĠGalaxy": 7268,
      "some": 7269,
      "Ġends": 7270,
      "esterday": 7271,
      "Ġidentified": 7272,
      "ĠChristmas": 7273,
      "Ġabsolutely": 7274,
      "Ġvill": 7275,
      "ĠBal": 7276,
      "Ġforest": 7277,
      "Ġanime": 7278,
      "Ġoffering": 7279,
      "Ġappeared": 7280,
      "Oper": 7281,
      "Ġwaste": 7282,
      "Ġsaved": 7283,
      "Ġconsidering": 7284,
      "\"\\": 7285,
      "Ġchosen": 7286,
      "ĠCap": 7287,
      "ĠIT": 7288,
      "Ġforced": 7289,
      "ĠCamp": 7290,
      "Ġneighbor": 7291,
      "ola": 7292,
      "/%": 7293,
      "ĠAD": 7294,
      "91": 7295,
      "ctx": 7296,
      "ceived": 7297,
      "Ġwarranty": 7298,
      "ĠId": 7299,
      "essor": 7300,
      "Action": 7301,
      "Ġexport": 7302,
      "Ġapproximately": 7303,
      "ĠBoth": 7304,
      "month": 7305,
      "Ġusual": 7306,
      "Us": 7307,
      "home": 7308,
      "Ġdriving": 7309,
      "Ġast": 7310,
      "DIR": 7311,
      "ĠLife": 7312,
      "ĠLibrary": 7313,
      "Frame": 7314,
      "UE": 7315,
      "Ġmotor": 7316,
      "Ġsand": 7317,
      "prop": 7318,
      "Ġbuffer": 7319,
      "Ġscheme": 7320,
      "idation": 7321,
      "Ġpatterns": 7322,
      "Ġbright": 7323,
      "Ġnoise": 7324,
      "Ġwatching": 7325,
      "ett": 7326,
      "Ġbusinesses": 7327,
      "itors": 7328,
      "ĠHam": 7329,
      "ĠWil": 7330,
      "Ġcloud": 7331,
      "ĠâĢ¢": 7332,
      "Ġoccup": 7333,
      "ĠCentral": 7334,
      "Ġemerg": 7335,
      "nson": 7336,
      "Ġlisten": 7337,
      "Ġverbose": 7338,
      "ancer": 7339,
      "iverse": 7340,
      "Ġfilled": 7341,
      "inite": 7342,
      "Ġprogramming": 7343,
      "Ġbasically": 7344,
      "rot": 7345,
      "Ġlayers": 7346,
      "Ġship": 7347,
      "ĠClub": 7348,
      "icial": 7349,
      "cm": 7350,
      "Ġdress": 7351,
      "Ġimagine": 7352,
      "NO": 7353,
      "ĠBank": 7354,
      "Ġvideos": 7355,
      "TypeId": 7356,
      "Fe": 7357,
      "job": 7358,
      "GE": 7359,
      "ĠGovernment": 7360,
      "Ġsweet": 7361,
      "eah": 7362,
      "ĠIts": 7363,
      "ĠUsing": 7364,
      "ERCH": 7365,
      "ogen": 7366,
      "Then": 7367,
      "Ġrecommended": 7368,
      "Ġansible": 7369,
      "Ġadministration": 7370,
      "ĠLAT": 7371,
      "anged": 7372,
      "Ġpossibility": 7373,
      "odies": 7374,
      "ba": 7375,
      "Ġholding": 7376,
      "Found": 7377,
      "Ge": 7378,
      "Ġrapid": 7379,
      "Ġsuspect": 7380,
      "Ġcriter": 7381,
      "ĠFrance": 7382,
      "success": 7383,
      "Ġgoogle": 7384,
      "ĠModel": 7385,
      "acks": 7386,
      "forms": 7387,
      "Ġdesired": 7388,
      "Ġresolution": 7389,
      "samples": 7390,
      "ERCHANT": 7391,
      "Ġrise": 7392,
      "Ġstopped": 7393,
      "ĠHistory": 7394,
      "tical": 7395,
      "agues": 7396,
      "Ġconversation": 7397,
      "ading": 7398,
      "ĠJesus": 7399,
      "acle": 7400,
      "Ġwonderful": 7401,
      "Ġcelebr": 7402,
      "ĠLord": 7403,
      "ained": 7404,
      "Ġpublisher": 7405,
      "Ġran": 7406,
      "ĠMA": 7407,
      "Ġfre": 7408,
      "Ġrough": 7409,
      "Ġseed": 7410,
      "\");": 7411,
      "_,": 7412,
      "Ġagency": 7413,
      "Mock": 7414,
      "Ġmetal": 7415,
      "grid": 7416,
      "note": 7417,
      "Ġroute": 7418,
      "ithub": 7419,
      "ĠĠĠĠĠĠĠĠĠĠĠĠĠĠĠĠĠĠĠĠĠĠĠĠĠĠĠĠĠĠĠĠĠĠ": 7420,
      ")=": 7421,
      "ĠPURPOSE": 7422,
      "Ġwinter": 7423,
      "ĠPARTIC": 7424,
      "Ġinstances": 7425,
      "Em": 7426,
      "Ġ^": 7427,
      "js": 7428,
      "Ġregistered": 7429,
      "ĠVirgin": 7430,
      "ĠFITNESS": 7431,
      "ocument": 7432,
      "short": 7433,
      "Ġdut": 7434,
      "ĠTheir": 7435,
      "onymous": 7436,
      "Ġcoff": 7437,
      "uable": 7438,
      "ãĢ": 7439,
      "Ġ[[": 7440,
      "ĠTODO": 7441,
      "Ġthick": 7442,
      "Ġaccompl": 7443,
      "MAT": 7444,
      "Ġfif": 7445,
      "Ġadministr": 7446,
      "ĠMedia": 7447,
      "ĠRoad": 7448,
      "Instance": 7449,
      "Ġfacts": 7450,
      "argv": 7451,
      "Ġtun": 7452,
      "ttp": 7453,
      "Ġincreases": 7454,
      "isc": 7455,
      "Ġbag": 7456,
      "Ġreput": 7457,
      "Ġcry": 7458,
      "ĠMathemat": 7459,
      "align": 7460,
      "ushed": 7461,
      "Ġperman": 7462,
      "Ġfairly": 7463,
      "water": 7464,
      "ĠDirector": 7465,
      "Ġspecify": 7466,
      "Ġplays": 7467,
      "Ġwear": 7468,
      "Ġstrict": 7469,
      "ĠPARTICULAR": 7470,
      "oted": 7471,
      "mut": 7472,
      "Ġprocedure": 7473,
      "ki": 7474,
      "pg": 7475,
      "labels": 7476,
      "2011": 7477,
      "Ġvolunte": 7478,
      "Ġcart": 7479,
      "ikip": 7480,
      "Ġcircumst": 7481,
      "enter": 7482,
      "ĠMer": 7483,
      "ĠUnless": 7484,
      "ORD": 7485,
      "Ġparties": 7486,
      "many": 7487,
      "PATH": 7488,
      "Ġcoverage": 7489,
      "Ġglob": 7490,
      "Ġmental": 7491,
      "Ġbra": 7492,
      "PORT": 7493,
      "({'": 7494,
      "ĠJer": 7495,
      "Ġsignificantly": 7496,
      "Mon": 7497,
      "Ġsalt": 7498,
      "Ġderiv": 7499,
      "Ġnoticed": 7500,
      "Ġ::": 7501,
      "Ġpresentation": 7502,
      "Ġscan": 7503,
      "Invalid": 7504,
      "Ġ1000": 7505,
      "ĠExt": 7506,
      "Ġcalculate": 7507,
      "Ġmodified": 7508,
      "ĠColor": 7509,
      "Ġstars": 7510,
      "Ġparallel": 7511,
      "alls": 7512,
      "assertFalse": 7513,
      "ĠScott": 7514,
      "Ġordered": 7515,
      "ferent": 7516,
      "Ġcycle": 7517,
      "present": 7518,
      "Ġemphas": 7519,
      "Ġfocused": 7520,
      "Ġlatter": 7521,
      "edy": 7522,
      "Ġimplic": 7523,
      "linear": 7524,
      "ello": 7525,
      "ĠAccording": 7526,
      "Variable": 7527,
      "Ġexplanation": 7528,
      "Ġaffected": 7529,
      "Ġfemale": 7530,
      "Ġsuggests": 7531,
      "ads": 7532,
      "ĠMERCHANT": 7533,
      "ĠAuthor": 7534,
      "Ġstatements": 7535,
      "raises": 7536,
      "Ġprepare": 7537,
      "opts": 7538,
      "Ġwarning": 7539,
      "Hel": 7540,
      "Connection": 7541,
      "ValueError": 7542,
      "Ġconstraint": 7543,
      "Most": 7544,
      "Ġfashion": 7545,
      "Ġacademia": 7546,
      "Ġnine": 7547,
      "Ġdra": 7548,
      "->": 7549,
      "Ġsomewhere": 7550,
      "Ġpractices": 7551,
      "ĠCath": 7552,
      "found": 7553,
      "hi": 7554,
      "sem": 7555,
      "plugin": 7556,
      "Thank": 7557,
      "columns": 7558,
      "Ġmere": 7559,
      "Ġexplore": 7560,
      "Ġbuck": 7561,
      "Ġcalc": 7562,
      "Ġembed": 7563,
      "ĠBoston": 7564,
      "Ġcris": 7565,
      "Ġexpensive": 7566,
      "igan": 7567,
      "Ġfreedom": 7568,
      "alysis": 7569,
      "Ġcompre": 7570,
      "rat": 7571,
      "Ġpanel": 7572,
      "Ġrent": 7573,
      "TEST": 7574,
      "ĠAtl": 7575,
      "Ġsignature": 7576,
      "hips": 7577,
      "ĠMicrosoft": 7578,
      "Ġmanner": 7579,
      "ĠAfrican": 7580,
      "Ġreact": 7581,
      "400": 7582,
      "ĠApache": 7583,
      "arks": 7584,
      "ĠSecond": 7585,
      "Ġban": 7586,
      "plates": 7587,
      "Ġimproved": 7588,
      "ikipedia": 7589,
      "Ġhearing": 7590,
      "+\\": 7591,
      "Ġsharing": 7592,
      "Process": 7593,
      "Ġcandidates": 7594,
      "')],": 7595,
      "Ġextr": 7596,
      "Ġinstructions": 7597,
      "buf": 7598,
      "ĠSocial": 7599,
      "Ġspeech": 7600,
      "lean": 7601,
      "Ġaccounts": 7602,
      "9999": 7603,
      "Select": 7604,
      "stderr": 7605,
      "Ġfav": 7606,
      "Ġelection": 7607,
      "ĠMax": 7608,
      "Ġtypical": 7609,
      "Ġchecked": 7610,
      "ĠLATIN": 7611,
      "gers": 7612,
      "safe": 7613,
      "Ġcritic": 7614,
      "Ġcomfortable": 7615,
      "ĠDi": 7616,
      "metric": 7617,
      "Map": 7618,
      "ĠLong": 7619,
      "Ġindicate": 7620,
      "Ġ'',": 7621,
      "DR": 7622,
      "limit": 7623,
      "issue": 7624,
      "ĠNO": 7625,
      "Ġsevere": 7626,
      "ĠReport": 7627,
      "car": 7628,
      "ponents": 7629,
      "Ġsnow": 7630,
      "Ġinvalid": 7631,
      "span": 7632,
      "Ġaccurate": 7633,
      "Ġloved": 7634,
      "ĠThomas": 7635,
      "Ġdesk": 7636,
      "Ġcluster": 7637,
      "Ġconsistent": 7638,
      "iable": 7639,
      "Ġhtml": 7640,
      "iples": 7641,
      "edge": 7642,
      "Ġnav": 7643,
      "ĠLeague": 7644,
      "Ġemer": 7645,
      "Ġskip": 7646,
      "Ġmedium": 7647,
      "engine": 7648,
      "ĠSil": 7649,
      "Ġexperiences": 7650,
      "ja": 7651,
      "ĠTherefore": 7652,
      "Ġkick": 7653,
      "Ġinstant": 7654,
      "Ġholds": 7655,
      "Ġ300": 7656,
      "ĠStar": 7657,
      "Ġdiscussed": 7658,
      "ĠFil": 7659,
      "abc": 7660,
      "-%": 7661,
      "ERROR": 7662,
      "global": 7663,
      "widget": 7664,
      "anga": 7665,
      "Packet": 7666,
      "Ġmir": 7667,
      "Child": 7668,
      "According": 7669,
      "Ġevolution": 7670,
      "plan": 7671,
      "Ġwine": 7672,
      "irmed": 7673,
      "Ġsentence": 7674,
      "Ġinvolve": 7675,
      "ĠAv": 7676,
      "?)": 7677,
      "gent": 7678,
      "Ġfootball": 7679,
      "Ġconvention": 7680,
      "ĠMERCHANTABILITY": 7681,
      "Ġwelcome": 7682,
      "entity": 7683,
      "Ġplenty": 7684,
      "zero": 7685,
      "ĠIsland": 7686,
      "ĠJud": 7687,
      "Ġ36": 7688,
      "cdot": 7689,
      "Ġbranch": 7690,
      "awn": 7691,
      "Ġentertain": 7692,
      "ĠWestern": 7693,
      "!)": 7694,
      "vas": 7695,
      "Ġhidden": 7696,
      "tuple": 7697,
      "Ġdensity": 7698,
      "Version": 7699,
      "ĠConference": 7700,
      "Ġpublications": 7701,
      "Ġtotally": 7702,
      "Ġformed": 7703,
      "Fi": 7704,
      "Ġsin": 7705,
      "reens": 7706,
      "2010": 7707,
      "Ġmarg": 7708,
      "ĠTor": 7709,
      "ansion": 7710,
      "Ġsuccessfully": 7711,
      "Ġcash": 7712,
      "Ġterr": 7713,
      "ĠCode": 7714,
      "Ġcaught": 7715,
      "Ġdf": 7716,
      "Ġenumer": 7717,
      "custom": 7718,
      "loads": 7719,
      "Ġsql": 7720,
      "po": 7721,
      "Ġ75": 7722,
      "Ġchallenges": 7723,
      "Ġconnections": 7724,
      "ĠSecurity": 7725,
      "Ġimplemented": 7726,
      "Ġwarnings": 7727,
      "achine": 7728,
      "Simple": 7729,
      "ĠPoint": 7730,
      "tz": 7731,
      "Ġ42": 7732,
      "Ġgall": 7733,
      "Ġlimits": 7734,
      "Ġneither": 7735,
      "roller": 7736,
      "Ġatom": 7737,
      "care": 7738,
      "Ġvision": 7739,
      "SL": 7740,
      "iar": 7741,
      "loss": 7742,
      "ĠLake": 7743,
      "Ġrealize": 7744,
      "Ġarrest": 7745,
      "Ġlecture": 7746,
      "ĠDefault": 7747,
      "umin": 7748,
      "Ġchief": 7749,
      "Ġafford": 7750,
      "Ġanywhere": 7751,
      "Ġrelation": 7752,
      "Ġwinning": 7753,
      "Ġstatistics": 7754,
      "`,": 7755,
      "ibraries": 7756,
      "DIT": 7757,
      "application": 7758,
      "Ġverify": 7759,
      "icing": 7760,
      "#!/": 7761,
      "ĠMot": 7762,
      "Ġtro": 7763,
      "Ġestimate": 7764,
      "âĢĿ,": 7765,
      "lan": 7766,
      "STR": 7767,
      "ato": 7768,
      "Auto": 7769,
      "Ġaspects": 7770,
      "loop": 7771,
      "ĠDistrict": 7772,
      "bad": 7773,
      "proxy": 7774,
      "Ġ2015": 7775,
      "Ġveget": 7776,
      "ĠWho": 7777,
      "ĠLouis": 7778,
      "elled": 7779,
      "Another": 7780,
      "ĠDuring": 7781,
      "Ġcra": 7782,
      "Header": 7783,
      "Ġtransition": 7784,
      "game": 7785,
      "Ġdomin": 7786,
      "enum": 7787,
      "ulator": 7788,
      "Ġdelivery": 7789,
      "Ġconfidence": 7790,
      "invalid": 7791,
      "Ġhighlight": 7792,
      "Ġsummary": 7793,
      "Ġstreet": 7794,
      "Ġjoined": 7795,
      "Ġfigures": 7796,
      "Ġevening": 7797,
      "ĠDO": 7798,
      "orders": 7799,
      "Ġsector": 7800,
      "Ġcircle": 7801,
      "ĠSpecial": 7802,
      "van": 7803,
      "Ġatmosp": 7804,
      "ĠCard": 7805,
      "Ġmeta": 7806,
      "oration": 7807,
      "kins": 7808,
      "ĠWall": 7809,
      "300": 7810,
      "ĠEnergy": 7811,
      "Ġunable": 7812,
      "pdf": 7813,
      "ĠWi": 7814,
      "Ġdistinct": 7815,
      "Ne": 7816,
      "uler": 7817,
      "Ġpractical": 7818,
      "ĠĠĠĠĠĠĠĠĠĠĠĠĠĠĠĠĠĠĠĠĠĠĠĠĠĠĠĠĠĠĠĠĠĠĠĠĠĠĠ": 7819,
      "ĠWal": 7820,
      "move": 7821,
      "__,": 7822,
      "imb": 7823,
      "Ġdeleted": 7824,
      "ĠLinux": 7825,
      "oyal": 7826,
      "ĠWater": 7827,
      "ĠPerson": 7828,
      "Ġmapping": 7829,
      "Ġfrag": 7830,
      "Ġthoughts": 7831,
      "ĠInstead": 7832,
      "Returns": 7833,
      "Ġvan": 7834,
      "Ġgrid": 7835,
      "ĠTypeError": 7836,
      "Ġcitizens": 7837,
      "ilon": 7838,
      "istant": 7839,
      "ĠEnvironment": 7840,
      "eq": 7841,
      "video": 7842,
      "Ġeducational": 7843,
      "Ġcities": 7844,
      "SER": 7845,
      "MP": 7846,
      "'][": 7847,
      "Ġobviously": 7848,
      "Ġaccident": 7849,
      "Ġpassing": 7850,
      "socket": 7851,
      "Ġknowing": 7852,
      "Ġfro": 7853,
      "Ġliqu": 7854,
      "Ġspeaking": 7855,
      "abil": 7856,
      "ĠPub": 7857,
      "score": 7858,
      "dden": 7859,
      "Ġmagn": 7860,
      "aining": 7861,
      "Ġabstract": 7862,
      "properties": 7863,
      "Ġlocations": 7864,
      "Ġcontrast": 7865,
      "Load": 7866,
      "views": 7867,
      "ĠDesign": 7868,
      "Ġsugar": 7869,
      "ogether": 7870,
      "Ġshop": 7871,
      "ni": 7872,
      "ĠSeries": 7873,
      "Ġsexual": 7874,
      "sect": 7875,
      "Ġadults": 7876,
      "ĠPen": 7877,
      "URE": 7878,
      "attrs": 7879,
      "ĠAut": 7880,
      "Ġ):": 7881,
      "ĠLast": 7882,
      "Ġoccurs": 7883,
      "Ġnuclear": 7884,
      "Ġprinter": 7885,
      "Ġinfect": 7886,
      "ĠView": 7887,
      "ĠWilliam": 7888,
      "Ġestimated": 7889,
      "Ġtheme": 7890,
      "Ġreward": 7891,
      "ĠCare": 7892,
      "ĠQue": 7893,
      "Find": 7894,
      "Meta": 7895,
      "fra": 7896,
      "rieved": 7897,
      "Ġplane": 7898,
      "king": 7899,
      "enabled": 7900,
      "istor": 7901,
      "Ġtight": 7902,
      "quare": 7903,
      "Ġpit": 7904,
      "Ġexit": 7905,
      "Ġtested": 7906,
      "Ġchart": 7907,
      "appe": 7908,
      "ĠThank": 7909,
      "()[": 7910,
      "Ġperfectly": 7911,
      "Ġeq": 7912,
      "ĠStep": 7913,
      "ĠSpring": 7914,
      "Ġmatching": 7915,
      "Ġpeer": 7916,
      "azy": 7917,
      "ĠSing": 7918,
      "tools": 7919,
      "Dir": 7920,
      "roud": 7921,
      "Ġframework": 7922,
      "uke": 7923,
      "Ġdiet": 7924,
      "acc": 7925,
      "Ġdrugs": 7926,
      "ĠJim": 7927,
      "high": 7928,
      "Ġcoast": 7929,
      "LECT": 7930,
      "stood": 7931,
      "Ġcars": 7932,
      "Ġcultural": 7933,
      "Ġhydro": 7934,
      "expr": 7935,
      "Ġmouth": 7936,
      "ĠBlue": 7937,
      "font": 7938,
      "ĠÂłĠÂł": 7939,
      "Ã¡": 7940,
      "Ġsuc": 7941,
      "ĠIll": 7942,
      "Ġreplaced": 7943,
      "ĠHill": 7944,
      "Ġinner": 7945,
      "Ġpregn": 7946,
      "inputs": 7947,
      "Ġacid": 7948,
      "ĠPeter": 7949,
      "ĠPDF": 7950,
      "Ġtmp": 7951,
      "Ġprev": 7952,
      "days": 7953,
      "assertIs": 7954,
      "Ġmur": 7955,
      "Ġextent": 7956,
      "ĠProt": 7957,
      "Ġtelling": 7958,
      "scape": 7959,
      "ĠÂ£": 7960,
      "lat": 7961,
      "azon": 7962,
      "operator": 7963,
      "Click": 7964,
      "Result": 7965,
      "ĠJeff": 7966,
      "Ġcommitted": 7967,
      "ĠON": 7968,
      "ĠHy": 7969,
      "ora": 7970,
      "ĠJun": 7971,
      "SET": 7972,
      "language": 7973,
      "Ġresidents": 7974,
      "ĠControl": 7975,
      "compat": 7976,
      "Ġhyper": 7977,
      "fd": 7978,
      "Ġtechnique": 7979,
      "Ġsudden": 7980,
      "DEFAULT": 7981,
      "Link": 7982,
      "SO": 7983,
      "IAL": 7984,
      "Ġadmin": 7985,
      "----------------------------------------------------------------": 7986,
      "Ġeating": 7987,
      "Ġrows": 7988,
      "Ġadb": 7989,
      "Ġrepeated": 7990,
      "ĠOK": 7991,
      "ĠTel": 7992,
      "elist": 7993,
      "Ġcomparison": 7994,
      "attribute": 7995,
      "ĠNE": 7996,
      "Ġaccuracy": 7997,
      "Ġauthority": 7998,
      "ĠLook": 7999,
      "render": 8000,
      "WR": 8001,
      "Ġelimin": 8002,
      "ashed": 8003,
      "UU": 8004,
      "ental": 8005,
      "Ġ\"'": 8006,
      "Ġpaint": 8007,
      "feed": 8008,
      "ĠMike": 8009,
      "ĠEnd": 8010,
      "Ġmatters": 8011,
      "MENT": 8012,
      "ĠWeek": 8013,
      "ĠStart": 8014,
      "Ġstret": 8015,
      "Ġplugin": 8016,
      "Ġcloser": 8017,
      "ĠFood": 8018,
      "what": 8019,
      "Ġec": 8020,
      "ria": 8021,
      "Ġfant": 8022,
      "organ": 8023,
      "Work": 8024,
      "('\\": 8025,
      "ĠCA": 8026,
      "lt": 8027,
      "Ġtow": 8028,
      "effect": 8029,
      "operation": 8030,
      "messages": 8031,
      "Ġsigns": 8032,
      "Ġcable": 8033,
      "ĠRichard": 8034,
      "Ġquote": 8035,
      "Ġexperts": 8036,
      "ĠCommunity": 8037,
      "Ġiniti": 8038,
      "ĠSand": 8039,
      "forcement": 8040,
      "Ġmaps": 8041,
      "Ġhandler": 8042,
      "Option": 8043,
      "Ġmodules": 8044,
      "ĠTry": 8045,
      "Status": 8046,
      "Ġthr": 8047,
      "ĠWhere": 8048,
      "ĠLink": 8049,
      "adding": 8050,
      "Const": 8051,
      "Ġreb": 8052,
      "ĠStore": 8053,
      "ä»": 8054,
      "ĠShould": 8055,
      "Ġnamespace": 8056,
      "Ġtaught": 8057,
      "Ġnumerous": 8058,
      "GR": 8059,
      "Ġutils": 8060,
      "ears": 8061,
      "Ġvisible": 8062,
      "ĠOk": 8063,
      "Ġ((": 8064,
      "Ġ&',": 8065,
      "ĠDate": 8066,
      "Ġrom": 8067,
      "ĠEconom": 8068,
      "burg": 8069,
      "ĠProv": 8070,
      "ifiers": 8071,
      "Ġconsumer": 8072,
      "(__": 8073,
      "estival": 8074,
      "binary": 8075,
      "Ġentity": 8076,
      "Ġcursor": 8077,
      "Ġpromote": 8078,
      "IGN": 8079,
      "ULL": 8080,
      "ĠJose": 8081,
      "Ġhumans": 8082,
      "ridge": 8083,
      "800": 8084,
      "Ġcharges": 8085,
      "ohn": 8086,
      "topic": 8087,
      "neg": 8088,
      "Ġstructures": 8089,
      "Ġgoverning": 8090,
      "Ġreply": 8091,
      "Ġrequested": 8092,
      "Ġcontacts": 8093,
      "Off": 8094,
      "ĠLos": 8095,
      "ĠBob": 8096,
      "window": 8097,
      "agent": 8098,
      "ĠCP": 8099,
      "Ġconn": 8100,
      ")'": 8101,
      "Ġsolar": 8102,
      "iat": 8103,
      "ĠHuman": 8104,
      "Ġstores": 8105,
      "Ġattached": 8106,
      "ibilities": 8107,
      "Fig": 8108,
      "rit": 8109,
      "ĠOption": 8110,
      "Ġcoffee": 8111,
      "Ġpackages": 8112,
      "oop": 8113,
      "Ġmissed": 8114,
      "ĠJohnson": 8115,
      "gt": 8116,
      "ifferent": 8117,
      "Ġpayment": 8118,
      "ynomial": 8119,
      "uscript": 8120,
      "Ġdream": 8121,
      "ĠWARRANTY": 8122,
      "ĠTechnology": 8123,
      "Ġmm": 8124,
      "Ġ72": 8125,
      "ĠWood": 8126,
      "Ġportion": 8127,
      "ĠTable": 8128,
      "Arg": 8129,
      "Ġoccurred": 8130,
      "sembly": 8131,
      "directory": 8132,
      "Ġdiscover": 8133,
      "ĠIns": 8134,
      "Ġath": 8135,
      "Ġtut": 8136,
      "Ġprinting": 8137,
      "Ġinjury": 8138,
      "Ġmoves": 8139,
      "Ġvel": 8140,
      "Ġobl": 8141,
      "Ġrespectively": 8142,
      "Ġkinds": 8143,
      "Ġ[])": 8144,
      "fetch": 8145,
      "Ġdedicated": 8146,
      "Ġminim": 8147,
      "LC": 8148,
      "Write": 8149,
      "ĠOrgan": 8150,
      "Art": 8151,
      "ixel": 8152,
      "ME": 8153,
      "inity": 8154,
      "iams": 8155,
      "Ġdebt": 8156,
      "Update": 8157,
      ".;": 8158,
      "Ġali": 8159,
      "Ġfacilities": 8160,
      "Ġcarried": 8161,
      "arc": 8162,
      "Ġpercentage": 8163,
      "Ġlanguages": 8164,
      "ita": 8165,
      "Ġincred": 8166,
      "Mix": 8167,
      "kg": 8168,
      "Ġcharged": 8169,
      "Ġcomprehens": 8170,
      "Ġsucceed": 8171,
      "Ġspons": 8172,
      "Ġphones": 8173,
      "Ġlived": 8174,
      "Ġfold": 8175,
      "Ġexpressed": 8176,
      "nan": 8177,
      "iger": 8178,
      "Ġinn": 8179,
      "ĠPR": 8180,
      "Ġspl": 8181,
      "aser": 8182,
      "ĠTeam": 8183,
      "Ġbusy": 8184,
      "INTER": 8185,
      "ĠMusic": 8186,
      "Ġscores": 8187,
      "noon": 8188,
      "ailability": 8189,
      "Ġassigned": 8190,
      "Ġfruit": 8191,
      "ĠCy": 8192,
      "cial": 8193,
      "Ġrecorded": 8194,
      "Ġsending": 8195,
      "Ġprinted": 8196,
      "Ġthera": 8197,
      "edit": 8198,
      "ĠMedical": 8199,
      "tw": 8200,
      "dimension": 8201,
      "Pe": 8202,
      "ĠPO": 8203,
      "Ġartist": 8204,
      "ĠCustom": 8205,
      "click": 8206,
      "Ġrelationships": 8207,
      "Ġmarkets": 8208,
      "ĠsetUp": 8209,
      "Ġsituations": 8210,
      "ifts": 8211,
      "Ġconsequ": 8212,
      "Red": 8213,
      "Ġlogin": 8214,
      "phi": 8215,
      "ĠMaster": 8216,
      "Ġalle": 8217,
      "#####": 8218,
      "Stream": 8219,
      "pattern": 8220,
      "Dr": 8221,
      "cred": 8222,
      "inds": 8223,
      "Ġcircumstances": 8224,
      "ĠEqu": 8225,
      "Ġtough": 8226,
      "ĠHave": 8227,
      "Ġfell": 8228,
      "vec": 8229,
      "apper": 8230,
      "Ġaid": 8231,
      "ĠAI": 8232,
      "Ġscr": 8233,
      "ĠAnother": 8234,
      "Ġ\".": 8235,
      "orse": 8236,
      "(**": 8237,
      "Ġcoe": 8238,
      "ĠMartin": 8239,
      "ocity": 8240,
      "Ġdollars": 8241,
      "ua": 8242,
      "LS": 8243,
      "ĠHand": 8244,
      "Ġdecades": 8245,
      "Web": 8246,
      "ĠEnter": 8247,
      "Ġalt": 8248,
      "ĠConfig": 8249,
      "\"}": 8250,
      "Min": 8251,
      "Ġsuitable": 8252,
      "Ġdiscipl": 8253,
      "Ġhistorical": 8254,
      "Ġblow": 8255,
      "ĠBest": 8256,
      "ĠNY": 8257,
      "__)": 8258,
      "Ġwra": 8259,
      "execut": 8260,
      "Ġfilters": 8261,
      "Ġmathematical": 8262,
      "fty": 8263,
      "Ġpacket": 8264,
      "Ġmort": 8265,
      "esome": 8266,
      "Ġchat": 8267,
      "Array": 8268,
      "ĠOld": 8269,
      "container": 8270,
      "Ġneighb": 8271,
      "Ġsubt": 8272,
      "Ġopposite": 8273,
      "none": 8274,
      "Ġpartial": 8275,
      "WS": 8276,
      "Ġbegins": 8277,
      "Ġworst": 8278,
      "bot": 8279,
      "likely": 8280,
      "Ġaccel": 8281,
      "cohol": 8282,
      "Ġmale": 8283,
      "Ġphr": 8284,
      "Ġcollections": 8285,
      "Ġrepresented": 8286,
      "Ġexistence": 8287,
      "Ġfrequently": 8288,
      "Ġprison": 8289,
      "category": 8290,
      "ned": 8291,
      "docs": 8292,
      "Every": 8293,
      "usage": 8294,
      "License": 8295,
      "eper": 8296,
      "release": 8297,
      "Ġaddresses": 8298,
      "Ġ33": 8299,
      "Ġregions": 8300,
      "ĠSearch": 8301,
      "Ġretail": 8302,
      "Ġinvent": 8303,
      "Ġdiam": 8304,
      "Ġgather": 8305,
      "Ġbin": 8306,
      "Ġ${\\": 8307,
      "Co": 8308,
      "Ġreceiving": 8309,
      "Ġrecognized": 8310,
      "Ġnegot": 8311,
      "Ġris": 8312,
      "ĠPac": 8313,
      "Ġrecommendation": 8314,
      "Use": 8315,
      "Ġhoriz": 8316,
      "Ġencourage": 8317,
      "mal": 8318,
      "Ġalgebra": 8319,
      "Ġexcited": 8320,
      "created": 8321,
      "Ġleadership": 8322,
      "Ġdefend": 8323,
      "={'": 8324,
      "timately": 8325,
      "specific": 8326,
      "à¥": 8327,
      "API": 8328,
      "Ġbigger": 8329,
      "Met": 8330,
      "Function": 8331,
      "sentry": 8332,
      "Ĥ¬": 8333,
      "ĠSol": 8334,
      "hr": 8335,
      "ĠMuseum": 8336,
      "ĠAdminist": 8337,
      "Ġcreative": 8338,
      "101": 8339,
      "DP": 8340,
      "Ġincorpor": 8341,
      "dirname": 8342,
      "ĠSupp": 8343,
      "itionally": 8344,
      "(\"%": 8345,
      "Ġnob": 8346,
      "download": 8347,
      "Ġille": 8348,
      "uy": 8349,
      "Ġ61": 8350,
      "Ġannounce": 8351,
      "Ġbits": 8352,
      "apache": 8353,
      "ĠParameters": 8354,
      "Ġunlock": 8355,
      "Ġeffectively": 8356,
      "schema": 8357,
      "iders": 8358,
      "Ġplanet": 8359,
      "Cal": 8360,
      "kin": 8361,
      "Ġadds": 8362,
      "Ġhundreds": 8363,
      "ĠGrand": 8364,
      "âĦ": 8365,
      "fill": 8366,
      "Ġdestination": 8367,
      "Ġrelax": 8368,
      "Ġmixed": 8369,
      "Ġtelevision": 8370,
      "Implemented": 8371,
      "Ġ2016": 8372,
      "Ġsac": 8373,
      ")',": 8374,
      "Ġelectron": 8375,
      "ĠToday": 8376,
      "ĠMethod": 8377,
      "Tensor": 8378,
      "constant": 8379,
      "warning": 8380,
      "lets": 8381,
      "Method": 8382,
      "seq": 8383,
      "Ġattrs": 8384,
      "Ġtrick": 8385,
      "Ġ00": 8386,
      "ingly": 8387,
      "Ke": 8388,
      "Ġgenerator": 8389,
      "Ġtablet": 8390,
      "Ġattacks": 8391,
      "Color": 8392,
      "ipal": 8393,
      "emon": 8394,
      "exus": 8395,
      "Ġ69": 8396,
      "quote": 8397,
      "pb": 8398,
      "OF": 8399,
      "Ġwondering": 8400,
      "Max": 8401,
      "esh": 8402,
      "lymp": 8403,
      "convert": 8404,
      "Ġproposal": 8405,
      "Ġmarried": 8406,
      "ocks": 8407,
      "iminal": 8408,
      "iveness": 8409,
      "Ġ}}": 8410,
      "ĠIndex": 8411,
      "Ġpal": 8412,
      "Ġenem": 8413,
      "Ġinterval": 8414,
      "Am": 8415,
      "Ġsan": 8416,
      "Ġlogic": 8417,
      "bling": 8418,
      "Ġcopies": 8419,
      "Ġsurgery": 8420,
      "namespace": 8421,
      "Ġwitness": 8422,
      "Ġunf": 8423,
      "çļ": 8424,
      "Ġtail": 8425,
      "available": 8426,
      "tenance": 8427,
      "Ġ----": 8428,
      "ĠKIND": 8429,
      "orney": 8430,
      "ĠAngeles": 8431,
      "Ġstrongly": 8432,
      "Ġ[(": 8433,
      "Ġapproved": 8434,
      "Ġcreates": 8435,
      "ĠCV": 8436,
      "Ġpublishing": 8437,
      "Ġvaluable": 8438,
      "ĠCH": 8439,
      "vs": 8440,
      "ĠPage": 8441,
      "Ġundergraduate": 8442,
      "ĠJewish": 8443,
      "Ġtok": 8444,
      "ĠVirginia": 8445,
      "acts": 8446,
      "xi": 8447,
      "Ġqueue": 8448,
      "ĠChris": 8449,
      "Ġnotification": 8450,
      "mathcal": 8451,
      "Ġpriority": 8452,
      "Ġneural": 8453,
      "Property": 8454,
      "128": 8455,
      "Ġderived": 8456,
      "Ġoriginally": 8457,
      "ĠDen": 8458,
      "Prot": 8459,
      "Ġsubsequ": 8460,
      "Ġipv": 8461,
      "Ġtaste": 8462,
      ".',": 8463,
      "Ġcm": 8464,
      "Ġphysic": 8465,
      "ĠTre": 8466,
      "Ġexplicitly": 8467,
      "Ġvictory": 8468,
      "Ġapparently": 8469,
      "raq": 8470,
      "ĠQt": 8471,
      "ĠFederal": 8472,
      "çļĦ": 8473,
      "Ġconfident": 8474,
      "Ġpotentially": 8475,
      "ĠValley": 8476,
      "Ġoutputs": 8477,
      "NOT": 8478,
      "Ġviolence": 8479,
      "ĠStr": 8480,
      "Ġsongs": 8481,
      "ĠClick": 8482,
      "_.": 8483,
      "Ġcurve": 8484,
      "Ġcontribution": 8485,
      "Ġdebate": 8486,
      "Ġwed": 8487,
      "Ġproud": 8488,
      "gments": 8489,
      "Ġsegment": 8490,
      "Look": 8491,
      "Ġfeels": 8492,
      "security": 8493,
      "Ġtips": 8494,
      "Ġbreast": 8495,
      "Ġtargets": 8496,
      "ĠHen": 8497,
      "Ġshel": 8498,
      "Ġear": 8499,
      "ĠIr": 8500,
      "Ġclassic": 8501,
      "Ġcategories": 8502,
      "Ġ400": 8503,
      "ĠBur": 8504,
      "Ġbroadcast": 8505,
      "Ġoccasion": 8506,
      "Ġmarriage": 8507,
      "Ġyesterday": 8508,
      "ĠâĨ": 8509,
      "Ġcontained": 8510,
      "Direct": 8511,
      "Ġplastic": 8512,
      "256": 8513,
      "IME": 8514,
      "ĠThose": 8515,
      "ĠBud": 8516,
      "ĠFROM": 8517,
      "Ġdimensions": 8518,
      "Ġbrings": 8519,
      "astern": 8520,
      "REE": 8521,
      "delta": 8522,
      "ookie": 8523,
      "Ġarbit": 8524,
      "Ġrain": 8525,
      "Ġsuggestions": 8526,
      "Ġparticipants": 8527,
      "Ġimpress": 8528,
      "Ġpersonally": 8529,
      "Ġstorm": 8530,
      "async": 8531,
      "classmethod": 8532,
      "foot": 8533,
      "ĠSecret": 8534,
      "Ġcolleagues": 8535,
      "hetic": 8536,
      "Ġpin": 8537,
      "ĠLib": 8538,
      "enable": 8539,
      "otes": 8540,
      "ĠSpan": 8541,
      "Oh": 8542,
      "Ġgreatest": 8543,
      "ĠNon": 8544,
      "lint": 8545,
      "Ġreduction": 8546,
      "ITE": 8547,
      "Ġorders": 8548,
      "ĠParty": 8549,
      "icken": 8550,
      "MT": 8551,
      "ĠTur": 8552,
      "ĠWord": 8553,
      "Ġvalidate": 8554,
      "Ġassistance": 8555,
      "ĠStat": 8556,
      "ĠReal": 8557,
      "Ġsubmission": 8558,
      "ĠOhio": 8559,
      "holder": 8560,
      "Ġfee": 8561,
      "Ġsections": 8562,
      "Ġfly": 8563,
      "Ġadj": 8564,
      "SION": 8565,
      "kind": 8566,
      "Ġfacility": 8567,
      "tool": 8568,
      "ĠSystems": 8569,
      "screen": 8570,
      "pository": 8571,
      "trace": 8572,
      "Graph": 8573,
      "Ġmanuscript": 8574,
      "Edit": 8575,
      "itchen": 8576,
      "Ġdrivers": 8577,
      "ĠSH": 8578,
      "Ġyouth": 8579,
      "button": 8580,
      "Ġhappening": 8581,
      "gate": 8582,
      "Ġyards": 8583,
      "Ġtor": 8584,
      "Ġredistribute": 8585,
      "Ġ34": 8586,
      "epend": 8587,
      "Ġspin": 8588,
      "Ġappearance": 8589,
      "Ġholiday": 8590,
      "ĠMen": 8591,
      "Ġevaluation": 8592,
      "Ġfabric": 8593,
      "nic": 8594,
      "Ġuniform": 8595,
      "ĠWITH": 8596,
      "Ġsync": 8597,
      "bind": 8598,
      "contin": 8599,
      "ĠSl": 8600,
      "olumb": 8601,
      "Ġappreciate": 8602,
      "ĠGame": 8603,
      "Search": 8604,
      "Ġmarked": 8605,
      "Ġstats": 8606,
      "Ġhasn": 8607,
      "FILE": 8608,
      "abetes": 8609,
      "IZE": 8610,
      "Access": 8611,
      "ĠDig": 8612,
      "pa": 8613,
      "itted": 8614,
      "Ġnarrow": 8615,
      "tage": 8616,
      "ĠPass": 8617,
      "nsel": 8618,
      "([[": 8619,
      "media": 8620,
      "itan": 8621,
      "Ġmal": 8622,
      "export": 8623,
      "Ġcollected": 8624,
      "Ġcapable": 8625,
      ")}": 8626,
      "yset": 8627,
      "relation": 8628,
      "Ġrepresenting": 8629,
      "Ġedited": 8630,
      "Ġ1999": 8631,
      "reset": 8632,
      "adian": 8633,
      "Ġmoder": 8634,
      "Ġturning": 8635,
      "Ġplate": 8636,
      ">\\": 8637,
      "Ġchecking": 8638,
      "POST": 8639,
      "Ġrub": 8640,
      "Ġpersons": 8641,
      "TC": 8642,
      "Ġkeeps": 8643,
      "[:,": 8644,
      "isters": 8645,
      "Ġpairs": 8646,
      "Ġking": 8647,
      "ĠÂ·": 8648,
      "Ġevaluate": 8649,
      "Ġarrived": 8650,
      "Ġenumerate": 8651,
      "parts": 8652,
      "ointer": 8653,
      "Checker": 8654,
      "bles": 8655,
      "hot": 8656,
      "ĠLicensed": 8657,
      "Ġjudge": 8658,
      "oup": 8659,
      "DateTime": 8660,
      "ĠRo": 8661,
      "Ġescape": 8662,
      "Ġhonor": 8663,
      "ellect": 8664,
      "Ġquantum": 8665,
      "Go": 8666,
      "Ġstuck": 8667,
      "sync": 8668,
      "ipt": 8669,
      "Ġexposure": 8670,
      "Ġcheap": 8671,
      "LOG": 8672,
      "USER": 8673,
      "ĠManager": 8674,
      "ĠRepublican": 8675,
      "]])": 8676,
      "ao": 8677,
      "ĠProduct": 8678,
      "Ġmetric": 8679,
      "hs": 8680,
      "Ġwalking": 8681,
      "imer": 8682,
      "DC": 8683,
      "Ġstanding": 8684,
      "Ġessentially": 8685,
      "Ġconducted": 8686,
      "Ġfundamental": 8687,
      "ĠMexico": 8688,
      "Top": 8689,
      "]*": 8690,
      "ĠNor": 8691,
      "aml": 8692,
      "ivered": 8693,
      "ĠInit": 8694,
      "elly": 8695,
      "ĠĠĠĠĠĠĠĠĠĠĠĠĠĠĠĠĠĠĠĠĠĠĠĠĠĠĠĠĠĠĠĠĠĠĠĠ": 8696,
      "Ġsurprised": 8697,
      "Ġphilosoph": 8698,
      "FR": 8699,
      "Ġindicates": 8700,
      "arse": 8701,
      "ĠAccess": 8702,
      "stac": 8703,
      "Ġartists": 8704,
      "lang": 8705,
      "UTH": 8706,
      "Ġagencies": 8707,
      "Ġsitting": 8708,
      "Buffer": 8709,
      "ACE": 8710,
      "ws": 8711,
      "Ġwindows": 8712,
      "Ġentered": 8713,
      "('%": 8714,
      "Ġbasket": 8715,
      "Ġelectronic": 8716,
      "Ġrecognize": 8717,
      "Ġexecutive": 8718,
      "SU": 8719,
      "timestamp": 8720,
      "Ġdropped": 8721,
      "bur": 8722,
      "mk": 8723,
      "Ġhun": 8724,
      "chron": 8725,
      "ĠPo": 8726,
      "ĠJo": 8727,
      "Enc": 8728,
      "TA": 8729,
      "disk": 8730,
      "Ġafternoon": 8731,
      "fire": 8732,
      "Ġguard": 8733,
      "Ġscored": 8734,
      "Ġexceptions": 8735,
      "Ġparagraph": 8736,
      "ĠFore": 8737,
      "appoint": 8738,
      "!!!": 8739,
      "Sm": 8740,
      "proto": 8741,
      "Ġmeasured": 8742,
      "ĠiP": 8743,
      "paths": 8744,
      "riz": 8745,
      "ĠSenate": 8746,
      "Ġrooted": 8747,
      "__':": 8748,
      "Block": 8749,
      "atom": 8750,
      "Ġ})": 8751,
      ">'": 8752,
      "ĠImportError": 8753,
      "nam": 8754,
      "Ġdefe": 8755,
      "oking": 8756,
      "super": 8757,
      ")|": 8758,
      "ĠFurther": 8759,
      "ĠPan": 8760,
      "Ġtranslation": 8761,
      "000000": 8762,
      "Ġcampus": 8763,
      "Ġefficiency": 8764,
      "git": 8765,
      "Ġquiet": 8766,
      "System": 8767,
      "hus": 8768,
      "Ġclosely": 8769,
      "Ġadult": 8770,
      "Ġtwe": 8771,
      "ĠExample": 8772,
      "ĠWomen": 8773,
      "Ġ_(\"": 8774,
      "ĠBow": 8775,
      "Ġrequirement": 8776,
      "Ġalgorithms": 8777,
      "ĠIraq": 8778,
      "ĠAbout": 8779,
      "when": 8780,
      "Ġdinner": 8781,
      "apers": 8782,
      "Ġscholar": 8783,
      "2009": 8784,
      "Ġ48": 8785,
      "SQL": 8786,
      ")+": 8787,
      "istical": 8788,
      "IntegerField": 8789,
      "Ġgrav": 8790,
      "Next": 8791,
      "Ġreferred": 8792,
      "Ġcro": 8793,
      "gnu": 8794,
      "Ġborder": 8795,
      "WARE": 8796,
      "Ġhandling": 8797,
      "Ġrestore": 8798,
      "alias": 8799,
      "ĠBAS": 8800,
      "Ġattach": 8801,
      "ourney": 8802,
      "Ġsick": 8803,
      "ĠTake": 8804,
      "buck": 8805,
      "cover": 8806,
      "Ġproport": 8807,
      "erves": 8808,
      "ĠJones": 8809,
      "Ġsomehow": 8810,
      "Ġunus": 8811,
      "Sign": 8812,
      "marker": 8813,
      "ĠLight": 8814,
      "FS": 8815,
      "=-": 8816,
      "ocate": 8817,
      "tok": 8818,
      "Port": 8819,
      "Ġprotein": 8820,
      "ĠWilliams": 8821,
      "ÂłÂłÂłÂł": 8822,
      "Ġemergency": 8823,
      "cb": 8824,
      "depth": 8825,
      "Ġsoil": 8826,
      "Ġrecall": 8827,
      "bits": 8828,
      "Vector": 8829,
      "remote": 8830,
      "ĠLI": 8831,
      "ĠPet": 8832,
      "vol": 8833,
      "ĠCarolina": 8834,
      "Ġexceed": 8835,
      "rible": 8836,
      "Ġmistake": 8837,
      "Ġpaying": 8838,
      "Ġforth": 8839,
      "Ġnewsp": 8840,
      "Ġfraction": 8841,
      "closed": 8842,
      "forward": 8843,
      "predict": 8844,
      "ĠMel": 8845,
      "Ġsav": 8846,
      "ighter": 8847,
      "accept": 8848,
      "Ġwidely": 8849,
      "izers": 8850,
      "complete": 8851,
      "folder": 8852,
      "Ġhurt": 8853,
      "Ġinstrument": 8854,
      "Sy": 8855,
      "Ġprinciple": 8856,
      "LICENSE": 8857,
      "roke": 8858,
      "Ġfoods": 8859,
      "wall": 8860,
      "}.": 8861,
      "ĠHead": 8862,
      "andon": 8863,
      "Ġstrategies": 8864,
      "Ġbreath": 8865,
      "IVE": 8866,
      "Ġphen": 8867,
      "Ġcausing": 8868,
      "About": 8869,
      "Ġdynamic": 8870,
      "Query": 8871,
      "ensus": 8872,
      "Ġcontribute": 8873,
      "ĠFamily": 8874,
      "Ġdisabled": 8875,
      ")$$": 8876,
      "Current": 8877,
      "Ġfort": 8878,
      "Ġterror": 8879,
      "Ġaffili": 8880,
      "1000": 8881,
      "adow": 8882,
      "Ġscheduled": 8883,
      "istent": 8884,
      "Ġmigr": 8885,
      "Ġisol": 8886,
      "Ġfriendly": 8887,
      "ami": 8888,
      "almost": 8889,
      "Ġexecute": 8890,
      "Ġinstallation": 8891,
      "css": 8892,
      "Ġops": 8893,
      "such": 8894,
      "ĠAdv": 8895,
      "collect": 8896,
      "ĠBE": 8897,
      "gamma": 8898,
      "ontal": 8899,
      "cursor": 8900,
      "mi": 8901,
      "apps": 8902,
      "Ġtaxes": 8903,
      "indices": 8904,
      "________________": 8905,
      "Ġped": 8906,
      "sigma": 8907,
      "ĠGeorg": 8908,
      "Ġdialog": 8909,
      "ulture": 8910,
      "Ġbelieved": 8911,
      "Ġhint": 8912,
      "Ġuint": 8913,
      "omething": 8914,
      "Ġunlikely": 8915,
      "ĠiPhone": 8916,
      "false": 8917,
      "ONE": 8918,
      "rl": 8919,
      "........": 8920,
      "Ġchecks": 8921,
      "including": 8922,
      "Although": 8923,
      "Where": 8924,
      "two": 8925,
      "protocol": 8926,
      "Ġabsor": 8927,
      "ĠWhether": 8928,
      "ĠOlymp": 8929,
      "hered": 8930,
      "Ġcriteria": 8931,
      "scribe": 8932,
      "prise": 8933,
      "Ġhero": 8934,
      "Ġissued": 8935,
      "Ġsport": 8936,
      "ĠWhich": 8937,
      "Ġignored": 8938,
      "ĠFund": 8939,
      "ĠEN": 8940,
      "Ġpul": 8941,
      "Ġenroll": 8942,
      "ĠEnt": 8943,
      "Lay": 8944,
      "Ġbath": 8945,
      "ĠXML": 8946,
      "Ġmanual": 8947,
      "iddleware": 8948,
      "Ġparticipate": 8949,
      "Eng": 8950,
      "viation": 8951,
      "criptions": 8952,
      "llo": 8953,
      "Ġprimarily": 8954,
      "Ġexcess": 8955,
      "Ġdram": 8956,
      "Ġveter": 8957,
      "Ġcarefully": 8958,
      "Ġreprodu": 8959,
      "ĠVariable": 8960,
      "verbose": 8961,
      "Ġserving": 8962,
      "Ġmultip": 8963,
      "ĠMcC": 8964,
      "Ġkeyword": 8965,
      "Ġmovies": 8966,
      "Ġcrisis": 8967,
      "Ġmainly": 8968,
      "define": 8969,
      "undle": 8970,
      "Ġshopping": 8971,
      "azz": 8972,
      "transform": 8973,
      "ĠHaw": 8974,
      "////////////////////////////////": 8975,
      "Ġinvestigation": 8976,
      "ĠKore": 8977,
      "alian": 8978,
      "pers": 8979,
      "eryset": 8980,
      "ĠWild": 8981,
      "Ġcere": 8982,
      "ipher": 8983,
      "Thread": 8984,
      "Ġseriously": 8985,
      "Ġplain": 8986,
      "ĠIslam": 8987,
      "Ġthin": 8988,
      "Ġtalks": 8989,
      "ĠCatholic": 8990,
      "Ġstable": 8991,
      "ĠCreat": 8992,
      "Ġenviron": 8993,
      "variables": 8994,
      "Bar": 8995,
      "Ġdisplayed": 8996,
      "esides": 8997,
      "ansas": 8998,
      "Ġleague": 8999,
      "Ġvacc": 9000,
      "Ġdangerous": 9001,
      "cloud": 9002,
      "ĠProfessor": 9003,
      "Ġmand": 9004,
      "Task": 9005,
      "Ġapproaches": 9006,
      "activ": 9007,
      "commun": 9008,
      "Ġkeyboard": 9009,
      "Ġgrades": 9010,
      "ĠFort": 9011,
      "eli": 9012,
      "('-": 9013,
      "Ġsupporting": 9014,
      "aved": 9015,
      "cuss": 9016,
      "Ġmassive": 9017,
      "Ġproxy": 9018,
      "Ġunderstood": 9019,
      "ĠGlobal": 9020,
      "rich": 9021,
      "ĠConnect": 9022,
      "Ġindustrial": 9023,
      "ĠJackson": 9024,
      "Ġmedicine": 9025,
      "Ġredirect": 9026,
      "ĠFull": 9027,
      "^{-": 9028,
      "aver": 9029,
      "Ġfindings": 9030,
      "Ġcounty": 9031,
      "Ġresponses": 9032,
      "Ġfails": 9033,
      "Even": 9034,
      "Ġvm": 9035,
      "zeros": 9036,
      "DITIONS": 9037,
      "Ġtom": 9038,
      "Ġedition": 9039,
      "ĠĠĠĠĠĠĠĠĠĠĠĠĠĠĠĠĠĠĠĠĠĠĠĠĠĠĠĠĠĠĠĠĠĠĠĠĠ": 9040,
      "Ġsuit": 9041,
      "Ġshock": 9042,
      "Ġmilk": 9043,
      "plain": 9044,
      "may": 9045,
      "Ġassessment": 9046,
      "shop": 9047,
      "Ġcontem": 9048,
      "Ġorient": 9049,
      "CTION": 9050,
      "Ġstdout": 9051,
      "Ġchannels": 9052,
      "Ġconsumers": 9053,
      "ocolate": 9054,
      "vector": 9055,
      "']),": 9056,
      "enture": 9057,
      "Ġanymore": 9058,
      "Ġrect": 9059,
      "Ġcrime": 9060,
      "edu": 9061,
      "stone": 9062,
      "ashes": 9063,
      "Ġofficer": 9064,
      "345": 9065,
      "frast": 9066,
      "png": 9067,
      "Ġseeking": 9068,
      "Ġagric": 9069,
      "ĠBush": 9070,
      "Ġseat": 9071,
      "Ġattempts": 9072,
      ")^": 9073,
      "upload": 9074,
      "Ġtruck": 9075,
      "Ġpassion": 9076,
      "Ġ----------": 9077,
      "ĠNext": 9078,
      "plug": 9079,
      "ĠLand": 9080,
      "Ġlawy": 9081,
      "Ġdiscount": 9082,
      "Ġtechnologies": 9083,
      "Ġillustr": 9084,
      "Ġhits": 9085,
      "Ġdt": 9086,
      "Ġlosing": 9087,
      "Ġschema": 9088,
      "ĠSettings": 9089,
      "ĠLee": 9090,
      "Ġtx": 9091,
      "Ġedges": 9092,
      "Ġcommonly": 9093,
      "exceptions": 9094,
      "Ġhur": 9095,
      "Ġbat": 9096,
      "'\"": 9097,
      ")])": 9098,
      "Ġfinite": 9099,
      "ĠOnline": 9100,
      "PUT": 9101,
      "Ġselling": 9102,
      "then": 9103,
      "Ã¢": 9104,
      "ĠDeb": 9105,
      "Mark": 9106,
      "Ġpicked": 9107,
      "Ġsubjects": 9108,
      "Ġreputation": 9109,
      "TS": 9110,
      "Ġ73": 9111,
      "plication": 9112,
      "tic": 9113,
      "Ġcovers": 9114,
      "Ġmillions": 9115,
      "Ġcite": 9116,
      "Ġaccommod": 9117,
      "ĠCourse": 9118,
      "rieve": 9119,
      "Ġcorporate": 9120,
      "Ġrestaurant": 9121,
      "Copyright": 9122,
      "Ġflight": 9123,
      "Ġresistance": 9124,
      "BI": 9125,
      "kes": 9126,
      "Ġ2017": 9127,
      "Make": 9128,
      "ownt": 9129,
      "Warning": 9130,
      "Ġfle": 9131,
      "Ġresident": 9132,
      "Ġclock": 9133,
      "=_": 9134,
      "cfg": 9135,
      "pick": 9136,
      "ĠNotImplemented": 9137,
      "ĠCommand": 9138,
      "break": 9139,
      "Ġsensor": 9140,
      "ĠSQL": 9141,
      "plus": 9142,
      "MAX": 9143,
      "Ġhabit": 9144,
      "Ġguest": 9145,
      "mitting": 9146,
      "Ġneighborhood": 9147,
      "ĠGra": 9148,
      "Ġcapture": 9149,
      "RES": 9150,
      "war": 9151,
      "aws": 9152,
      "Ġgod": 9153,
      "ulous": 9154,
      "Ġsubprocess": 9155,
      "ali": 9156,
      "Ġrealized": 9157,
      "precated": 9158,
      "Ġrend": 9159,
      "Ġprime": 9160,
      "PER": 9161,
      "commit": 9162,
      "sur": 9163,
      "world": 9164,
      "ĠIran": 9165,
      "Ġbuying": 9166,
      "Ġride": 9167,
      "Ġextend": 9168,
      "Ġcommitment": 9169,
      "dates": 9170,
      "Ġwealth": 9171,
      "Ġreplacement": 9172,
      "pare": 9173,
      "Ġfault": 9174,
      "Ġemployment": 9175,
      "Ġpolynomial": 9176,
      "Ġsad": 9177,
      "Window": 9178,
      "Ġrig": 9179,
      "fol": 9180,
      "Ġmeetings": 9181,
      "generate": 9182,
      "Ġdates": 9183,
      "Ġboost": 9184,
      "Ġassistant": 9185,
      "Ġclinical": 9186,
      "infty": 9187,
      "Ġsampl": 9188,
      "ixed": 9189,
      "ĠCONDITIONS": 9190,
      "Ġregardless": 9191,
      "Ġdefaults": 9192,
      "oked": 9193,
      "Ġtrained": 9194,
      "ometric": 9195,
      "private": 9196,
      "Network": 9197,
      "uality": 9198,
      "Ac": 9199,
      "Ġvast": 9200,
      "Ġemployee": 9201,
      "RI": 9202,
      "Ġdisag": 9203,
      "Ġancient": 9204,
      "Ġhook": 9205,
      "ĠUt": 9206,
      "ĠRoman": 9207,
      "gypt": 9208,
      "Ġreporting": 9209,
      "Ġsusp": 9210,
      "Ġsorry": 9211,
      "Ġboundary": 9212,
      "assertIn": 9213,
      "rons": 9214,
      "Ġfees": 9215,
      "PM": 9216,
      "reams": 9217,
      "Ġboys": 9218,
      "Ġfighting": 9219,
      "optional": 9220,
      "filters": 9221,
      "Ġcraft": 9222,
      "TeX": 9223,
      "Ġcircuit": 9224,
      "books": 9225,
      "ĠColumb": 9226,
      "ution": 9227,
      "Ġlargely": 9228,
      "Pub": 9229,
      "Ġcommission": 9230,
      "Ġstands": 9231,
      "Ġplanned": 9232,
      "ella": 9233,
      "Init": 9234,
      "ĠSpace": 9235,
      "Ġtu": 9236,
      "ORS": 9237,
      "Ġexperiments": 9238,
      "ĠPerhaps": 9239,
      "ograp": 9240,
      "ĠAsia": 9241,
      "Ġpitch": 9242,
      "ums": 9243,
      "Ġfurn": 9244,
      "olumes": 9245,
      "RC": 9246,
      "Que": 9247,
      "Ġnic": 9248,
      "ĠCAP": 9249,
      "Ġstudied": 9250,
      "Ġopts": 9251,
      "}_": 9252,
      "zing": 9253,
      "Ġ_('": 9254,
      "ĠSection": 9255,
      "Ġ37": 9256,
      "ĠChildren": 9257,
      "Qt": 9258,
      "Ġinvolves": 9259,
      "Ġearned": 9260,
      "flag": 9261,
      "Ġcomprehensive": 9262,
      "ĠMD": 9263,
      "Ġextreme": 9264,
      "Ġgranted": 9265,
      "Ġregional": 9266,
      "aylor": 9267,
      "Ġarchitecture": 9268,
      "Ġarbitr": 9269,
      "Two": 9270,
      "ĠFA": 9271,
      "Ġapplies": 9272,
      "âĶ": 9273,
      "star": 9274,
      "Ġunderlying": 9275,
      "Project": 9276,
      "ected": 9277,
      "ĠJoe": 9278,
      "ubs": 9279,
      "ĠBASIS": 9280,
      "Dat": 9281,
      "')),": 9282,
      "TEXT": 9283,
      "orough": 9284,
      "Ġrevealed": 9285,
      "tons": 9286,
      "Ġhole": 9287,
      "Ġexciting": 9288,
      "Ġpil": 9289,
      "Stud": 9290,
      "ĠNC": 9291,
      "ARY": 9292,
      "Ġchunk": 9293,
      "Mode": 9294,
      "Ġriver": 9295,
      "ĠVict": 9296,
      "provider": 9297,
      "Ġdealing": 9298,
      "FN": 9299,
      "Ġconsists": 9300,
      "ĠProcess": 9301,
      "Ġexpansion": 9302,
      "ĠAward": 9303,
      "ĠAttribute": 9304,
      "ĠArab": 9305,
      "Ġcalculated": 9306,
      "Ġcertificate": 9307,
      "iest": 9308,
      "images": 9309,
      "Ġtheorem": 9310,
      "123": 9311,
      "Ġshooting": 9312,
      "ĠSpanish": 9313,
      "Tree": 9314,
      "Ġexplains": 9315,
      "Ġtransaction": 9316,
      "Ġhel": 9317,
      "Ġcontrols": 9318,
      "aped": 9319,
      "Ġbringing": 9320,
      "ĠAud": 9321,
      "Ġacknowled": 9322,
      "ye": 9323,
      "Ġelsewhere": 9324,
      "Ġofficers": 9325,
      "Ġamb": 9326,
      "Author": 9327,
      "Ġacts": 9328,
      "Ġbare": 9329,
      "Ġharder": 9330,
      "ĠLearning": 9331,
      "MET": 9332,
      "Ġarms": 9333,
      "bat": 9334,
      "ĠFun": 9335,
      "Ġ\",": 9336,
      "ĠRef": 9337,
      "Ġcas": 9338,
      "Ġstim": 9339,
      "dumps": 9340,
      "Ġcream": 9341,
      "Ġdistingu": 9342,
      "Ġcompetitive": 9343,
      "Ġinject": 9344,
      "Ġbuildings": 9345,
      "Ġestimates": 9346,
      "Ġtou": 9347,
      "ena": 9348,
      "ĠHD": 9349,
      "Ġalpha": 9350,
      "Ġsizes": 9351,
      "Ġconcepts": 9352,
      "Ġpylint": 9353,
      "Ġremark": 9354,
      "AGS": 9355,
      "Ġunion": 9356,
      "Ġingred": 9357,
      "Ġpermanent": 9358,
      "ilarly": 9359,
      "ĠImage": 9360,
      "Ġalcohol": 9361,
      "âĦ¢": 9362,
      "ĠJon": 9363,
      "eases": 9364,
      "Ġsister": 9365,
      "Ġju": 9366,
      "Ġtack": 9367,
      "lext": 9368,
      "frastructure": 9369,
      "Ġ\"<": 9370,
      ":||": 9371,
      "Ġatmosphere": 9372,
      "Column": 9373,
      "Ġsignals": 9374,
      "TV": 9375,
      "ĠFair": 9376,
      "Ġskill": 9377,
      "Ġpointed": 9378,
      "Ġdecade": 9379,
      "Ġstrange": 9380,
      ".|": 9381,
      "Ġanswered": 9382,
      "Ġtemporary": 9383,
      "Ġchances": 9384,
      "Ġrac": 9385,
      "Ġconserv": 9386,
      "Ġdemocr": 9387,
      "fp": 9388,
      "Socket": 9389,
      "Ġ1990": 9390,
      "Entry": 9391,
      "etry": 9392,
      "Ġfinds": 9393,
      "Ġconfirmed": 9394,
      "ĠDid": 9395,
      "ĠRest": 9396,
      "Ġobjective": 9397,
      "ĠDev": 9398,
      "ĠMur": 9399,
      "cluster": 9400,
      "states": 9401,
      "ells": 9402,
      "Button": 9403,
      "%.": 9404,
      "Ġexpectations": 9405,
      "Ġpurchased": 9406,
      "ĠSteve": 9407,
      "itar": 9408,
      "Ġdisappe": 9409,
      "Ġsynt": 9410,
      "Ġmagic": 9411,
      "ĠSP": 9412,
      "encing": 9413,
      "ĠSource": 9414,
      "partner": 9415,
      "Ġcontributions": 9416,
      "basic": 9417,
      "serial": 9418,
      "lastname": 9419,
      "herit": 9420,
      "Mac": 9421,
      "Ġdesire": 9422,
      "Prov": 9423,
      "rig": 9424,
      "ĠMichigan": 9425,
      "ĠLabor": 9426,
      "Ġreligion": 9427,
      "iscal": 9428,
      "Ġrooms": 9429,
[...]
